{
  "version": "1.0",
  "truncation": null,
  "padding": null,
  "added_tokens": [
    {
      "id": 0,
      "content": "<s>",
      "single_word": false,
      "lstrip": false,
      "rstrip": false,
      "normalized": false,
      "special": true
    },
    {
      "id": 1,
      "content": "<pad>",
      "single_word": false,
      "lstrip": false,
      "rstrip": false,
      "normalized": false,
      "special": true
    },
    {
      "id": 2,
      "content": "</s>",
      "single_word": false,
      "lstrip": false,
      "rstrip": false,
      "normalized": false,
      "special": true
    },
    {
      "id": 3,
      "content": "<unk>",
      "single_word": false,
      "lstrip": false,
      "rstrip": false,
      "normalized": false,
      "special": true
    }
  ],
  "normalizer": {
    "type": "Sequence",
    "normalizers": [
      {
        "type": "Lowercase"
      },
      {
        "type": "NFKD"
      },
      {
        "type": "Strip",
        "strip_left": true,
        "strip_right": true
      },
      {
        "type": "StripAccents"
      }
    ]
  },
  "pre_tokenizer": {
    "type": "Whitespace"
  },
  "post_processor": null,
  "decoder": {
    "type": "WordPiece",
    "prefix": "##",
    "cleanup": true
  },
  "model": {
    "type": "WordPiece",
    "unk_token": "[UNK]",
    "continuing_subword_prefix": "##",
    "max_input_chars_per_word": 100,
    "vocab": {
      "<s>": 0,
      "<pad>": 1,
      "</s>": 2,
      "<unk>": 3,
      "!": 4,
      "\"": 5,
      "#": 6,
      "$": 7,
      "%": 8,
      "&": 9,
      "'": 10,
      "(": 11,
      ")": 12,
      "*": 13,
      "+": 14,
      ",": 15,
      "-": 16,
      ".": 17,
      "/": 18,
      "0": 19,
      "1": 20,
      "2": 21,
      "3": 22,
      "4": 23,
      "5": 24,
      "6": 25,
      "7": 26,
      "8": 27,
      "9": 28,
      ":": 29,
      ";": 30,
      "<": 31,
      "=": 32,
      ">": 33,
      "?": 34,
      "@": 35,
      "[": 36,
      "\\": 37,
      "]": 38,
      "^": 39,
      "_": 40,
      "`": 41,
      "a": 42,
      "b": 43,
      "c": 44,
      "d": 45,
      "e": 46,
      "f": 47,
      "g": 48,
      "h": 49,
      "i": 50,
      "j": 51,
      "k": 52,
      "l": 53,
      "m": 54,
      "n": 55,
      "o": 56,
      "p": 57,
      "q": 58,
      "r": 59,
      "s": 60,
      "t": 61,
      "u": 62,
      "v": 63,
      "w": 64,
      "x": 65,
      "y": 66,
      "z": 67,
      "{": 68,
      "|": 69,
      "}": 70,
      "~": 71,
      "##f": 72,
      "##_": 73,
      "##c": 74,
      "##o": 75,
      "##n": 76,
      "##v": 77,
      "##l": 78,
      "##t": 79,
      "##s": 80,
      "##1": 81,
      "##6": 82,
      "##p": 83,
      "##2": 84,
      "##h": 85,
      "##a": 86,
      "##x": 87,
      "##i": 88,
      "##w": 89,
      "##u": 90,
      "##d": 91,
      "##m": 92,
      "##e": 93,
      "##8": 94,
      "##0": 95,
      "##r": 96,
      "##k": 97,
      "##g": 98,
      "##4": 99,
      "##j": 100,
      "##b": 101,
      "##q": 102,
      "##y": 103,
      "##3": 104,
      "##9": 105,
      "##5": 106,
      "##z": 107,
      "##\"": 108,
      "##*": 109,
      "##7": 110,
      "##!": 111,
      "##\\": 112,
      "##.": 113,
      "##)": 114,
      "##;": 115,
      "##&": 116,
      "##,": 117,
      "##|": 118,
      "##{": 119,
      "##'": 120,
      "##+": 121,
      "##-": 122,
      "##$": 123,
      "##^": 124,
      "##(": 125,
      "##}": 126,
      "##=": 127,
      "##>": 128,
      "##:": 129,
      "##]": 130,
      "##<": 131,
      "##%": 132,
      "##/": 133,
      "##~": 134,
      "###": 135,
      "##@": 136,
      "##?": 137,
      "##[": 138,
      "->": 139,
      "##et": 140,
      "##re": 141,
      "##nt": 142,
      ");": 143,
      "##er": 144,
      "##st": 145,
      "##at": 146,
      "##de": 147,
      "##or": 148,
      "##in": 149,
      "if": 150,
      "##se": 151,
      "##_t": 152,
      "##le": 153,
      "##on": 154,
      "av": 155,
      "##_c": 156,
      "##_s": 157,
      "##am": 158,
      "##ct": 159,
      "##it": 160,
      "##_p": 161,
      "##al": 162,
      "##_f": 163,
      "##lo": 164,
      "##ar": 165,
      "##en": 166,
      "##iz": 167,
      "##ize": 168,
      "st": 169,
      "##_b": 170,
      "ret": 171,
      "##ad": 172,
      "##id": 173,
      "int": 174,
      "##_m": 175,
      "##ck": 176,
      "##ff": 177,
      "##ur": 178,
      "##ode": 179,
      "##an": 180,
      "/*": 181,
      "##ic": 182,
      "*/": 183,
      "re": 184,
      "##ut": 185,
      "##ase": 186,
      "##he": 187,
      "##);": 188,
      "##em": 189,
      "##int": 190,
      "##pe": 191,
      "##ame": 192,
      "##ot": 193,
      "in": 194,
      "##ate": 195,
      "##ul": 196,
      "de": 197,
      "##ig": 198,
      "##op": 199,
      "##ag": 200,
      "##00": 201,
      "case": 202,
      "##ion": 203,
      "##urn": 204,
      "##mp": 205,
      "return": 206,
      "##el": 207,
      "##_re": 208,
      "en": 209,
      "##dr": 210,
      "##pu": 211,
      "##_in": 212,
      "##as": 213,
      "0x": 214,
      "##_n": 215,
      "##ex": 216,
      "##ed": 217,
      "##io": 218,
      "##_g": 219,
      "##_st": 220,
      "##_size": 221,
      "##ak": 222,
      "==": 223,
      "##ata": 224,
      "##ue": 225,
      "##_d": 226,
      "bu": 227,
      "##reak": 228,
      "##32": 229,
      "break": 230,
      "##es": 231,
      "##ab": 232,
      "##_r": 233,
      "##ac": 234,
      "cpu": 235,
      "##ror": 236,
      "##il": 237,
      "el": 238,
      "##ing": 239,
      "ch": 240,
      "size": 241,
      "##lock": 242,
      "##ype": 243,
      "##co": 244,
      "(&": 245,
      "for": 246,
      "##ap": 247,
      "##rame": 248,
      "else": 249,
      "##set": 250,
      "##_lo": 251,
      "##ext": 252,
      "co": 253,
      "##_i": 254,
      "op": 255,
      "\",": 256,
      "##64": 257,
      "##ro": 258,
      "##_v": 259,
      "##um": 260,
      "##ile": 261,
      "##ctx": 262,
      "##rc": 263,
      "##ix": 264,
      "er": 265,
      "))": 266,
      "++": 267,
      "##un": 268,
      "##us": 269,
      "##odec": 270,
      "con": 271,
      "the": 272,
      "tc": 273,
      "avctx": 274,
      "uint": 275,
      "##tr": 276,
      "##_l": 277,
      "##ri": 278,
      "is": 279,
      "##_log": 280,
      "buf": 281,
      "##_de": 282,
      "##ull": 283,
      "##_co": 284,
      "##_o": 285,
      "##arg": 286,
      "##_w": 287,
      "##ack": 288,
      "##if": 289,
      "##lag": 290,
      "##tx": 291,
      "##im": 292,
      "];": 293,
      "##ist": 294,
      "##ent": 295,
      "##is": 296,
      "##ffset": 297,
      "tcg": 298,
      "##th": 299,
      "##ir": 300,
      "ar": 301,
      "stat": 302,
      "##able": 303,
      "av_log": 304,
      "##_type": 305,
      "##its": 306,
      "(!": 307,
      "##ream": 308,
      "&&": 309,
      "null": 310,
      "##ch": 311,
      "gen": 312,
      "##_op": 313,
      "##_id": 314,
      "##dex": 315,
      "##arget": 316,
      "ff": 317,
      "get": 318,
      "##emu": 319,
      "][": 320,
      "codec": 321,
      "##ts": 322,
      "env": 323,
      "##ict": 324,
      "vo": 325,
      "ad": 326,
      "mm": 327,
      "ex": 328,
      "lo": 329,
      "##_get": 330,
      "##16": 331,
      "##error": 332,
      "##_h": 333,
      "%%": 334,
      "data": 335,
      "##up": 336,
      "ctx": 337,
      "##of": 338,
      "],": 339,
      "##_ad": 340,
      "##and": 341,
      "target": 342,
      "##ect": 343,
      "##pr": 344,
      "##ci": 345,
      "##oto": 346,
      "src": 347,
      "##ure": 348,
      "##ax": 349,
      "##amp": 350,
      "static": 351,
      "##ov": 352,
      "mb": 353,
      "qemu": 354,
      "to": 355,
      "((": 356,
      "void": 357,
      "##ntext": 358,
      "##unt": 359,
      "));": 360,
      "arg": 361,
      "##ice": 362,
      "++)": 363,
      "##art": 364,
      "##_en": 365,
      "block": 366,
      "##ss": 367,
      "),": 368,
      "val": 369,
      "un": 370,
      "const": 371,
      "goto": 372,
      "!=": 373,
      "reg": 374,
      "##ort": 375,
      "\");": 376,
      "out": 377,
      "##ample": 378,
      "##ce": 379,
      "tmp": 380,
      "##ign": 381,
      "##fo": 382,
      "##_bits": 383,
      "##ter": 384,
      "##_le": 385,
      "##igh": 386,
      "frame": 387,
      "##_set": 388,
      "##yt": 389,
      "dev": 390,
      "##lags": 391,
      "##ffer": 392,
      "mem": 393,
      "pb": 394,
      ">>": 395,
      "##ub": 396,
      "##ps": 397,
      "##ay": 398,
      "end": 399,
      "he": 400,
      "##ow": 401,
      "##ve": 402,
      "bs": 403,
      "+=": 404,
      "gb": 405,
      "err": 406,
      "<<": 407,
      "##code": 408,
      "error": 409,
      "##_reg": 410,
      "//": 411,
      "##rit": 412,
      "sizeof": 413,
      "##mt": 414,
      "||": 415,
      "##_a": 416,
      "##_bu": 417,
      "].": 418,
      "##context": 419,
      "##val": 420,
      "##state": 421,
      "th": 422,
      "##ask": 423,
      "##nel": 424,
      "dst": 425,
      "##sc": 426,
      "##err": 427,
      "##ult": 428,
      "##ight": 429,
      "##ree": 430,
      "nb": 431,
      "##put": 432,
      "##kt": 433,
      "##_se": 434,
      "##que": 435,
      "##_frame": 436,
      "##ine": 437,
      "##dev": 438,
      "##_he": 439,
      "##mm": 440,
      "tr": 441,
      "##ert": 442,
      "offset": 443,
      "len": 444,
      "##rite": 445,
      "##idth": 446,
      "##_index": 447,
      "al": 448,
      "##mat": 449,
      "##bu": 450,
      "str": 451,
      "cur": 452,
      "(\"": 453,
      "##pc": 454,
      "##loc": 455,
      "##ew": 456,
      "##ilter": 457,
      "sc": 458,
      "##8_t": 459,
      "##_x": 460,
      "def": 461,
      "##ast": 462,
      "##os": 463,
      "##_init": 464,
      "char": 465,
      "##ma": 466,
      "##age": 467,
      "##ip": 468,
      "##acket": 469,
      "##est": 470,
      "16": 471,
      "##_fmt": 472,
      "uint8_t": 473,
      "##ver": 474,
      "##ation": 475,
      "##ader": 476,
      "##_error": 477,
      "##intf": 478,
      "##ail": 479,
      "addr": 480,
      "##_free": 481,
      "##red": 482,
      "##_ch": 483,
      "##_ptr": 484,
      "##ass": 485,
      "dc": 486,
      "##_offset": 487,
      "pix": 488,
      "##_q": 489,
      "pci": 490,
      "##32_t": 491,
      "se": 492,
      "##sp": 493,
      "##_data": 494,
      "##0000": 495,
      "num": 496,
      "##ol": 497,
      "##icture": 498,
      "##_table": 499,
      "##annel": 500,
      "##64_t": 501,
      "fd": 502,
      "##_gen": 503,
      "sw": 504,
      "##_int": 505,
      "##ime": 506,
      "##pl": 507,
      "##_count": 508,
      "do": 509,
      "##nd": 510,
      "##ys": 511,
      "##uct": 512,
      "not": 513,
      "##ory": 514,
      "##ault": 515,
      "##_read": 516,
      "##pt": 517,
      "##_y": 518,
      "##_addr": 519,
      "##_con": 520,
      "id": 521,
      "sh": 522,
      "byt": 523,
      "##name": 524,
      "]);": 525,
      "max": 526,
      "##nc": 527,
      "file": 528,
      "pr": 529,
      "();": 530,
      "##drv": 531,
      "flags": 532,
      "ac": 533,
      "##alloc": 534,
      "##om": 535,
      "##ust": 536,
      "##ge": 537,
      "##emp": 538,
      "##irt": 539,
      "endif": 540,
      "sample": 541,
      "##_len": 542,
      "bdrv": 543,
      "##_str": 544,
      "we": 545,
      "##_e": 546,
      "##md": 547,
      "##ers": 548,
      "##ry": 549,
      "type": 550,
      "stream": 551,
      "be": 552,
      "ref": 553,
      "##ride": 554,
      "##bj": 555,
      "##ide": 556,
      "res": 557,
      "cl": 558,
      "##igned": 559,
      "##sn": 560,
      "##heck": 561,
      "##_base": 562,
      "of": 563,
      "tcg_gen": 564,
      "##000": 565,
      "le": 566,
      "##ines": 567,
      "##_add": 568,
      "##ly": 569,
      "##ost": 570,
      "sl": 571,
      "##rent": 572,
      "##ong": 573,
      "pkt": 574,
      "wh": 575,
      "##ace": 576,
      "##_write": 577,
      "##fig": 578,
      "##ud": 579,
      "##ress": 580,
      "##ector": 581,
      "##printf": 582,
      "index": 583,
      "##der": 584,
      "##ormat": 585,
      "##no": 586,
      "##ister": 587,
      "mov": 588,
      "pc": 589,
      "*)": 590,
      "##rq": 591,
      "averror": 592,
      "##_i32": 593,
      "width": 594,
      "##cp": 595,
      "value": 596,
      "])": 597,
      "as": 598,
      "##_buffer": 599,
      "##itch": 600,
      "uint32_t": 601,
      "##inesize": 602,
      "##_cpu": 603,
      "##_num": 604,
      "on": 605,
      "##vel": 606,
      "pre": 607,
      "##_ex": 608,
      "uns": 609,
      "##lk": 610,
      "av_log_error": 611,
      "##port": 612,
      ">=": 613,
      "##_block": 614,
      "##valid": 615,
      "bit": 616,
      "##ale": 617,
      "##_to": 618,
      "mv": 619,
      "##ctor": 620,
      "so": 621,
      "set": 622,
      "##_mask": 623,
      "##_pr": 624,
      "##ift": 625,
      "##ment": 626,
      "##_pix": 627,
      "start": 628,
      "##peg": 629,
      "next": 630,
      "##si": 631,
      "##_un": 632,
      "##_out": 633,
      "comp": 634,
      "##size": 635,
      "##aram": 636,
      "##ind": 637,
      "##udio": 638,
      "avio": 639,
      "##ache": 640,
      "code": 641,
      "struct": 642,
      "switch": 643,
      "##addr": 644,
      "##def": 645,
      "##ore": 646,
      "##end": 647,
      "##_us": 648,
      "unsigned": 649,
      "init": 650,
      "##ave": 651,
      "##map": 652,
      "last": 653,
      "##ra": 654,
      "name": 655,
      "us": 656,
      "0x0": 657,
      "0x1": 658,
      "add": 659,
      "##_cl": 660,
      "##ess": 661,
      "##ideo": 662,
      "##_file": 663,
      "##_err": 664,
      "and": 665,
      "default": 666,
      "##ant": 667,
      "pro": 668,
      "##out": 669,
      "##read": 670,
      "height": 671,
      "##ey": 672,
      "sub": 673,
      "rt": 674,
      "##_flag": 675,
      "memory": 676,
      "##_dev": 677,
      "channel": 678,
      "##_start": 679,
      "##_picture": 680,
      "##_code": 681,
      "fail": 682,
      "##eld": 683,
      "obj": 684,
      "##kip": 685,
      "##reg": 686,
      "##ield": 687,
      "buffer": 688,
      "##riv": 689,
      "get_bits": 690,
      "sp": 691,
      "){": 692,
      "##aque": 693,
      "errp": 694,
      "##ith": 695,
      "put": 696,
      "vs": 697,
      "##ec": 698,
      "avf": 699,
      "##_user": 700,
      "|=": 701,
      "read": 702,
      "##_sh": 703,
      "##_max": 704,
      "check": 705,
      "header": 706,
      "##per": 707,
      "virt": 708,
      "tb": 709,
      "##_val": 710,
      "##vm": 711,
      "new": 712,
      "(*": 713,
      "opt": 714,
      "dis": 715,
      "##_u": 716,
      "opaque": 717,
      "##_mem": 718,
      "12": 719,
      "##_new": 720,
      "insn": 721,
      "pl": 722,
      "##sr": 723,
      "##_end": 724,
      "++;": 725,
      "info": 726,
      "##_al": 727,
      "##gth": 728,
      "bo": 729,
      "##_io": 730,
      "rd": 731,
      "##_sample": 732,
      "##ive": 733,
      "current": 734,
      "##ffff": 735,
      "##bug": 736,
      "tcg_t": 737,
      "cont": 738,
      "register": 739,
      "##_nr": 740,
      "##ions": 741,
      "config": 742,
      "##_state": 743,
      "io": 744,
      "##_mode": 745,
      "it": 746,
      "##_packet": 747,
      "##loat": 748,
      "##_buf": 749,
      "##lc": 750,
      "at": 751,
      "pic": 752,
      "##_sector": 753,
      "##_mb": 754,
      "##_byt": 755,
      "##ath": 756,
      "##len": 757,
      "##eat": 758,
      "avp": 759,
      "uint64_t": 760,
      "##ld": 761,
      "linesize": 762,
      "##buf": 763,
      "##hys": 764,
      "##_irq": 765,
      "##ach": 766,
      "10": 767,
      "mode": 768,
      "##adata": 769,
      "while": 770,
      "##uster": 771,
      "(%": 772,
      "##cal": 773,
      "##cess": 774,
      "device": 775,
      "##qu": 776,
      "32": 777,
      "di": 778,
      "target_nr": 779,
      "output": 780,
      "##_info": 781,
      "##rom": 782,
      "##ink": 783,
      "log": 784,
      "##16_t": 785,
      "codec_id": 786,
      "##fd": 787,
      "list": 788,
      "this": 789,
      "##uv": 790,
      "##roma": 791,
      "ost": 792,
      "time": 793,
      "##ft": 794,
      "##_be": 795,
      "##eature": 796,
      "##sh": 797,
      "##unc": 798,
      "##codec": 799,
      "blk": 800,
      "##_stream": 801,
      "##_rate": 802,
      "##one": 803,
      "##estream": 804,
      "##sed": 805,
      "packet": 806,
      "ne": 807,
      "extr": 808,
      "has": 809,
      "##ord": 810,
      "cb": 811,
      "bytestream": 812,
      "pixel": 813,
      "##ial": 814,
      "##ard": 815,
      "##_tl": 816,
      "##_env": 817,
      "pix_fmt": 818,
      "##_i64": 819,
      "##_ctx": 820,
      "##und": 821,
      "##gb": 822,
      "ifdef": 823,
      "bits": 824,
      "##_per": 825,
      "\")": 826,
      "##info": 827,
      "or": 828,
      "##irst": 829,
      "##ync": 830,
      "##_opt": 831,
      "##_malloc": 832,
      "im": 833,
      "int64_t": 834,
      "##ans": 835,
      "rc": 836,
      "tcg_temp": 837,
      "##opy": 838,
      "gen_op": 839,
      "##fs": 840,
      "##_idx": 841,
      "##te": 842,
      "##stream": 843,
      "##date": 844,
      "opc": 845,
      "##_sc": 846,
      "filter": 847,
      "##12": 848,
      "\"\\": 849,
      "fl": 850,
      "cmd": 851,
      "no": 852,
      "count": 853,
      "ass": 854,
      "##quest": 855,
      "##vent": 856,
      "##ib": 857,
      "t0": 858,
      "##_put": 859,
      "##_hel": 860,
      "##_width": 861,
      "##_name": 862,
      "##_flags": 863,
      "<=": 864,
      "priv": 865,
      "audio": 866,
      "##ain": 867,
      "##imer": 868,
      "##_k": 869,
      "##ram": 870,
      "##_helper": 871,
      "##od": 872,
      "buf_size": 873,
      "spr": 874,
      "##reate": 875,
      "mb_type": 876,
      "##_mov": 877,
      "skip": 878,
      "##_stat": 879,
      "##coder": 880,
      "##_cache": 881,
      "##con": 882,
      "object": 883,
      "pos": 884,
      "hw": 885,
      "##data": 886,
      "]=": 887,
      "ts": 888,
      "dest": 889,
      "##ange": 890,
      "status": 891,
      "virtio": 892,
      "##_mm": 893,
      "##_header": 894,
      "cs": 895,
      "ab": 896,
      "band": 897,
      "##ity": 898,
      "##lt": 899,
      "gen_helper": 900,
      "load": 901,
      "##_list": 902,
      "arm": 903,
      "##_tr": 904,
      "##_ext": 905,
      "##_as": 906,
      "temp": 907,
      "##_sub": 908,
      "##->": 909,
      "##ref": 910,
      "##264": 911,
      "level": 912,
      "chr": 913,
      "##ph": 914,
      "##mb": 915,
      "decode": 916,
      "##cept": 917,
      "table": 918,
      "req": 919,
      "##add": 920,
      "ist": 921,
      "vc": 922,
      "25": 923,
      "write": 924,
      "##24": 925,
      "##xx": 926,
      "##ep": 927,
      "sd": 928,
      "##ero": 929,
      "##_invalid": 930,
      "##_prop": 931,
      "ptr": 932,
      "()": 933,
      "float": 934,
      "ent": 935,
      "##eff": 936,
      "sector": 937,
      "bus": 938,
      "fdt": 939,
      "samples": 940,
      "##_codec": 941,
      "##scale": 942,
      "avcodec": 943,
      "input": 944,
      "state": 945,
      "##ill": 946,
      "first": 947,
      "##_feature": 948,
      "##ms": 949,
      "ra": 950,
      "##_sectors": 951,
      "##str": 952,
      "min": 953,
      "##block": 954,
      "fprintf": 955,
      "##ound": 956,
      "##own": 957,
      "##ernel": 958,
      "##uld": 959,
      "par": 960,
      "**": 961,
      "video": 962,
      "ram": 963,
      "##rect": 964,
      "format": 965,
      "pts": 966,
      "ps": 967,
      "cluster": 968,
      "inter": 969,
      "args": 970,
      "##_ld": 971,
      "##unk": 972,
      "##86": 973,
      "##ber": 974,
      "local": 975,
      "slice": 976,
      "an": 977,
      "##all": 978,
      "can": 979,
      "std": 980,
      "##ane": 981,
      "host": 982,
      "picture": 983,
      "##ok": 984,
      "invalid": 985,
      "##_time": 986,
      "0xff": 987,
      "key": 988,
      "back": 989,
      "kvm": 990,
      "##ient": 991,
      "##av": 992,
      "##upport": 993,
      "##low": 994,
      "filename": 995,
      "cp": 996,
      "##hci": 997,
      "pred": 998,
      "##_debug": 999,
      "up": 1000,
      "with": 1001,
      "##lor": 1002,
      "##_vlc": 1003,
      "##mple": 1004,
      "qdev": 1005,
      "##_pixel": 1006,
      "##edi": 1007,
      "##_height": 1008,
      "address": 1009,
      "##_up": 1010,
      "0x2": 1011,
      "cpu_env": 1012,
      "##_decode": 1013,
      "##_ent": 1014,
      "use": 1015,
      "usb": 1016,
      "##ips": 1017,
      "mb_x": 1018,
      "desc": 1019,
      "##fg": 1020,
      "cc": 1021,
      "##oint": 1022,
      "arg1": 1023,
      "xmm": 1024,
      "##80": 1025,
      "##_region": 1026,
      "##_channel": 1027,
      "##andle": 1028,
      "-=": 1029,
      "##_or": 1030,
      "base": 1031,
      "##_shift": 1032,
      "sys": 1033,
      "##ined": 1034,
      "tag": 1035,
      "##\",": 1036,
      "sps": 1037,
      "##count": 1038,
      "##_comp": 1039,
      "\";": 1040,
      "##bus": 1041,
      "##_pre": 1042,
      "vnc": 1043,
      "##_pix_fmt": 1044,
      "mask": 1045,
      "##_page": 1046,
      "##_ass": 1047,
      "##line": 1048,
      "iov": 1049,
      "##ush": 1050,
      "##list": 1051,
      "fp": 1052,
      "##_j": 1053,
      "##_phys": 1054,
      "vp": 1055,
      "rn": 1056,
      "channels": 1057,
      "opts": 1058,
      "qu": 1059,
      "t1": 1060,
      "##ition": 1061,
      "##_ref": 1062,
      "have": 1063,
      "av_free": 1064,
      "mat": 1065,
      "##_filter": 1066,
      "stride": 1067,
      "l1": 1068,
      "rs": 1069,
      "##_ms": 1070,
      "0x3": 1071,
      "assert": 1072,
      "##uest": 1073,
      "bytes": 1074,
      "##_param": 1075,
      "chroma": 1076,
      "##ersion": 1077,
      "kernel": 1078,
      "##_alloc": 1079,
      "##cl": 1080,
      "##frame": 1081,
      "are": 1082,
      "##ded": 1083,
      "stderr": 1084,
      "##_sp": 1085,
      "##_map": 1086,
      "shift": 1087,
      "##ls": 1088,
      "##_field": 1089,
      "##mv": 1090,
      "run": 1091,
      "##cket": 1092,
      "##cpy": 1093,
      "##iv": 1094,
      "##_assert": 1095,
      "sn": 1096,
      "bytestream2": 1097,
      "##act": 1098,
      "that": 1099,
      "##_pos": 1100,
      "path": 1101,
      "map": 1102,
      "##lay": 1103,
      "##file": 1104,
      "enc": 1105,
      "##iver": 1106,
      "##ek": 1107,
      "##_pred": 1108,
      "##otion": 1109,
      "',": 1110,
      "##apr": 1111,
      "##_is": 1112,
      "ap": 1113,
      "##_load": 1114,
      "##_value": 1115,
      "##_ne": 1116,
      "(!(": 1117,
      "##pha": 1118,
      "##otal": 1119,
      "##lb": 1120,
      "fa": 1121,
      "fix": 1122,
      "##_th": 1123,
      "##_memory": 1124,
      ")))": 1125,
      "##ception": 1126,
      "##8x": 1127,
      "pict": 1128,
      "dir": 1129,
      ":%": 1130,
      "##_device": 1131,
      "ms": 1132,
      "length": 1133,
      "##filter": 1134,
      "ext": 1135,
      "arg2": 1136,
      "old": 1137,
      "##dict": 1138,
      "defined": 1139,
      "##ower": 1140,
      "av_pix_fmt": 1141,
      "##_bit": 1142,
      "]->": 1143,
      "##omem": 1144,
      "##_byte": 1145,
      "##10": 1146,
      "##driver": 1147,
      "##_context": 1148,
      "extradata": 1149,
      "##_bus": 1150,
      "##let": 1151,
      "mm0": 1152,
      "page": 1153,
      "memcpy": 1154,
      "64": 1155,
      "cpu_t": 1156,
      "##_errno": 1157,
      "##_status": 1158,
      "##_dis": 1159,
      "true": 1160,
      "=%": 1161,
      "##ob": 1162,
      "##_z": 1163,
      "vm": 1164,
      "##abled": 1165,
      "from": 1166,
      "##_pc": 1167,
      "vdev": 1168,
      "##_cb": 1169,
      "##rol": 1170,
      "##_invaliddata": 1171,
      "averror_invaliddata": 1172,
      "prev": 1173,
      "##_pro": 1174,
      "##_ul": 1175,
      "##ding": 1176,
      "ot": 1177,
      "##upt": 1178,
      "ffm": 1179,
      "##ug": 1180,
      "##orm": 1181,
      "15": 1182,
      "##uration": 1183,
      "##queue": 1184,
      "pps": 1185,
      "##enc": 1186,
      "priv_data": 1187,
      "##_ar": 1188,
      "tmp2": 1189,
      "##res": 1190,
      "##ler": 1191,
      "##be": 1192,
      "ser": 1193,
      "idx": 1194,
      "alloc": 1195,
      "##ary": 1196,
      "long": 1197,
      "##so": 1198,
      "param": 1199,
      "##_mv": 1200,
      "##ild": 1201,
      "0xf": 1202,
      "##stride": 1203,
      "l2": 1204,
      "##iled": 1205,
      "##ray": 1206,
      "regs": 1207,
      "uint16_t": 1208,
      "##_ulong": 1209,
      "--": 1210,
      "##play": 1211,
      "##rd": 1212,
      "##_create": 1213,
      "##pel": 1214,
      "##pect": 1215,
      "##me": 1216,
      "##_tag": 1217,
      "##_tab": 1218,
      "mpeg": 1219,
      "##bo": 1220,
      "##ere": 1221,
      "##ash": 1222,
      "port": 1223,
      "##_src": 1224,
      "##ical": 1225,
      "&=": 1226,
      "\"%": 1227,
      "irq": 1228,
      "total": 1229,
      "##ang": 1230,
      "exit": 1231,
      "##are": 1232,
      "power": 1233,
      "##fl": 1234,
      "##pth": 1235,
      "act": 1236,
      "##pp": 1237,
      "##format": 1238,
      "##ios": 1239,
      "##ated": 1240,
      "uv": 1241,
      "mon": 1242,
      "vec": 1243,
      "##**": 1244,
      "error_set": 1245,
      "##alse": 1246,
      "spapr": 1247,
      "##ux": 1248,
      ")(": 1249,
      "ip": 1250,
      "ein": 1251,
      "##fault": 1252,
      "##_inter": 1253,
      "};": 1254,
      "contin": 1255,
      "memory_region": 1256,
      "##rl": 1257,
      "comm": 1258,
      "false": 1259,
      "movq": 1260,
      "##cr": 1261,
      "##_filename": 1262,
      "entry": 1263,
      "##_ab": 1264,
      "##_fl": 1265,
      "tcg_temp_free": 1266,
      "##_format": 1267,
      "##ifi": 1268,
      "##_check": 1269,
      "memset": 1270,
      "##cb": 1271,
      "##_not": 1272,
      "guest": 1273,
      "mx": 1274,
      "mb_y": 1275,
      "##errupt": 1276,
      "av_malloc": 1277,
      "cr": 1278,
      "aio": 1279,
      "##ctl": 1280,
      "##cow": 1281,
      "##_fd": 1282,
      "##lose": 1283,
      "##achine": 1284,
      "##c0": 1285,
      "##du": 1286,
      "##pec": 1287,
      "##ptr": 1288,
      "##_pixels": 1289,
      "tcgv": 1290,
      "einval": 1291,
      "##_stride": 1292,
      "##ify": 1293,
      "continue": 1294,
      "##ens": 1295,
      "mm1": 1296,
      "trans": 1297,
      "##_string": 1298,
      "##br": 1299,
      "##_pic": 1300,
      "##use": 1301,
      "##_streams": 1302,
      "line": 1303,
      "##_cmd": 1304,
      "color": 1305,
      "##_func": 1306,
      "##_ac": 1307,
      "##_insn": 1308,
      "##_report": 1309,
      "open": 1310,
      "]]": 1311,
      "plane": 1312,
      "##upported": 1313,
      "scan": 1314,
      "failed": 1315,
      "##ga": 1316,
      "##gr": 1317,
      "##ell": 1318,
      "g_assert": 1319,
      "dr": 1320,
      "strc": 1321,
      "track": 1322,
      "##11": 1323,
      "vector": 1324,
      "lock": 1325,
      "qdict": 1326,
      "##cs": 1327,
      "##44": 1328,
      "##ual": 1329,
      "only": 1330,
      "##_par": 1331,
      "##_sig": 1332,
      "error_setg": 1333,
      "low": 1334,
      "copy": 1335,
      "##_cmp": 1336,
      "by": 1337,
      "field": 1338,
      "sy": 1339,
      "##_register": 1340,
      "##_update": 1341,
      "av_codec": 1342,
      "rm": 1343,
      "##ml": 1344,
      "##_bytes": 1345,
      "local_err": 1346,
      "##region": 1347,
      "##_sl": 1348,
      "##ped": 1349,
      "20": 1350,
      "##iff": 1351,
      "##mov": 1352,
      "##_intra": 1353,
      "off": 1354,
      "pal": 1355,
      "index_op": 1356,
      "##erty": 1357,
      "##_rl": 1358,
      "##ser": 1359,
      "##_tb": 1360,
      "##atch": 1361,
      "##device": 1362,
      "##_samples": 1363,
      "##lta": 1364,
      "##_enc": 1365,
      "256": 1366,
      "##_dc": 1367,
      "##_im": 1368,
      "dsp": 1369,
      "avcodeccontext": 1370,
      "ss": 1371,
      "%%\"": 1372,
      "enomem": 1373,
      "bool": 1374,
      "motion": 1375,
      "##_entry": 1376,
      "sig": 1377,
      "g_free": 1378,
      "##itor": 1379,
      "mm2": 1380,
      "v9": 1381,
      "get_errno": 1382,
      "##rix": 1383,
      "##42": 1384,
      "##_reset": 1385,
      "11": 1386,
      "##ning": 1387,
      "##uid": 1388,
      "powerpc": 1389,
      "all": 1390,
      "per": 1391,
      "##bit": 1392,
      "##_input": 1393,
      "##iov": 1394,
      "##_audio": 1395,
      "##_config": 1396,
      "##ake": 1397,
      "get_bits1": 1398,
      "##ump": 1399,
      "##driverstate": 1400,
      "request": 1401,
      "lum": 1402,
      "##_no": 1403,
      "avformat": 1404,
      "vf": 1405,
      "need": 1406,
      "image": 1407,
      "qp": 1408,
      "##_ram": 1409,
      "nbd": 1410,
      "##_gpr": 1411,
      "test": 1412,
      "avpkt": 1413,
      "*(": 1414,
      "##_key": 1415,
      "##_arg": 1416,
      "int16_t": 1417,
      "##_min": 1418,
      "av_codec_id": 1419,
      "omap": 1420,
      "##mplement": 1421,
      "##_2": 1422,
      "##_length": 1423,
      "##edia": 1424,
      "##nect": 1425,
      "##_av": 1426,
      "version": 1427,
      "##_cond": 1428,
      "mo": 1429,
      "time_base": 1430,
      "vis": 1431,
      "##level": 1432,
      "node": 1433,
      "rx": 1434,
      "##wap": 1435,
      "current_picture": 1436,
      "##_decoder": 1437,
      "##_cfg": 1438,
      "##ance": 1439,
      "##_video": 1440,
      "##_be32": 1441,
      "pa": 1442,
      "##irty": 1443,
      "0x00": 1444,
      "##_left": 1445,
      "update": 1446,
      "po": 1447,
      "##rap": 1448,
      "sm": 1449,
      "mm4": 1450,
      "0xffff": 1451,
      "vd": 1452,
      "sign": 1453,
      "qcow": 1454,
      "##_long": 1455,
      "options": 1456,
      "over": 1457,
      "##39": 1458,
      "##cond": 1459,
      "##_ed": 1460,
      "##ould": 1461,
      "seg": 1462,
      "top": 1463,
      "##abel": 1464,
      "##pos": 1465,
      "streams": 1466,
      "##ping": 1467,
      "##_zero": 1468,
      "##link": 1469,
      "##_opts": 1470,
      "##xl": 1471,
      "##eth": 1472,
      "##_struct": 1473,
      "##ise": 1474,
      "##ute": 1475,
      "24": 1476,
      "##flag": 1477,
      "##_on": 1478,
      "fs": 1479,
      "nv": 1480,
      "##_cc": 1481,
      "##ries": 1482,
      "##flags": 1483,
      "##ction": 1484,
      "##cc": 1485,
      "chunk": 1486,
      "##_pl": 1487,
      "access": 1488,
      "mp": 1489,
      "##_pci": 1490,
      "##8x8": 1491,
      "##imit": 1492,
      "##nal": 1493,
      "debug": 1494,
      "##_sy": 1495,
      "##mask": 1496,
      "##etadata": 1497,
      "##lem": 1498,
      "##andler": 1499,
      "':": 1500,
      "##do": 1501,
      "bytestream2_get": 1502,
      "##_frames": 1503,
      "got": 1504,
      "##to": 1505,
      "trace": 1506,
      "ide": 1507,
      "##roup": 1508,
      "target_ulong": 1509,
      "##rypt": 1510,
      "\"(": 1511,
      "##rag": 1512,
      "##_timer": 1513,
      "##coding": 1514,
      "codec_type": 1515,
      "##pi": 1516,
      "mm3": 1517,
      "isa": 1518,
      "bios": 1519,
      "cor": 1520,
      "store": 1521,
      "##_open": 1522,
      "##ices": 1523,
      "h264": 1524,
      "fixme": 1525,
      "av_d": 1526,
      "scsi": 1527,
      "initrd": 1528,
      "13": 1529,
      "##_queue": 1530,
      "left": 1531,
      "..": 1532,
      "rgb": 1533,
      "##ript": 1534,
      "##__": 1535,
      "##_find": 1536,
      "ppc": 1537,
      "0x4": 1538,
      "sample_rate": 1539,
      "##indow": 1540,
      "##_class": 1541,
      "##_cap": 1542,
      "##ayout": 1543,
      "excp": 1544,
      "arg3": 1545,
      "##uble": 1546,
      "##urce": 1547,
      "tb_ptr": 1548,
      "##opts": 1549,
      "##_enabled": 1550,
      "##_yuv": 1551,
      "client": 1552,
      ".\\": 1553,
      "dprintf": 1554,
      "tci": 1555,
      "\"))": 1556,
      "opcode": 1557,
      "coeff": 1558,
      "##_number": 1559,
      "qxl": 1560,
      "##--": 1561,
      "##sent": 1562,
      "##face": 1563,
      "cp0": 1564,
      "##_rb": 1565,
      "refcount": 1566,
      "ed": 1567,
      "strcmp": 1568,
      "##type": 1569,
      "##bject": 1570,
      "scale": 1571,
      "##26": 1572,
      "tcg_out": 1573,
      "##req": 1574,
      "nb_sectors": 1575,
      "%\"": 1576,
      "##stat": 1577,
      "blockdriverstate": 1578,
      "tcg_temp_new": 1579,
      "##fn": 1580,
      "va": 1581,
      "},": 1582,
      "dec": 1583,
      "pass": 1584,
      "##_request": 1585,
      "##_property": 1586,
      "px": 1587,
      "si": 1588,
      "##_and": 1589,
      "##a2": 1590,
      "++){": 1591,
      "##_mmx": 1592,
      "xxx": 1593,
      "##fer": 1594,
      "##ette": 1595,
      "##_64": 1596,
      "##_skip": 1597,
      "offsetof": 1598,
      "net": 1599,
      "##cel": 1600,
      "byte": 1601,
      "##_output": 1602,
      "dct": 1603,
      "machine": 1604,
      "##form": 1605,
      "##50": 1606,
      "##drm": 1607,
      "sysbus": 1608,
      "av_freep": 1609,
      "dp": 1610,
      "##_const": 1611,
      "handle": 1612,
      "qscale": 1613,
      "##_order": 1614,
      "0x8": 1615,
      "fw": 1616,
      "real": 1617,
      "##rr": 1618,
      "pm": 1619,
      "but": 1620,
      "thread": 1621,
      "error_report": 1622,
      "rb": 1623,
      "##_off": 1624,
      "put_bits": 1625,
      "##lete": 1626,
      "##ait": 1627,
      "##_addr_t": 1628,
      "event": 1629,
      "timer": 1630,
      "encode": 1631,
      "##_vp": 1632,
      "##trl": 1633,
      "##_qu": 1634,
      "int32_t": 1635,
      "var": 1636,
      "##ies": 1637,
      "mips": 1638,
      ")));": 1639,
      "##_edge": 1640,
      "dri": 1641,
      "avm": 1642,
      "##_next": 1643,
      "nal": 1644,
      "##_16": 1645,
      "asf": 1646,
      "##edia_type": 1647,
      "##oot": 1648,
      "##point": 1649,
      "printf": 1650,
      "##_thread": 1651,
      "mac": 1652,
      "vh": 1653,
      "##par": 1654,
      "one": 1655,
      "xen": 1656,
      "cond": 1657,
      "##sk": 1658,
      "##_h264": 1659,
      "tlb": 1660,
      "##ration": 1661,
      "##yn": 1662,
      "pref": 1663,
      "##": 1664,
      "##ken": 1665,
      "t2": 1666,
      "##_pkt": 1667,
      "av_log_debug": 1668,
      "zero": 1669,
      "##nown": 1670,
      "##dec": 1671,
      "##comp": 1672,
      "##_comm": 1673,
      "exp": 1674,
      "##_host": 1675,
      "1024": 1676,
      "##_so": 1677,
      "mm7": 1678,
      "errno": 1679,
      "##_dst": 1680,
      "##_desc": 1681,
      "##_aio": 1682,
      "##_mat": 1683,
      "acb": 1684,
      "log2": 1685,
      "##_4": 1686,
      "##linesize": 1687,
      "##_copy": 1688,
      "##gram": 1689,
      "avfilter": 1690,
      "avmedia_type": 1691,
      "##ork": 1692,
      "##_res": 1693,
      "##_1": 1694,
      "##uff": 1695,
      "0x7": 1696,
      "ds": 1697,
      "duration": 1698,
      "##_dr": 1699,
      "##stem": 1700,
      "fmt": 1701,
      "'\\": 1702,
      "\\\"": 1703,
      "##rosk": 1704,
      "part": 1705,
      "##arning": 1706,
      "##ott": 1707,
      "reset": 1708,
      "##uth": 1709,
      "##utex": 1710,
      "##_store": 1711,
      "tile": 1712,
      "##attr": 1713,
      "pict_type": 1714,
      "phys": 1715,
      "##lob": 1716,
      "##_excp": 1717,
      "matrosk": 1718,
      "ld": 1719,
      "##_pts": 1720,
      "seek": 1721,
      "sector_num": 1722,
      "msr": 1723,
      "xb": 1724,
      "number": 1725,
      "##_event": 1726,
      "##onent": 1727,
      "##ifo": 1728,
      "++]": 1729,
      "backing": 1730,
      "fc": 1731,
      "free": 1732,
      "##nce": 1733,
      "##buffer": 1734,
      "unlock": 1735,
      "parse": 1736,
      "##_model": 1737,
      "##_align": 1738,
      "oc": 1739,
      "cpu_to": 1740,
      "should": 1741,
      "could": 1742,
      "double": 1743,
      "128": 1744,
      "intra": 1745,
      "img": 1746,
      "avframe": 1747,
      "*/\\": 1748,
      "##_rgb": 1749,
      "##mplemented": 1750,
      "##_address": 1751,
      "##_abort": 1752,
      "avformatcontext": 1753,
      "mc": 1754,
      "pte": 1755,
      "##leg": 1756,
      "scan8": 1757,
      "##itle": 1758,
      "##_bs": 1759,
      "##_channels": 1760,
      "exception": 1761,
      "size_t": 1762,
      "##_chroma": 1763,
      "')": 1764,
      "quant": 1765,
      "uvlinesize": 1766,
      "tim": 1767,
      "##_ap": 1768,
      "control": 1769,
      "non": 1770,
      "##ply": 1771,
      "my": 1772,
      "##db": 1773,
      "row": 1774,
      "matroska": 1775,
      "dts": 1776,
      "ep": 1777,
      "##56": 1778,
      "predict": 1779,
      ")*": 1780,
      "me": 1781,
      "##pcm": 1782,
      "tcg_gen_mov": 1783,
      "user": 1784,
      "##_run": 1785,
      "##_vf": 1786,
      "coded": 1787,
      "##_pixels_tab": 1788,
      "##_slice": 1789,
      "register_decoder": 1790,
      "##c1": 1791,
      "##eta": 1792,
      "##>>": 1793,
      "##_layout": 1794,
      "mod": 1795,
      "##ence": 1796,
      "blocks": 1797,
      "'%": 1798,
      "##_matrix": 1799,
      "frames": 1800,
      "##_0": 1801,
      "##ugh": 1802,
      "qt": 1803,
      "##_parse": 1804,
      ")]": 1805,
      "31": 1806,
      "##oll": 1807,
      "##lot": 1808,
      "ver": 1809,
      "##_loop": 1810,
      "target_page": 1811,
      "disas": 1812,
      "unlock_user": 1813,
      "##_space": 1814,
      "(((": 1815,
      "g_malloc": 1816,
      "il": 1817,
      "ph": 1818,
      "##_br": 1819,
      "qemu_opt": 1820,
      "den": 1821,
      "##known": 1822,
      "cpu_tmp": 1823,
      "##_back": 1824,
      "define": 1825,
      "find": 1826,
      "##_clock": 1827,
      "##_word": 1828,
      "##shot": 1829,
      "##apshot": 1830,
      "sws": 1831,
      "##object": 1832,
      "##_cp": 1833,
      "interrupt": 1834,
      "cbp": 1835,
      "##_dir": 1836,
      "##pend": 1837,
      "##bd": 1838,
      "stream_index": 1839,
      "pri": 1840,
      "prop": 1841,
      "##_qp": 1842,
      "##_flush": 1843,
      ")\\": 1844,
      "##tb": 1845,
      "##ause": 1846,
      "##_chunk": 1847,
      "drv": 1848,
      "cpu_src": 1849,
      "##_exception": 1850,
      "##_3": 1851,
      "dma": 1852,
      "##legal": 1853,
      "##regs": 1854,
      "##quant": 1855,
      "lock_user": 1856,
      "pfl": 1857,
      "tx": 1858,
      "##dst": 1859,
      "##log": 1860,
      "[(": 1861,
      "mm5": 1862,
      "spec": 1863,
      "url": 1864,
      "##card": 1865,
      "##atio": 1866,
      "##load": 1867,
      "prot": 1868,
      "result": 1869,
      "initial": 1870,
      "##fi": 1871,
      "link": 1872,
      "vb": 1873,
      "##eric": 1874,
      "depth": 1875,
      "fill": 1876,
      "##_trans": 1877,
      "...": 1878,
      "##vc": 1879,
      "##_mpeg": 1880,
      "##_coeff": 1881,
      "ht": 1882,
      "vq": 1883,
      "##_level": 1884,
      "fw_cfg": 1885,
      "range": 1886,
      "##_go": 1887,
      "##ection": 1888,
      "##000000": 1889,
      "##mmu": 1890,
      "socket": 1891,
      "diff": 1892,
      "os": 1893,
      "done": 1894,
      "boot": 1895,
      "qcow2": 1896,
      "illegal": 1897,
      "must": 1898,
      "padd": 1899,
      "14": 1900,
      "nr": 1901,
      "##src": 1902,
      "display": 1903,
      "##o_cpu": 1904,
      "##ark": 1905,
      "##_line": 1906,
      "memoryregion": 1907,
      "##usters": 1908,
      "g_assert_cmp": 1909,
      "v9fs": 1910,
      "##pic": 1911,
      "##aw": 1912,
      "##erv": 1913,
      "frame_size": 1914,
      "##xy": 1915,
      "##lomb": 1916,
      "##_scale": 1917,
      "##2000": 1918,
      "##_ret": 1919,
      "create": 1920,
      "region": 1921,
      "cle": 1922,
      "##ick": 1923,
      "##_band": 1924,
      "##_handle": 1925,
      "nb_streams": 1926,
      "##mmx": 1927,
      "step": 1928,
      "mis": 1929,
      "##arch": 1930,
      "##sum": 1931,
      "##rate": 1932,
      "##_printf": 1933,
      "pci_dev": 1934,
      "##_lock": 1935,
      "##eded": 1936,
      "##_t0": 1937,
      "##_files": 1938,
      "##ifier": 1939,
      "call": 1940,
      "now": 1941,
      "##fe": 1942,
      "##_cr": 1943,
      "mult": 1944,
      "##pio": 1945,
      "found": 1946,
      "##ose": 1947,
      "supported": 1948,
      "context": 1949,
      "too": 1950,
      "modrm": 1951,
      "delta": 1952,
      "mig": 1953,
      "##ailable": 1954,
      "##class": 1955,
      "##move": 1956,
      "##tp": 1957,
      "##_di": 1958,
      "short": 1959,
      "used": 1960,
      "##_none": 1961,
      "##_regs": 1962,
      "will": 1963,
      "alpha": 1964,
      "##estamp": 1965,
      "cap": 1966,
      "##cmp": 1967,
      "vga": 1968,
      "##net": 1969,
      "##li": 1970,
      "qemu_get": 1971,
      "##mul": 1972,
      "##_cluster": 1973,
      "##book": 1974,
      "##_golomb": 1975,
      "##_cur": 1976,
      "##_req": 1977,
      "vol": 1978,
      "todo": 1979,
      "pack": 1980,
      "##_from": 1981,
      "##core": 1982,
      "==,": 1983,
      ")[": 1984,
      "metadata": 1985,
      "sum": 1986,
      "##erate": 1987,
      "av_n": 1988,
      "##0000000": 1989,
      "##erence": 1990,
      "##riptor": 1991,
      "iv": 1992,
      "##mode": 1993,
      "##ingle": 1994,
      "##263": 1995,
      "##2c": 1996,
      "##lobal": 1997,
      "mr": 1998,
      "##ll": 1999,
      "##way": 2000,
      "arm_feature": 2001,
      "##lac": 2002,
      "##15": 2003,
      "##dup": 2004,
      "##atile": 2005,
      "inline": 2006,
      "512": 2007,
      "sr": 2008,
      "_fd": 2009,
      "##opts_value": 2010,
      "av_nopts_value": 2011,
      "##_rd": 2012,
      "tci_read": 2013,
      "##fx": 2014,
      "##cpu": 2015,
      "##num": 2016,
      "data_size": 2017,
      "any": 2018,
      "##_bo": 2019,
      "ram_size": 2020,
      "_fdt": 2021,
      "##vert": 2022,
      "##_sign": 2023,
      "##_delay": 2024,
      "##main": 2025,
      "##lease": 2026,
      "sock": 2027,
      "cache": 2028,
      "##vt": 2029,
      "mmu": 2030,
      "##qui": 2031,
      "server": 2032,
      "##_blocks": 2033,
      "qemu_opt_get": 2034,
      "##_ratio": 2035,
      "snprintf": 2036,
      "##back": 2037,
      "unknown": 2038,
      "##_exit": 2039,
      "avpacket": 2040,
      "qobject": 2041,
      "##urface": 2042,
      "idct": 2043,
      "##_pcm": 2044,
      "command": 2045,
      "##not": 2046,
      "##sw": 2047,
      "##ither": 2048,
      "s1": 2049,
      "##title": 2050,
      "send": 2051,
      "av_picture": 2052,
      "gen_load": 2053,
      "raw": 2054,
      "##bits": 2055,
      "##_mutex": 2056,
      "palette": 2057,
      "delay": 2058,
      "##390": 2059,
      "##tsp": 2060,
      "##_hw": 2061,
      "pxa2": 2062,
      "vlc": 2063,
      "##_dirty": 2064,
      "--;": 2065,
      "there": 2066,
      "edge": 2067,
      "vhost": 2068,
      "sel": 2069,
      "##_32": 2070,
      "##_mc": 2071,
      "option": 2072,
      "close": 2073,
      "##erm": 2074,
      "rrr": 2075,
      "##outine": 2076,
      "qiov": 2077,
      "cc_op": 2078,
      "##ian": 2079,
      "does": 2080,
      "##_rl32": 2081,
      "##_vfp": 2082,
      "##start": 2083,
      "##_warning": 2084,
      "strlen": 2085,
      "vc1": 2086,
      "##_path": 2087,
      "##ich": 2088,
      "##agic": 2089,
      "##_uint": 2090,
      "##****": 2091,
      "som": 2092,
      "sync": 2093,
      "av_picture_type": 2094,
      "reg_a": 2095,
      "skip_bits": 2096,
      "hwaddr": 2097,
      "(;": 2098,
      "##_qemu": 2099,
      "nc": 2100,
      "##ef": 2101,
      "##\");": 2102,
      "avg": 2103,
      "##_seg": 2104,
      "##_cont": 2105,
      "##_features": 2106,
      "high": 2107,
      "psr": 2108,
      "##wd": 2109,
      "##uc": 2110,
      "##_mt": 2111,
      "##_aspect": 2112,
      "serial": 2113,
      "powerpc_excp": 2114,
      "##ethod": 2115,
      "active": 2116,
      "hdr": 2117,
      "##oc": 2118,
      "##resh": 2119,
      "av_get": 2120,
      "ffmin": 2121,
      "!(": 2122,
      "(\"%": 2123,
      "bad": 2124,
      "func": 2125,
      "##_idct": 2126,
      "##_send": 2127,
      "##_xy": 2128,
      "sdl": 2129,
      "##ling": 2130,
      "##_exp": 2131,
      "):": 2132,
      "section": 2133,
      "hel": 2134,
      "##_array": 2135,
      "params": 2136,
      "##_vp8": 2137,
      "af": 2138,
      "##_act": 2139,
      "##_strdup": 2140,
      "##mem": 2141,
      "bitstream": 2142,
      "##ther": 2143,
      "##ds": 2144,
      "##col": 2145,
      "pt": 2146,
      "##_handler": 2147,
      "##_clusters": 2148,
      "elem": 2149,
      "ren": 2150,
      "##led": 2151,
      "##ite": 2152,
      "##ific": 2153,
      "direct": 2154,
      "pdu": 2155,
      "yuv": 2156,
      "##gress": 2157,
      "##band": 2158,
      "##_image": 2159,
      "##i_i32": 2160,
      "fp0": 2161,
      "monitor": 2162,
      "##_sync": 2163,
      "##_vector": 2164,
      "extradata_size": 2165,
      "##_ser": 2166,
      "dv": 2167,
      "##dp": 2168,
      "##laced": 2169,
      "vl": 2170,
      "##etch": 2171,
      "##_for": 2172,
      "drive": 2173,
      "]+": 2174,
      "save": 2175,
      "##_version": 2176,
      "conf": 2177,
      "rom": 2178,
      "##20": 2179,
      "op1": 2180,
      "align": 2181,
      "##_mb_type": 2182,
      "##_port": 2183,
      "%[": 2184,
      "sbr": 2185,
      "##_close": 2186,
      "##hed": 2187,
      "##_conf": 2188,
      "best": 2189,
      "dx": 2190,
      "##aster": 2191,
      "##00000": 2192,
      "pp": 2193,
      "##lect": 2194,
      "don": 2195,
      "cpustate": 2196,
      "##fore": 2197,
      "##_chr": 2198,
      "##ragment": 2199,
      "support": 2200,
      "##_at": 2201,
      "##word": 2202,
      "##eters": 2203,
      "##_sample_fmt": 2204,
      "##48": 2205,
      "##_net": 2206,
      "##_rect": 2207,
      "##_fpr": 2208,
      "avio_w": 2209,
      "0x10": 2210,
      "tt": 2211,
      "which": 2212,
      "source": 2213,
      "tswap": 2214,
      "segment": 2215,
      "full": 2216,
      "rtsp": 2217,
      "sce": 2218,
      "##ely": 2219,
      "++,": 2220,
      "##_over": 2221,
      "mm6": 2222,
      "##_has": 2223,
      "print": 2224,
      "flash": 2225,
      "##_params": 2226,
      "##ereo": 2227,
      "feature": 2228,
      "av_re": 2229,
      "br": 2230,
      "##quence": 2231,
      "parent": 2232,
      "sb": 2233,
      "##ages": 2234,
      "when": 2235,
      "##ending": 2236,
      "[]": 2237,
      "bits_per": 2238,
      "##_interrupt": 2239,
      "pc_start": 2240,
      "##_msa": 2241,
      "writ": 2242,
      "x86": 2243,
      "##_encode": 2244,
      "gen_op_mov": 2245,
      "##_depth": 2246,
      "dstw": 2247,
      "mb_xy": 2248,
      "##alc": 2249,
      "prid": 2250,
      "##_default": 2251,
      "here": 2252,
      "extract": 2253,
      "##_loop_filter": 2254,
      "cpu_model": 2255,
      "##ayload": 2256,
      "x4": 2257,
      "bitmap": 2258,
      "efault": 2259,
      "group": 2260,
      "##_tmp": 2261,
      "fil": 2262,
      "##_do": 2263,
      "target_phys": 2264,
      "rtas": 2265,
      "tcg_temp_free_i32": 2266,
      "ig": 2267,
      "may": 2268,
      "##api": 2269,
      "gen_helper_f": 2270,
      "imm": 2271,
      "##sert": 2272,
      "##x16": 2273,
      "##_mips": 2274,
      "##_nb": 2275,
      "tcg_cond": 2276,
      "##_only": 2277,
      "flag": 2278,
      "##_node": 2279,
      "','": 2280,
      "ast": 2281,
      "qlist": 2282,
      "##fff": 2283,
      "##chr": 2284,
      "##_le16": 2285,
      "##_buffer_size": 2286,
      "xbf": 2287,
      "av_dict": 2288,
      "target_phys_addr_t": 2289,
      "##_sse": 2290,
      "##i_tl": 2291,
      "pxa2xx": 2292,
      "spe": 2293,
      "##x4": 2294,
      "##55": 2295,
      "avstream": 2296,
      "msg": 2297,
      "##_range": 2298,
      "reslevel": 2299,
      "##_clip": 2300,
      "##_present": 2301,
      "##_rb32": 2302,
      "##used": 2303,
      "##_rx": 2304,
      "##ways": 2305,
      "lib": 2306,
      "##_lum": 2307,
      "av_mallocz": 2308,
      "##jpeg": 2309,
      "##_connect": 2310,
      "transl": 2311,
      "##_label": 2312,
      "movd": 2313,
      "##34": 2314,
      "\\\\": 2315,
      "job": 2316,
      "sv": 2317,
      "sa": 2318,
      "av_log_warning": 2319,
      "vp8": 2320,
      "point": 2321,
      "##cv": 2322,
      "codecpar": 2323,
      "mb_height": 2324,
      "resp": 2325,
      "##_it": 2326,
      "##_ppc": 2327,
      "##_non": 2328,
      "model": 2329,
      "\"\\\"": 2330,
      "02": 2331,
      "##_vm": 2332,
      "##dsp": 2333,
      "cpu_r": 2334,
      "gen_store": 2335,
      "##yv": 2336,
      "##ized": 2337,
      "##_perm": 2338,
      "##_last": 2339,
      "av_pix_fmt_yuv": 2340,
      "allocate": 2341,
      "##_aspect_ratio": 2342,
      "##sub": 2343,
      "acpi": 2344,
      "##sample": 2345,
      "##inal": 2346,
      "coord": 2347,
      "src1": 2348,
      "prid64": 2349,
      "##ba": 2350,
      "gr": 2351,
      "##accel": 2352,
      "##_jmp": 2353,
      "prefix": 2354,
      "vt": 2355,
      "##_target": 2356,
      "pcm": 2357,
      "orig": 2358,
      "##gin": 2359,
      "0x80": 2360,
      "##angle": 2361,
      "##ified": 2362,
      "##erved": 2363,
      "##ias": 2364,
      "##_pri": 2365,
      "requi": 2366,
      "tcg_target": 2367,
      "##_save": 2368,
      "##_x86": 2369,
      "ioc": 2370,
      "a1": 2371,
      "aml": 2372,
      "tp": 2373,
      "xhci": 2374,
      "~(": 2375,
      "##orts": 2376,
      "##_si": 2377,
      "string": 2378,
      "##_be16": 2379,
      "##_physical": 2380,
      "##raph": 2381,
      "##_window": 2382,
      "cannot": 2383,
      "vfio": 2384,
      "aac": 2385,
      "other": 2386,
      "rl": 2387,
      "av_sample_fmt": 2388,
      "##_mul": 2389,
      "reserved": 2390,
      "rw": 2391,
      "##ible": 2392,
      "##eter": 2393,
      "mxf": 2394,
      "##align": 2395,
      "##tern": 2396,
      "profile": 2397,
      "##_neon": 2398,
      "contain": 2399,
      "pixels": 2400,
      "bar": 2401,
      "timestamp": 2402,
      "ic": 2403,
      "prec": 2404,
      "g_malloc0": 2405,
      "##sor": 2406,
      "##pck": 2407,
      "flush": 2408,
      "##_asm": 2409,
      "temp_block": 2410,
      "##ank": 2411,
      "src2": 2412,
      "18": 2413,
      "##_tim": 2414,
      "cpu_gpr": 2415,
      "##_bitmap": 2416,
      "fr": 2417,
      "##_cle": 2418,
      "target_sig": 2419,
      "mapping": 2420,
      "pi": 2421,
      "que": 2422,
      "sin": 2423,
      "##_rt": 2424,
      "bpp": 2425,
      "##pro": 2426,
      "##_dts": 2427,
      "dststride": 2428,
      "##_generic": 2429,
      "bit_rate": 2430,
      "())": 2431,
      "common": 2432,
      "19": 2433,
      "##_test": 2434,
      "##unpck": 2435,
      "##_unref": 2436,
      "sf": 2437,
      "##_el": 2438,
      "note": 2439,
      ").": 2440,
      "##_all": 2441,
      "--)": 2442,
      "##_direct": 2443,
      "td": 2444,
      "##_ctrl": 2445,
      "##_low": 2446,
      "target_fmt": 2447,
      "punpck": 2448,
      "buf1": 2449,
      "round": 2450,
      "##our": 2451,
      "##_gpio": 2452,
      "attr": 2453,
      "##fds": 2454,
      "cs_base": 2455,
      "##time": 2456,
      "##_s16": 2457,
      "##asl": 2458,
      "##ailq": 2459,
      "##_mmu": 2460,
      "b1": 2461,
      "jpeg": 2462,
      "rate": 2463,
      "##vec": 2464,
      "##_scan": 2465,
      "255": 2466,
      "predictor": 2467,
      "tm": 2468,
      "filter_mb": 2469,
      "##enccontext": 2470,
      "##_pal": 2471,
      "##idge": 2472,
      "##_mo": 2473,
      "##ious": 2474,
      "reference": 2475,
      "##_quant": 2476,
      "just": 2477,
      "pd": 2478,
      "cpux": 2479,
      "object_property": 2480,
      "label": 2481,
      "##kely": 2482,
      "##imm": 2483,
      "nd": 2484,
      "##implemented": 2485,
      "##opt": 2486,
      "cpu_dst": 2487,
      "head": 2488,
      "\"\\\"\\": 2489,
      "40": 2490,
      "qemu_irq": 2491,
      "nb_samples": 2492,
      "file_index": 2493,
      "eb": 2494,
      "eio": 2495,
      "##_limit": 2496,
      "##_we": 2497,
      "##_cpus": 2498,
      "##status": 2499,
      "some": 2500,
      "##vis": 2501,
      "##ative": 2502,
      "##_fifo": 2503,
      "##_linesize": 2504,
      "mb_width": 2505,
      "##old": 2506,
      "lpc": 2507,
      "av_frame": 2508,
      "rdma": 2509,
      "entries": 2510,
      "##struct": 2511,
      "bp": 2512,
      "dinfo": 2513,
      "single": 2514,
      "work": 2515,
      "##irror": 2516,
      "##32_to_cpu": 2517,
      "##plug": 2518,
      "##_priv": 2519,
      "##ansp": 2520,
      "##unction": 2521,
      "scal": 2522,
      "bdrv_sector": 2523,
      "async": 2524,
      "proxy": 2525,
      "##86state": 2526,
      "cpux86state": 2527,
      "stop": 2528,
      "bc": 2529,
      "##fc": 2530,
      "##flow": 2531,
      "##pen": 2532,
      "##her": 2533,
      "##_ts": 2534,
      ")){": 2535,
      "codec_flag": 2536,
      "rtp": 2537,
      "##_mmio": 2538,
      "##_entries": 2539,
      "correct": 2540,
      "ro": 2541,
      "##pass": 2542,
      "0xe": 2543,
      "mb_stride": 2544,
      "##_le32": 2545,
      "0x01": 2546,
      "devicestate": 2547,
      "verify": 2548,
      "sch": 2549,
      "##idx": 2550,
      "qemu_log": 2551,
      "try": 2552,
      "ffmax": 2553,
      "cm": 2554,
      "ev": 2555,
      "##_tell": 2556,
      "using": 2557,
      "##_prec": 2558,
      "memory_region_init": 2559,
      "##vid": 2560,
      "elf": 2561,
      "##_ir": 2562,
      "av_log_info": 2563,
      "ehci": 2564,
      "drc": 2565,
      "##ng": 2566,
      "exec": 2567,
      "]))": 2568,
      "codebook": 2569,
      "##_fa": 2570,
      "##_dma": 2571,
      "srcstride": 2572,
      "reg_b": 2573,
      "##_seek": 2574,
      "##_luma": 2575,
      "##_physical_memory": 2576,
      "make": 2577,
      "##ie": 2578,
      "##write": 2579,
      "##_ops": 2580,
      "##oft": 2581,
      "clip": 2582,
      "##420": 2583,
      "x80": 2584,
      "##_stop": 2585,
      "tcg_gen_ext": 2586,
      "rename": 2587,
      "('": 2588,
      ")>>": 2589,
      "##sl": 2590,
      "loop": 2591,
      "*)(": 2592,
      "volatile": 2593,
      "tw": 2594,
      "##_msr": 2595,
      "col": 2596,
      "op2": 2597,
      "sample_aspect_ratio": 2598,
      "qio": 2599,
      "##ses": 2600,
      "##_wr": 2601,
      "queue": 2602,
      "##inc": 2603,
      "##_qpel": 2604,
      "##ached": 2605,
      "process": 2606,
      "\\\"\",": 2607,
      "##yuv": 2608,
      "##_fn": 2609,
      "inc": 2610,
      "##_hdr": 2611,
      "##_args": 2612,
      "qc": 2613,
      "same": 2614,
      "##tab": 2615,
      "abs": 2616,
      "##_socket": 2617,
      "##_simple": 2618,
      "b2": 2619,
      "y1": 2620,
      "##pack": 2621,
      "av_clip": 2622,
      "##_delta": 2623,
      "bdrv_get": 2624,
      "atom": 2625,
      "bytestream_get": 2626,
      "\"),": 2627,
      "decoded": 2628,
      "codec_tag": 2629,
      "than": 2630,
      "prix": 2631,
      "##_ue": 2632,
      "valid": 2633,
      "proto": 2634,
      "kernel_filename": 2635,
      "tci_read_r": 2636,
      "02x": 2637,
      "##rt": 2638,
      "decoder": 2639,
      "migration": 2640,
      "c4": 2641,
      "##prop": 2642,
      "arg4": 2643,
      "sec": 2644,
      "cluster_size": 2645,
      "##rypto": 2646,
      "##cd": 2647,
      "##_ue_golomb": 2648,
      "qmp": 2649,
      "##sing": 2650,
      "enum": 2651,
      "##abil": 2652,
      "hevc": 2653,
      "show": 2654,
      "##128": 2655,
      "##ty": 2656,
      "##_sn": 2657,
      "flo": 2658,
      "magic": 2659,
      "##alf": 2660,
      "##_first": 2661,
      "##_color": 2662,
      "sectors": 2663,
      "##eed": 2664,
      "##_setup": 2665,
      "##ottom": 2666,
      "##_cor": 2667,
      "rect": 2668,
      "helper": 2669,
      "ctrl": 2670,
      "slot": 2671,
      "##_row": 2672,
      "cpuid": 2673,
      "before": 2674,
      "abort": 2675,
      "address_space": 2676,
      "vp56": 2677,
      "17": 2678,
      "a2": 2679,
      "eax": 2680,
      "##_top": 2681,
      "##_fore": 2682,
      "##_bgr": 2683,
      "second": 2684,
      "##sock": 2685,
      "##_ic": 2686,
      "##_sr": 2687,
      "##abs": 2688,
      "c1": 2689,
      "mark": 2690,
      "##30": 2691,
      "##dent": 2692,
      "always": 2693,
      "tcg_gen_and": 2694,
      "unsupported": 2695,
      "qdev_get": 2696,
      "cpu_src1": 2697,
      "cmp": 2698,
      "gic": 2699,
      "g_new": 2700,
      "##string": 2701,
      "g_strdup": 2702,
      "ri": 2703,
      "##rough": 2704,
      "]*": 2705,
      "##param": 2706,
      "##rott": 2707,
      "adpcm": 2708,
      "##ready": 2709,
      "neon": 2710,
      "gen_opc": 2711,
      "load_reg": 2712,
      "##bitcontext": 2713,
      "##_ver": 2714,
      "##ns": 2715,
      "stri": 2716,
      "##thread": 2717,
      "block_index": 2718,
      "unit": 2719,
      "##aved": 2720,
      "b3": 2721,
      "i2c": 2722,
      "0x1f": 2723,
      "##_scsi": 2724,
      "##_complete": 2725,
      "a0": 2726,
      "*)&": 2727,
      "##ressed": 2728,
      "##422": 2729,
      "fid": 2730,
      "rv": 2731,
      "##arc": 2732,
      "0x0000": 2733,
      "tcg_const": 2734,
      "error_abort": 2735,
      "order": 2736,
      "igno": 2737,
      "__msa": 2738,
      "__asm": 2739,
      "mkt": 2740,
      "##_a0": 2741,
      "22": 2742,
      "##_8": 2743,
      "##nz": 2744,
      "##ble": 2745,
      "##_foreach": 2746,
      "##40": 2747,
      "core": 2748,
      "##roy": 2749,
      "tcg_gen_add": 2750,
      "snapshot": 2751,
      "pg": 2752,
      "##_by": 2753,
      "##rch": 2754,
      "##_structure": 2755,
      "auth": 2756,
      "payload": 2757,
      "##mc": 2758,
      "##min": 2759,
      "##ond": 2760,
      "##_client": 2761,
      "internal": 2762,
      "g_assert_cmpint": 2763,
      "p2": 2764,
      "##anch": 2765,
      "connect": 2766,
      "srcformat": 2767,
      "##444": 2768,
      ")->": 2769,
      "s390": 2770,
      "##1000": 2771,
      "##ward": 2772,
      "pad": 2773,
      "window": 2774,
      "##py": 2775,
      "avio_rl32": 2776,
      "avpriv": 2777,
      "encoded": 2778,
      "mktag": 2779,
      "pe": 2780,
      "sup": 2781,
      "##_l1": 2782,
      "##_dest": 2783,
      "already": 2784,
      "##_subregion": 2785,
      "wait": 2786,
      "##dt": 2787,
      "##seg": 2788,
      "acc": 2789,
      "##_option": 2790,
      "##ole": 2791,
      "##_real": 2792,
      "system": 2793,
      "##_plane": 2794,
      "##509": 2795,
      "##atal": 2796,
      "tcg_ctx": 2797,
      "ff_m": 2798,
      "block_size": 2799,
      "dstformat": 2800,
      "##_head": 2801,
      "##endor": 2802,
      "##raw": 2803,
      "rs2": 2804,
      "cpl": 2805,
      "db": 2806,
      "##sid": 2807,
      "0x6": 2808,
      "tcg_reg": 2809,
      "match": 2810,
      "got_frame": 2811,
      "';": 2812,
      "hd": 2813,
      "tiff": 2814,
      "##_ip": 2815,
      "##_link": 2816,
      "vms": 2817,
      "##==": 2818,
      "##_ns": 2819,
      "surface": 2820,
      "##ume": 2821,
      "pid": 2822,
      "##gid": 2823,
      "##eration": 2824,
      "##_sw": 2825,
      "##_exec": 2826,
      "extra": 2827,
      "##----": 2828,
      "clear": 2829,
      "was": 2830,
      "##_8x8": 2831,
      "##cause": 2832,
      "##_lp": 2833,
      "allow": 2834,
      "g2": 2835,
      "##fc0": 2836,
      "##vice": 2837,
      "##we": 2838,
      "]));": 2839,
      "channel_layout": 2840,
      "register_enc": 2841,
      "register_encdec": 2842,
      "am": 2843,
      "tv": 2844,
      "##ware": 2845,
      "into": 2846,
      "bug": 2847,
      "##abac": 2848,
      "isc": 2849,
      "abi": 2850,
      "##_insns": 2851,
      "bl": 2852,
      "man": 2853,
      "mirror": 2854,
      "##down": 2855,
      "##4x4": 2856,
      "##_pa": 2857,
      "##_motion": 2858,
      "iscs": 2859,
      "##_col": 2860,
      "needed": 2861,
      "translation": 2862,
      "fb": 2863,
      "li": 2864,
      "##fr": 2865,
      "##store": 2866,
      "ff_h264": 2867,
      "descriptor": 2868,
      "gl": 2869,
      "mk": 2870,
      "msi": 2871,
      "##sv": 2872,
      "##_var": 2873,
      "extent": 2874,
      "bytestream2_get_byte": 2875,
      "disascontext": 2876,
      "##son": 2877,
      "##_float": 2878,
      "##_dct": 2879,
      "##_display": 2880,
      "luma": 2881,
      "dirty": 2882,
      "##_em": 2883,
      "##sb": 2884,
      "child": 2885,
      "##_unlock": 2886,
      "##_control": 2887,
      "##alpha": 2888,
      "ff_put": 2889,
      "token": 2890,
      "because": 2891,
      "r1": 2892,
      "wr": 2893,
      "##dx": 2894,
      "encoding": 2895,
      "##_raw": 2896,
      "cpu_f": 2897,
      "##_time_base": 2898,
      "msix": 2899,
      "mpegenccontext": 2900,
      "##_cmdline": 2901,
      "qtailq": 2902,
      "dt": 2903,
      "vr": 2904,
      "##_pack": 2905,
      "##_fast": 2906,
      "limit": 2907,
      "smb": 2908,
      "##_cell": 2909,
      "##ctrl": 2910,
      "##_of": 2911,
      ">>=": 2912,
      "program": 2913,
      "illegal_op": 2914,
      "filter_mb_edge": 2915,
      "21": 2916,
      "go": 2917,
      "tls": 2918,
      "v16": 2919,
      "##_es": 2920,
      "##_insert": 2921,
      "(%%": 2922,
      "graph": 2923,
      "want": 2924,
      "av_opt": 2925,
      "##acy": 2926,
      "##channel": 2927,
      "##_track": 2928,
      "cpu_tmp0": 2929,
      "##_signal": 2930,
      "##reshold": 2931,
      "(-": 2932,
      "cy": 2933,
      "lp": 2934,
      "##_tc": 2935,
      "##_part": 2936,
      "reply": 2937,
      "##_div": 2938,
      "buf_end": 2939,
      "##_enable": 2940,
      "##_mtc0": 2941,
      "after": 2942,
      "features": 2943,
      "bd": 2944,
      "ics": 2945,
      "##2r": 2946,
      "##inis": 2947,
      "##inux": 2948,
      "##uto": 2949,
      "mmx": 2950,
      "0x0f": 2951,
      "0xffffffff": 2952,
      "##video": 2953,
      "##rer": 2954,
      "##init": 2955,
      "##ilun": 2956,
      "##_get_bits": 2957,
      "rtc": 2958,
      "iscsilun": 2959,
      "fdt_property": 2960,
      "tcgv_i32": 2961,
      "each": 2962,
      "more": 2963,
      "##get": 2964,
      "##ator": 2965,
      "##_idc": 2966,
      "compute": 2967,
      "##_notifier": 2968,
      "##ension": 2969,
      "feed": 2970,
      "##desc": 2971,
      "##_poc": 2972,
      "##_blk": 2973,
      "rec": 2974,
      "cpus": 2975,
      "##_def": 2976,
      "tcg_gen_sh": 2977,
      "att": 2978,
      "##ulate": 2979,
      "##32_op": 2980,
      "array": 2981,
      "memory_region_add": 2982,
      "avmedia_type_video": 2983,
      "##_sse2": 2984,
      "##420p": 2985,
      "bgr": 2986,
      "tap": 2987,
      "##dis": 2988,
      "##den": 2989,
      "available": 2990,
      "rece": 2991,
      "##otplug": 2992,
      "##_coded": 2993,
      "pool": 2994,
      "memory_region_add_subregion": 2995,
      "dim": 2996,
      "##wmmx": 2997,
      "##erge": 2998,
      "##anup": 2999,
      "##header": 3000,
      "##_global": 3001,
      "tmp64": 3002,
      "fixed": 3003,
      "previous": 3004,
      "##_common": 3005,
      "##wmmxt": 3006,
      "cnt": 3007,
      "post": 3008,
      "##ended": 3009,
      "##_h263": 3010,
      "##sole": 3011,
      "mips32_op": 3012,
      "##_command": 3013,
      ")];": 3014,
      "dump": 3015,
      "##hdr": 3016,
      "##_done": 3017,
      "qemu_put": 3018,
      "then": 3019,
      "plan": 3020,
      "interlaced": 3021,
      "##anged": 3022,
      "tcg_temp_new_i32": 3023,
      "iscsi": 3024,
      "cfg": 3025,
      "fn": 3026,
      "i8": 3027,
      "implemented": 3028,
      "##_method": 3029,
      "##access": 3030,
      "blocksize": 3031,
      "##lit": 3032,
      "mv_cache": 3033,
      "b0": 3034,
      "ib": 3035,
      "##mux": 3036,
      "##aces": 3037,
      "tcp": 3038,
      "##entry": 3039,
      "iommu": 3040,
      "pixel_ptr": 3041,
      "jpeg2000": 3042,
      "!!": 3043,
      "arch": 3044,
      "##mit": 3045,
      "##onse": 3046,
      "##_group": 3047,
      "scsw": 3048,
      "div": 3049,
      "[-": 3050,
      "ir": 3051,
      "##float": 3052,
      "##ger": 3053,
      "disp": 3054,
      "##_predict": 3055,
      "##filtersize": 3056,
      "total_sectors": 3057,
      "icodec": 3058,
      "text": 3059,
      "##apter": 3060,
      "##_wait": 3061,
      "regist": 3062,
      "curr": 3063,
      "slice_type": 3064,
      "priu": 3065,
      "08x": 3066,
      "##lap": 3067,
      "##ject": 3068,
      "##_bil": 3069,
      "##_guid": 3070,
      "##_tlb": 3071,
      "##_arm": 3072,
      "buf_ptr": 3073,
      "pand": 3074,
      "##cast": 3075,
      "remain": 3076,
      "##_guest": 3077,
      "aio_context": 3078,
      "*=": 3079,
      "##139": 3080,
      "##ating": 3081,
      "##_ss": 3082,
      "##_use": 3083,
      "##_used": 3084,
      "target_nr_get": 3085,
      "pending": 3086,
      "##virt": 3087,
      "##reen": 3088,
      "##_print": 3089,
      "subtitle": 3090,
      "cluster_offset": 3091,
      "##_neg": 3092,
      "motion_val": 3093,
      "refcount_table": 3094,
      "multip": 3095,
      "esc": 3096,
      "##ks": 3097,
      "avs": 3098,
      "##open": 3099,
      "##_remove": 3100,
      "##_ok": 3101,
      "##irp": 3102,
      "srcw": 3103,
      "backup": 3104,
      "##_job": 3105,
      "fifo": 3106,
      "##diff": 3107,
      "##_cnt": 3108,
      "inet": 3109,
      "cblk": 3110,
      "**)": 3111,
      "lock_user_string": 3112,
      "##_fpu": 3113,
      "getbitcontext": 3114,
      "/%": 3115,
      "sasl": 3116,
      "##mary": 3117,
      "av_time_base": 3118,
      "\",\"": 3119,
      "argv": 3120,
      "strnc": 3121,
      "values": 3122,
      "setup": 3123,
      "spr_no": 3124,
      "poc": 3125,
      "spr_noaccess": 3126,
      "fragment": 3127,
      "##arm": 3128,
      "##ops": 3129,
      "##_vc1": 3130,
      "bdrv_o": 3131,
      "dirac": 3132,
      "30": 3133,
      "det": 3134,
      "four": 3135,
      "##lement": 3136,
      "##_freq": 3137,
      "##_del": 3138,
      "generate": 3139,
      "frame_rate": 3140,
      "##_alpha": 3141,
      "visitor": 3142,
      "##_system": 3143,
      "tcg_const_i32": 3144,
      "::": 3145,
      "decoding": 3146,
      "##_eb": 3147,
      "avio_rb32": 3148,
      "cpu_src2": 3149,
      "__func": 3150,
      "##ular": 3151,
      "##_round": 3152,
      "bios_size": 3153,
      "av_rescale": 3154,
      "__func__": 3155,
      "bps": 3156,
      "dist": 3157,
      "##rus": 3158,
      "##_eq": 3159,
      "sub_mb_type": 3160,
      "##_iovec": 3161,
      "0x20": 3162,
      "actual": 3163,
      "seek_set": 3164,
      "##onents": 3165,
      "gdb": 3166,
      "poll": 3167,
      "##ui": 3168,
      "av_cpu": 3169,
      "##_brc": 3170,
      "##ics": 3171,
      "inst": 3172,
      "##_std": 3173,
      "gen_mov": 3174,
      "qemu_chr": 3175,
      "kernel_cmdline": 3176,
      "##_bands": 3177,
      "##rerror": 3178,
      "!\\": 3179,
      "23": 3180,
      "rle": 3181,
      "term": 3182,
      "##_6": 3183,
      "##oid": 3184,
      "##_cs": 3185,
      "instruct": 3186,
      "##_dump": 3187,
      "##_iwmmxt": 3188,
      "discard": 3189,
      "##_packet_size": 3190,
      "lit": 3191,
      "uffff": 3192,
      "av_st": 3193,
      "##_fix": 3194,
      "##_metadata": 3195,
      "pcidevice": 3196,
      "progress": 3197,
      "signal": 3198,
      "##uccess": 3199,
      "##_destroy": 3200,
      "##path": 3201,
      "##_fp": 3202,
      "##_mod": 3203,
      "##_lx": 3204,
      "##_opc": 3205,
      "block_align": 3206,
      "##ression": 3207,
      "##_buffers": 3208,
      "kl": 3209,
      "uff": 3210,
      "##ape": 3211,
      "##rement": 3212,
      "av_assert": 3213,
      "##agate": 3214,
      "is_intra": 3215,
      "##_unit": 3216,
      "av_dlog": 3217,
      "##_bool": 3218,
      "av_cpu_flag": 3219,
      "##_tx": 3220,
      "enable": 3221,
      "0xc": 3222,
      "##_nof": 3223,
      "get_ue_golomb": 3224,
      "##value": 3225,
      "480": 3226,
      "fram": 3227,
      "pat": 3228,
      "sdr": 3229,
      "##sel": 3230,
      "ref_cache": 3231,
      "initrd_filename": 3232,
      "prefetch": 3233,
      "##_rectangle": 3234,
      ")\",": 3235,
      "md": 3236,
      "##index": 3237,
      "mem_index": 3238,
      "flv": 3239,
      "##server": 3240,
      "ufffd": 3241,
      "28": 3242,
      "##mar": 3243,
      "##_flt": 3244,
      "##_sizes": 3245,
      "opp": 3246,
      "thrott": 3247,
      "begin": 3248,
      "cir": 3249,
      "stl": 3250,
      "int_max": 3251,
      "##exp": 3252,
      "##_gr": 3253,
      "##ertical": 3254,
      "pci_bus": 3255,
      "##plit": 3256,
      "aviocontext": 3257,
      "##_bridge": 3258,
      "ct": 3259,
      "cfi": 3260,
      "h2": 3261,
      "##tive": 3262,
      "expect": 3263,
      "bmd": 3264,
      "##gy": 3265,
      "##7m": 3266,
      "cpu_ir": 3267,
      "##_old": 3268,
      "##ynam": 3269,
      "##_weight": 3270,
      "prix64": 3271,
      "bm": 3272,
      "bin": 3273,
      "dflag": 3274,
      "sg": 3275,
      "##ting": 3276,
      "##event": 3277,
      "##oth": 3278,
      "slirp": 3279,
      "##_valid": 3280,
      "##_buf_size": 3281,
      "pix_fmt_rgb": 3282,
      "norm": 3283,
      "##width": 3284,
      "##_diff": 3285,
      "##cial": 3286,
      "##_build": 3287,
      "prob": 3288,
      "logfile": 3289,
      "##_options": 3290,
      "vlan": 3291,
      "tab": 3292,
      "##ont": 3293,
      "gen_set": 3294,
      "##space": 3295,
      "##bose": 3296,
      "ll": 3297,
      "##aff": 3298,
      "transp": 3299,
      "video_enc": 3300,
      "##_vlc_bits": 3301,
      "cirrus": 3302,
      "emul": 3303,
      "##order": 3304,
      "l2_table": 3305,
      "__put": 3306,
      "qpc": 3307,
      "##aio": 3308,
      "##_mult": 3309,
      "change": 3310,
      "##args": 3311,
      "target_st": 3312,
      "##_char": 3313,
      "partition": 3314,
      "##_brcond": 3315,
      "__put_user": 3316,
      "ke": 3317,
      "ov": 3318,
      "pitch": 3319,
      "##hd": 3320,
      "##my": 3321,
      "##3d": 3322,
      "##step": 3323,
      "##_dec": 3324,
      "sprite": 3325,
      "##_active": 3326,
      "cf": 3327,
      "pv": 3328,
      "##head": 3329,
      "inlink": 3330,
      "seq": 3331,
      "l1_table": 3332,
      "container": 3333,
      ",%": 3334,
      "ls": 3335,
      "##sig": 3336,
      "##2_i32": 3337,
      "##dd": 3338,
      "av_co": 3339,
      "pmadd": 3340,
      "##_append": 3341,
      "av_cold": 3342,
      "##oriz": 3343,
      "##onf": 3344,
      "##_ide": 3345,
      "]),": 3346,
      "url_f": 3347,
      "##_coeffs": 3348,
      "##_snapshot": 3349,
      "##now": 3350,
      "##dw": 3351,
      "##ret": 3352,
      "##_ps": 3353,
      "gen_vfp": 3354,
      "##_irqs": 3355,
      "h263": 3356,
      "larg": 3357,
      "v4": 3358,
      "vmd": 3359,
      "vaddr": 3360,
      "##max": 3361,
      "##')": 3362,
      "##_bar": 3363,
      "##asecmp": 3364,
      "build": 3365,
      "##row": 3366,
      "outlink": 3367,
      "##_async": 3368,
      "##frames": 3369,
      "visit": 3370,
      "##_server": 3371,
      "##efs": 3372,
      ");\\": 3373,
      "##less": 3374,
      "0x5": 3375,
      "##_local": 3376,
      "avio_tell": 3377,
      "vtd": 3378,
      "__asm__": 3379,
      "##ynamic": 3380,
      "right": 3381,
      "##_tile": 3382,
      "##_release": 3383,
      "##_goto": 3384,
      "##_gray": 3385,
      "target_e": 3386,
      "avio_skip": 3387,
      "1000": 3388,
      "down": 3389,
      "pthread": 3390,
      "##_can": 3391,
      "##_mon": 3392,
      "##oport": 3393,
      "eno": 3394,
      "enabled": 3395,
      "0x000": 3396,
      "##_virt": 3397,
      "hwaccel": 3398,
      "arm_cp": 3399,
      "qdev_prop": 3400,
      "##ediate": 3401,
      "l1_size": 3402,
      "store_reg": 3403,
      "qvirt": 3404,
      "sen": 3405,
      "##ioc": 3406,
      "get_vlc": 3407,
      "extended": 3408,
      "##ensions": 3409,
      "48": 3410,
      "##cx": 3411,
      "avoid": 3412,
      "##_duration": 3413,
      "##_wrap": 3414,
      "##_propagate": 3415,
      "(;;": 3416,
      "##yv12": 3417,
      "pmaddwd": 3418,
      "##_am": 3419,
      "##hc": 3420,
      "##input": 3421,
      "##alt": 3422,
      "##_mfc0": 3423,
      "unimplemented": 3424,
      "##_change": 3425,
      "ac3": 3426,
      "ssd": 3427,
      "coroutine": 3428,
      "clock": 3429,
      "global": 3430,
      "y0": 3431,
      "##01": 3432,
      "##ove": 3433,
      "##_encoder": 3434,
      "error_propagate": 3435,
      "cursor": 3436,
      "##okup": 3437,
      "##_program": 3438,
      "]];": 3439,
      "perm": 3440,
      "overflow": 3441,
      "##base": 3442,
      "##pte": 3443,
      "bit_depth": 3444,
      "compat": 3445,
      "driver": 3446,
      "##_16x16": 3447,
      "qio_channel": 3448,
      "##hi": 3449,
      "avration": 3450,
      "##coeff": 3451,
      "##_hash": 3452,
      "##_auth": 3453,
      "search": 3454,
      "0x02": 3455,
      "picture_structure": 3456,
      "matrix": 3457,
      "##socket": 3458,
      "##_qemu_ld": 3459,
      "##_segment": 3460,
      "##_coroutine": 3461,
      "cfi_table": 3462,
      "(;;)": 3463,
      "avrational": 3464,
      "gt": 3465,
      "implement": 3466,
      "sse": 3467,
      "uc": 3468,
      "0xd": 3469,
      "##_imm": 3470,
      "outbuf": 3471,
      "hash": 3472,
      "ot_word": 3473,
      "parameters": 3474,
      "##_create_simple": 3475,
      "calc": 3476,
      "mul": 3477,
      "##_msi": 3478,
      "##inear": 3479,
      "ref_count": 3480,
      "http": 3481,
      "nut": 3482,
      "##mips": 3483,
      "##ym": 3484,
      "##_full": 3485,
      "ind": 3486,
      "mv_type": 3487,
      "space": 3488,
      "check_fpu": 3489,
      "disk": 3490,
      "virtio_net": 3491,
      "openpic": 3492,
      "mkv": 3493,
      "registers": 3494,
      "check_fpu_feature": 3495,
      "ctb": 3496,
      "esp": 3497,
      "hp": 3498,
      "hard": 3499,
      "r0": 3500,
      "v2": 3501,
      "##sty": 3502,
      "is_user": 3503,
      "##_token": 3504,
      "init_get_bits": 3505,
      "kernel_size": 3506,
      "svq": 3507,
      "cx": 3508,
      "##fmt": 3509,
      "##((": 3510,
      "av_str": 3511,
      "##_rw": 3512,
      "##cont": 3513,
      "timeout": 3514,
      "##_trunc": 3515,
      "aiocb": 3516,
      "avmedia_type_audio": 3517,
      "##25": 3518,
      "avc": 3519,
      "##_sum": 3520,
      "stereo": 3521,
      "qemu_opts": 3522,
      "pixel_shift": 3523,
      "fill_rectangle": 3524,
      "vram": 3525,
      "##99": 3526,
      "##_call": 3527,
      "##_nal": 3528,
      "##blocks": 3529,
      "apic": 3530,
      "##_values": 3531,
      "##_tbl": 3532,
      "p1": 3533,
      "##_fault": 3534,
      "them": 3535,
      "0x1000": 3536,
      "codec_id_pcm": 3537,
      "two": 3538,
      "sense": 3539,
      "##_sm": 3540,
      "##_mig": 3541,
      "loc": 3542,
      "##_kind": 3543,
      "gen_load_fpr": 3544,
      "floor": 3545,
      "linux": 3546,
      "smp": 3547,
      "xvid": 3548,
      "##_pref": 3549,
      "sequence": 3550,
      "##_needed": 3551,
      "vmstate": 3552,
      "0x40": 3553,
      "cpu_to_be32": 3554,
      "##_factor": 3555,
      "fps": 3556,
      "handler": 3557,
      "##dir": 3558,
      "##_rece": 3559,
      "cpu_physical_memory": 3560,
      "##rcasecmp": 3561,
      "<<=": 3562,
      "class": 3563,
      "##lyph": 3564,
      "virtual": 3565,
      "##length": 3566,
      "coeffs": 3567,
      "av_strcasecmp": 3568,
      "s2": 3569,
      "signed": 3570,
      "##_decode_frame": 3571,
      "qdict_get": 3572,
      "target_fmt_lx": 3573,
      "eof": 3574,
      "xc": 3575,
      "##i32": 3576,
      "##gacy": 3577,
      "##_point": 3578,
      "##_serial": 3579,
      "avio_wb": 3580,
      "bdrv_sector_size": 3581,
      "qcrypto": 3582,
      "get_vlc2": 3583,
      "100": 3584,
      "##ced": 3585,
      "##ten": 3586,
      "##gg": 3587,
      "##qrt": 3588,
      "##_master": 3589,
      "##ing_size": 3590,
      "undef": 3591,
      "sei": 3592,
      "header_size": 3593,
      "qdev_prop_set": 3594,
      "ge": 3595,
      "hls": 3596,
      "task": 3597,
      "y2": 3598,
      "##ule": 3599,
      "##_m0": 3600,
      "##ument": 3601,
      "##_write_reg": 3602,
      "strncmp": 3603,
      ")&": 3604,
      "##68": 3605,
      "##ality": 3606,
      "##irk": 3607,
      "present": 3608,
      "bound": 3609,
      "pix_fmt_yuv": 3610,
      "rs1": 3611,
      "##_access": 3612,
      "tci_write_reg": 3613,
      "r2": 3614,
      "##urf": 3615,
      "argc": 3616,
      "unli": 3617,
      "##_select": 3618,
      "bands": 3619,
      "##address": 3620,
      "##_rl16": 3621,
      "##_available": 3622,
      "bet": 3623,
      "bank": 3624,
      "##_an": 3625,
      "##_attr": 3626,
      "##key": 3627,
      "##_spec": 3628,
      "##_inc": 3629,
      "##ummy": 3630,
      "reg_d": 3631,
      "devices": 3632,
      "##ency": 3633,
      "##_mv_table": 3634,
      "psrl": 3635,
      "mjpeg": 3636,
      "x509": 3637,
      "##cap": 3638,
      "##_pt": 3639,
      "retval": 3640,
      "release": 3641,
      "##iss": 3642,
      "bitrate": 3643,
      "initrd_size": 3644,
      "lj": 3645,
      "##man": 3646,
      "##usb": 3647,
      "##_high": 3648,
      "##_fields": 3649,
      "##cnt": 3650,
      "##_ct": 3651,
      "##alle": 3652,
      "##ution": 3653,
      "##_adpcm": 3654,
      "last_picture": 3655,
      "());": 3656,
      "ape": 3657,
      "pdev": 3658,
      "##ared": 3659,
      "##_padd": 3660,
      "##_machine": 3661,
      "##_rs": 3662,
      "##_rac": 3663,
      "\"\\\"\\\\": 3664,
      "draw": 3665,
      "iore": 3666,
      "nnz": 3667,
      "##func": 3668,
      "##bl": 3669,
      "chan": 3670,
      "##_sequence": 3671,
      "slices": 3672,
      "parser": 3673,
      "gran": 3674,
      "ssize": 3675,
      "uval": 3676,
      "##70": 3677,
      "##ery": 3678,
      "##_s32": 3679,
      "##_bug": 3680,
      "##_sec": 3681,
      "get_bits_count": 3682,
      "pic_param": 3683,
      "##_kernel": 3684,
      "ram_addr_t": 3685,
      "iov_len": 3686,
      "remaining": 3687,
      "fast": 3688,
      "##iod": 3689,
      "trk": 3690,
      "##ide_data": 3691,
      "##********": 3692,
      "##_gpio_in": 3693,
      "c4r": 3694,
      "ohci": 3695,
      "##fb": 3696,
      "##l8": 3697,
      "##_poll": 3698,
      "##_bh": 3699,
      "##_with": 3700,
      "##_be64": 3701,
      "klass": 3702,
      "gpr": 3703,
      "saddr": 3704,
      "vst": 3705,
      "##pa": 3706,
      "##_temp": 3707,
      "##_rom": 3708,
      "##_initial": 3709,
      "oformat": 3710,
      "le32_to_cpu": 3711,
      "last_mv": 3712,
      "above": 3713,
      "xmm0": 3714,
      "##_msg": 3715,
      "qpci": 3716,
      "poss": 3717,
      "##slice": 3718,
      "abi_ulong": 3719,
      "how": 3720,
      "por": 3721,
      "qerr": 3722,
      "xy": 3723,
      "##_7": 3724,
      "##wr": 3725,
      "##orb": 3726,
      "ifn": 3727,
      "files": 3728,
      "die": 3729,
      "##ptr_t": 3730,
      "target_page_mask": 3731,
      "##_backing": 3732,
      "response": 3733,
      "unlikely": 3734,
      "a3": 3735,
      "fre": 3736,
      "mot": 3737,
      "##_sys": 3738,
      "##_ph": 3739,
      "strerror": 3740,
      "buf0": 3741,
      "gen_ld": 3742,
      "##_short": 3743,
      "##_listen": 3744,
      "##_pred_mode": 3745,
      "##_threads": 3746,
      "gen_store_gpr": 3747,
      "hz": 3748,
      "##v2": 3749,
      "##bp": 3750,
      "cpu_v": 3751,
      "cpu_register": 3752,
      "opn": 3753,
      "asm": 3754,
      "0x3f": 3755,
      "doesn": 3756,
      "hflags": 3757,
      "pes": 3758,
      "venc": 3759,
      "##ee": 3760,
      "is_error": 3761,
      "is_write": 3762,
      "compno": 3763,
      "##pel_pixels_tab": 3764,
      "##_source": 3765,
      "target_page_size": 3766,
      "##_palette": 3767,
      "bh": 3768,
      "big": 3769,
      "gain": 3770,
      "hand": 3771,
      "wp": 3772,
      "##96": 3773,
      "++);": 3774,
      "gen_s": 3775,
      "tcgv_i64": 3776,
      "motion_x": 3777,
      "tpm": 3778,
      "rects": 3779,
      "##_bilinear": 3780,
      "63": 3781,
      "udp": 3782,
      "##_right": 3783,
      "consum": 3784,
      "##_lpc": 3785,
      "get_buffer": 3786,
      "cur_pic": 3787,
      "##essage": 3788,
      "##_user_only": 3789,
      "config_user_only": 3790,
      "##_mbaff": 3791,
      "gen_op_iwmmxt": 3792,
      "(),": 3793,
      "ioreq": 3794,
      "ifndef": 3795,
      "dmv": 3796,
      "uart": 3797,
      "##mac": 3798,
      "##ily": 3799,
      "##64_to_cpu": 3800,
      "dec_ctx": 3801,
      "##_branch": 3802,
      "special": 3803,
      "##2rgb": 3804,
      "huff": 3805,
      "mt": 3806,
      "v1": 3807,
      "##ount": 3808,
      "##i_i64": 3809,
      "##ered": 3810,
      "##ority": 3811,
      "##_pass": 3812,
      "##ization": 3813,
      "force": 3814,
      "##set_t": 3815,
      "##_aac": 3816,
      "##reds": 3817,
      "dca": 3818,
      "##buf0": 3819,
      "##action": 3820,
      "]][": 3821,
      "exception_index": 3822,
      "nic": 3823,
      "##wt": 3824,
      "##_ra": 3825,
      "##call": 3826,
      "crc": 3827,
      "half": 3828,
      "##ces": 3829,
      "##mpeg": 3830,
      "avi": 3831,
      "rex": 3832,
      "##_step": 3833,
      "##32s": 3834,
      "##_ioport": 3835,
      "##scall": 3836,
      "see": 3837,
      "weight": 3838,
      "##_to_target": 3839,
      "mv_dir": 3840,
      "cp15": 3841,
      "object_property_set": 3842,
      "fidp": 3843,
      "0f": 3844,
      "##gain": 3845,
      "##_tick": 3846,
      "##only": 3847,
      "ffabs": 3848,
      "##_iov": 3849,
      "2048": 3850,
      "##aiocb": 3851,
      "gtk": 3852,
      "dummy": 3853,
      "iter": 3854,
      "##ous": 3855,
      "##ambd": 3856,
      "##inter": 3857,
      "get_be32": 3858,
      "##_packets": 3859,
      "chrdst": 3860,
      "##itional": 3861,
      "allocated": 3862,
      "motion_y": 3863,
      "smk": 3864,
      "qdev_get_gpio_in": 3865,
      ".%": 3866,
      ":\"": 3867,
      "beta": 3868,
      "dict": 3869,
      "hy": 3870,
      "##uks": 3871,
      "##_score": 3872,
      "##_pwrite": 3873,
      "##odevice": 3874,
      "ff_alloc": 3875,
      "mmap": 3876,
      "complete": 3877,
      "##msg": 3878,
      "chroma_qp": 3879,
      "tcg_temp_new_i64": 3880,
      "av_picture_type_i": 3881,
      "##_modrm": 3882,
      "##tivec": 3883,
      "ahci": 3884,
      "fault": 3885,
      "yet": 3886,
      "##host": 3887,
      "avr": 3888,
      "##_soft": 3889,
      "intr": 3890,
      "cpu_flags": 3891,
      "aligned": 3892,
      "##_convert": 3893,
      "target_nr_set": 3894,
      "##toyv12": 3895,
      "##ooter": 3896,
      "x86_cpu": 3897,
      "##_verbose": 3898,
      "c2": 3899,
      "nvm": 3900,
      "score": 3901,
      "##33": 3902,
      "##rea": 3903,
      "cpumips": 3904,
      "##_watch": 3905,
      "tmp1": 3906,
      "through": 3907,
      "##plic": 3908,
      "ioctl": 3909,
      "##_tls": 3910,
      "##_subtitle": 3911,
      "total_size": 3912,
      "vfp": 3913,
      "current_picture_ptr": 3914,
      "##seek": 3915,
      "##_big": 3916,
      "coding": 3917,
      "##_vnc": 3918,
      "error_code": 3919,
      "xmm_regs": 3920,
      "cpumipsstate": 3921,
      "aud": 3922,
      "mpu": 3923,
      "##_gain": 3924,
      "unable": 3925,
      "transfer": 3926,
      "##_fixed": 3927,
      ",\"": 3928,
      "hap": 3929,
      "##pix": 3930,
      "##_sg": 3931,
      "##_fill": 3932,
      "cpu_abort": 3933,
      "pix_fmt_bgr": 3934,
      "##ived": 3935,
      "##_coded_sample": 3936,
      "ai": 3937,
      "ob": 3938,
      "p0": 3939,
      "pages": 3940,
      "##ren": 3941,
      "##lems": 3942,
      "elif": 3943,
      "##ipher": 3944,
      "stream_ptr": 3945,
      "##antable": 3946,
      "rtl8": 3947,
      "xmm2": 3948,
      "quality": 3949,
      "##_notify": 3950,
      "##formance": 3951,
      "++];": 3952,
      "bits_per_coded_sample": 3953,
      "since": 3954,
      "strip": 3955,
      ";\\": 3956,
      "warning": 3957,
      "##l2": 3958,
      "##_spe": 3959,
      "##_rep": 3960,
      "av_log_verbose": 3961,
      "##_u8": 3962,
      "listen": 3963,
      "extract32": 3964,
      "##_receive": 3965,
      "##ambda": 3966,
      "dy": 3967,
      "tre": 3968,
      "wi": 3969,
      "##ne": 3970,
      "##ner": 3971,
      "##vi": 3972,
      "##ities": 3973,
      "coef": 3974,
      "##_ima": 3975,
      "##irq": 3976,
      "select": 3977,
      "##_eof": 3978,
      "##_msix": 3979,
      "small": 3980,
      "isa_bus": 3981,
      "target_page_bits": 3982,
      "##_mpeg4": 3983,
      "paddd": 3984,
      "require": 3985,
      "lun": 3986,
      "main": 3987,
      "##18": 3988,
      "##decode": 3989,
      "##_vendor": 3990,
      "##_obj": 3991,
      "gbc": 3992,
      "##_child": 3993,
      "rtl8139": 3994,
      "iomem": 3995,
      "ogg": 3996,
      "##hw": 3997,
      "##mi": 3998,
      "##ater": 3999,
      "##_slot": 4000,
      "##verse": 4001,
      "sample_fmt": 4002,
      "start_time": 4003,
      "0x04": 4004,
      "key_frame": 4005,
      "##lbw": 4006,
      "##_transfer": 4007,
      "punpcklbw": 4008,
      "0x00000000": 4009,
      "av_rescale_q": 4010,
      "function": 4011,
      "qstring": 4012,
      "tcg_type": 4013,
      "##ayer": 4014,
      "##_aa": 4015,
      "specified": 4016,
      "##_item": 4017,
      "marker": 4018,
      "hpet": 4019,
      "e1000": 4020,
      "final": 4021,
      "##iodevice": 4022,
      "##url": 4023,
      "##_ds": 4024,
      "##_vol": 4025,
      "ff_get": 4026,
      "frame_addr": 4027,
      "compressed": 4028,
      "##buf1": 4029,
      "iov_base": 4030,
      "vmx": 4031,
      "##_mmx2": 4032,
      "av_picture_type_b": 4033,
      "##_clear": 4034,
      "finis": 4035,
      "hf": 4036,
      "pop": 4037,
      "##v1": 4038,
      "##_fail": 4039,
      "##psr": 4040,
      "0x03": 4041,
      "bytestream_put": 4042,
      "##_zero_count": 4043,
      "##_address_space": 4044,
      "vlum": 4045,
      "instruction": 4046,
      "ssize_t": 4047,
      "hz_out": 4048,
      "freq": 4049,
      "gp": 4050,
      "##_b_frames": 4051,
      "##_area": 4052,
      "component": 4053,
      "counter": 4054,
      "psub": 4055,
      "##_refcount": 4056,
      "##_mapped": 4057,
      "##_prob": 4058,
      "##_interlaced": 4059,
      "tcg_temp_free_i64": 4060,
      "chunk_size": 4061,
      "qtest": 4062,
      "psrad": 4063,
      "ignore": 4064,
      "vchr": 4065,
      "##di": 4066,
      "##_fop": 4067,
      "##ote": 4068,
      "0xa": 4069,
      "cpu_ppc": 4070,
      "ops": 4071,
      "do_up": 4072,
      "##config": 4073,
      "##_extra": 4074,
      "backend": 4075,
      "##_sparc": 4076,
      "##_ebml": 4077,
      "do_upcast": 4078,
      "gid": 4079,
      "##bg": 4080,
      "##_calc": 4081,
      "##_pread": 4082,
      "##_boot": 4083,
      "##_me": 4084,
      "cpu_cc": 4085,
      "these": 4086,
      "iso": 4087,
      "##char": 4088,
      "##chip": 4089,
      "\"));": 4090,
      "##_abs": 4091,
      "tracks": 4092,
      "coded_frame": 4093,
      "initialize": 4094,
      "htab": 4095,
      "##_vectors": 4096,
      ")/": 4097,
      "cert": 4098,
      "vi": 4099,
      "xf": 4100,
      "##_10": 4101,
      "##gt": 4102,
      "##_fragment": 4103,
      "##_stereo": 4104,
      "they": 4105,
      "qemuopts": 4106,
      "0x08": 4107,
      "0x100": 4108,
      "pl0": 4109,
      "vring": 4110,
      "##_rac_get": 4111,
      "our": 4112,
      "w2": 4113,
      "##mod": 4114,
      "avail": 4115,
      "remove": 4116,
      "nb_output": 4117,
      "##_frame_rate": 4118,
      "##pty": 4119,
      "resample": 4120,
      "clut": 4121,
      "movie": 4122,
      "virtio_scsi": 4123,
      "##_parameter": 4124,
      "##anges": 4125,
      "macro": 4126,
      "memory_region_init_io": 4127,
      "##_realize": 4128,
      "cu": 4129,
      "win": 4130,
      "word": 4131,
      "##_emu": 4132,
      "##lp": 4133,
      "##lib": 4134,
      "##pci": 4135,
      "##hes": 4136,
      "##_inval": 4137,
      "convert": 4138,
      "exter": 4139,
      "##_hd": 4140,
      "##_endian": 4141,
      "busdev": 4142,
      "keyframe": 4143,
      "factor": 4144,
      "av_pix_fmt_rgb": 4145,
      "unlock_user_struct": 4146,
      "rtsp_st": 4147,
      "external": 4148,
      "split": 4149,
      "xx": 4150,
      "##packet": 4151,
      "##ratch": 4152,
      "av_rl32": 4153,
      "##16x16": 4154,
      "chardev": 4155,
      "matroska_id": 4156,
      "##ularity": 4157,
      "##_prefix": 4158,
      "would": 4159,
      "0x9": 4160,
      "##_core": 4161,
      "gen_exception": 4162,
      "src0": 4163,
      "qemu_iovec": 4164,
      "trap": 4165,
      "##pcr": 4166,
      "##very": 4167,
      "##_qiov": 4168,
      "slb": 4169,
      "##_allocated": 4170,
      "refcount_block": 4171,
      "cpu_tmp2_i32": 4172,
      "av_assert0": 4173,
      "hardware": 4174,
      "possible": 4175,
      "](": 4176,
      "bt": 4177,
      "ns": 4178,
      "##<<": 4179,
      "##_t1": 4180,
      "operation": 4181,
      "qemu_coroutine": 4182,
      "##shift": 4183,
      "drop": 4184,
      "qscale_table": 4185,
      "sockaddr": 4186,
      "av_dict_set": 4187,
      "##ability": 4188,
      "dtext": 4189,
      "pattern": 4190,
      "throttle": 4191,
      "v8": 4192,
      "0xb": 4193,
      "##isk": 4194,
      "qemu_malloc": 4195,
      "arg5": 4196,
      "##ytes": 4197,
      "##shake": 4198,
      "transform": 4199,
      "##mmx2": 4200,
      "bro": 4201,
      "sure": 4202,
      "tex": 4203,
      "export": 4204,
      "also": 4205,
      "new_l1": 4206,
      "invalid_opc": 4207,
      "##_prev": 4208,
      "vnc_debug": 4209,
      "##_slices": 4210,
      "##_avail": 4211,
      "##_rb16": 4212,
      "sysbus_create_simple": 4213,
      "##_att": 4214,
      "##samples": 4215,
      "##422p": 4216,
      "bottom": 4217,
      "rce": 4218,
      "tail": 4219,
      "uri": 4220,
      "##off": 4221,
      "##_pending": 4222,
      "##_get_class": 4223,
      "blockdev": 4224,
      "ldl": 4225,
      "hpte": 4226,
      "imp": 4227,
      "q0": 4228,
      "av_w": 4229,
      "##_frag": 4230,
      "##_mux": 4231,
      "##ision": 4232,
      "##_section": 4233,
      "put_vp8": 4234,
      "packets": 4235,
      "neg": 4236,
      "excp0": 4237,
      "events": 4238,
      "##_current": 4239,
      "##_partition": 4240,
      "multiple": 4241,
      "pnum": 4242,
      "q1": 4243,
      "##ming": 4244,
      "##_fatal": 4245,
      "stuff": 4246,
      "##icient": 4247,
      "islit": 4248,
      "nb_clusters": 4249,
      "##_offsets": 4250,
      "##_to_host": 4251,
      "start_code": 4252,
      "ioh": 4253,
      "avpicture": 4254,
      "backing_file": 4255,
      "non_zero_count": 4256,
      "gen_load_gpr": 4257,
      "##_hwaccel": 4258,
      "reslevelno": 4259,
      "##_primary": 4260,
      "piix": 4261,
      "received": 4262,
      ")+": 4263,
      "footer": 4264,
      "pfx": 4265,
      "saved": 4266,
      "##ock": 4267,
      "##s_per": 4268,
      "##request": 4269,
      "##_tem": 4270,
      "##_found": 4271,
      "stack": 4272,
      "rem": 4273,
      "cpu_addr": 4274,
      "##_xor": 4275,
      "tcg_gen_brcond": 4276,
      "checksum": 4277,
      "qdev_init": 4278,
      "##client": 4279,
      "##_threshold": 4280,
      "needs": 4281,
      "nvram": 4282,
      "##_aio_context": 4283,
      "##ification": 4284,
      "bmds": 4285,
      "\"/": 4286,
      "cause": 4287,
      "dither": 4288,
      "jmp": 4289,
      "##nx": 4290,
      "##va": 4291,
      "##i8": 4292,
      "##bpp": 4293,
      "##_success": 4294,
      "##ally": 4295,
      "##_hds": 4296,
      "qemu_clock": 4297,
      "endian": 4298,
      "##olden": 4299,
      "been": 4300,
      "output_files": 4301,
      "packet_size": 4302,
      "0xfff": 4303,
      "iovec": 4304,
      "##_bus_device": 4305,
      "spapr_dr": 4306,
      "##_internal": 4307,
      "crm": 4308,
      "controller": 4309,
      "ebml": 4310,
      "v16i8": 4311,
      "##discard": 4312,
      "##_predictor": 4313,
      "sdram": 4314,
      "large": 4315,
      "enough": 4316,
      "c3": 4317,
      "csr": 4318,
      "hotplug": 4319,
      "push": 4320,
      "root": 4321,
      "uhci": 4322,
      "##nr": 4323,
      "##qp": 4324,
      "##dest": 4325,
      "##itions": 4326,
      "##peat": 4327,
      "##again": 4328,
      "##imum": 4329,
      "ff_j": 4330,
      "ff_thread": 4331,
      "qemufile": 4332,
      "unused": 4333,
      "##_sel": 4334,
      "check_insn": 4335,
      "powerpc_mmu": 4336,
      "0x7f": 4337,
      "fw_cfg_add": 4338,
      "mmu_idx": 4339,
      "##orbis": 4340,
      "gpio": 4341,
      "##_one": 4342,
      "##lic": 4343,
      "##tens": 4344,
      "##pre": 4345,
      "##_pm": 4346,
      "##idual": 4347,
      "codst": 4348,
      "ffserver": 4349,
      "mb_intra": 4350,
      "##_console": 4351,
      "compression": 4352,
      "##ibble": 4353,
      "##letion": 4354,
      "offs": 4355,
      "g_new0": 4356,
      "many": 4357,
      "uvalpha": 4358,
      "##mpeg4": 4359,
      "codsty": 4360,
      "again": 4361,
      "lba": 4362,
      "qapi": 4363,
      "##oi": 4364,
      "##_cabac": 4365,
      "##amily": 4366,
      "dead": 4367,
      "##_down": 4368,
      "target_to_host": 4369,
      "##_setprop": 4370,
      "##_ioctl": 4371,
      "skipped": 4372,
      "input_files": 4373,
      "##oke": 4374,
      "sys_bus_device": 4375,
      "##leted": 4376,
      "missing": 4377,
      "speed": 4378,
      "scaling": 4379,
      "protocol": 4380,
      "none": 4381,
      "tick": 4382,
      "x8": 4383,
      "##eger": 4384,
      "##_clk": 4385,
      "##lots": 4386,
      "##_writ": 4387,
      "qemu_co": 4388,
      "devfn": 4389,
      "new_block": 4390,
      "##_alg": 4391,
      "opc_b": 4392,
      "chrsrc": 4393,
      "fp1": 4394,
      "##_bytes_left": 4395,
      "bytestream2_get_bytes_left": 4396,
      "asf_st": 4397,
      "##orizont": 4398,
      "emp": 4399,
      "mux": 4400,
      "##eros": 4401,
      "##_tn": 4402,
      "##_sf": 4403,
      "##ront": 4404,
      "gener": 4405,
      "resync": 4406,
      "pcr": 4407,
      "init_vlc": 4408,
      "]],": 4409,
      "password": 4410,
      "prediction": 4411,
      "tcg_target_has": 4412,
      "##abilities": 4413,
      "master": 4414,
      "##sup": 4415,
      "##2yuv": 4416,
      "##_function": 4417,
      "int8_t": 4418,
      "##utation": 4419,
      "##_gp": 4420,
      "gen_jmp": 4421,
      "qemu_mutex": 4422,
      "avio_seek": 4423,
      "tempor": 4424,
      "raise": 4425,
      "ot_long": 4426,
      "##points": 4427,
      "avio_wl": 4428,
      "ff_put_vp8": 4429,
      "gen_set_label": 4430,
      "svq3": 4431,
      "sz": 4432,
      "av_rb32": 4433,
      "##_pi": 4434,
      "##_pop": 4435,
      "rel": 4436,
      "##_h_loop_filter": 4437,
      "src_y": 4438,
      "##_intr": 4439,
      "itask": 4440,
      "##_plx": 4441,
      "tcg_gen_mov_tl": 4442,
      "##_cleanup": 4443,
      "target_fmt_plx": 4444,
      "consumed": 4445,
      "26": 4446,
      "c5": 4447,
      "mant": 4448,
      "ports": 4449,
      "rp": 4450,
      "##uf": 4451,
      "##erent": 4452,
      "##r2": 4453,
      "##_po": 4454,
      "##_bd": 4455,
      "##_ri": 4456,
      "##_hand": 4457,
      "##print": 4458,
      "frame_num": 4459,
      "mem_idx": 4460,
      "sample_size": 4461,
      "opc2": 4462,
      "cluster_bits": 4463,
      "decor": 4464,
      "sysbus_mmio": 4465,
      "qdev_prop_set_uint": 4466,
      "##2d": 4467,
      "##hr": 4468,
      "##sector": 4469,
      "mbn": 4470,
      "dsth": 4471,
      "alac": 4472,
      "##_tables": 4473,
      "bdrv_co": 4474,
      "target_nr_f": 4475,
      "apply": 4476,
      "##_discard": 4477,
      "##_input_buffer": 4478,
      "##ynos": 4479,
      "different": 4480,
      "monitor_printf": 4481,
      "##tensa": 4482,
      "36": 4483,
      "qh": 4484,
      "rsp": 4485,
      "##800": 4486,
      "##))": 4487,
      "##aps": 4488,
      "exynos": 4489,
      "qemu_set": 4490,
      "place": 4491,
      "inputs": 4492,
      "qxl_io": 4493,
      "0x80000000": 4494,
      "packss": 4495,
      "ebx": 4496,
      "##_padding_size": 4497,
      "fall": 4498,
      "method": 4499,
      "wrap": 4500,
      "##uch": 4501,
      "##_ge": 4502,
      "pcibus": 4503,
      "be32_to_cpu": 4504,
      "host_to_target": 4505,
      "av_codec_id_pcm": 4506,
      "framerate": 4507,
      "empty": 4508,
      "bat": 4509,
      "ea": 4510,
      "nf": 4511,
      "nop": 4512,
      "##x8": 4513,
      "##nth": 4514,
      "int64": 4515,
      "##_hv": 4516,
      "src_size": 4517,
      "block_job": 4518,
      "##pcstate": 4519,
      "chardriverstate": 4520,
      "gen_op_mtc0": 4521,
      "##conv": 4522,
      "##_transform": 4523,
      "granularity": 4524,
      "ich": 4525,
      "##cfg": 4526,
      "##obj": 4527,
      "##hing": 4528,
      "##dm": 4529,
      "##r1": 4530,
      "cpu_ld": 4531,
      "uintptr_t": 4532,
      "##_proto": 4533,
      "interle": 4534,
      "without": 4535,
      "\"%\"": 4536,
      "vp56_frame": 4537,
      "##444p": 4538,
      "likely": 4539,
      "##_nofail": 4540,
      "nvme": 4541,
      "vmxnet": 4542,
      "##orizontal": 4543,
      "b8": 4544,
      "sregs": 4545,
      "tf": 4546,
      "##_fid": 4547,
      "##_mr": 4548,
      "##intr": 4549,
      "##_coef": 4550,
      "gen_new": 4551,
      "memcmp": 4552,
      "##ollow": 4553,
      "fdctrl": 4554,
      "##_elems": 4555,
      "opc1": 4556,
      "##_mapping": 4557,
      "enc_ctx": 4558,
      "crop": 4559,
      "dct_linesize": 4560,
      "cpu_fprintf": 4561,
      "gen_new_label": 4562,
      "eth": 4563,
      "s_addr": 4564,
      "xa": 4565,
      "##_il": 4566,
      "##copy": 4567,
      "##offset": 4568,
      "##_dsp": 4569,
      "##_vis": 4570,
      "exist": 4571,
      "argument": 4572,
      "##plate": 4573,
      "config_vnc": 4574,
      "quirk": 4575,
      "encrypt": 4576,
      "l2_offset": 4577,
      "##440": 4578,
      "nodes": 4579,
      "isa_mips": 4580,
      "byte_run": 4581,
      "rrr_s": 4582,
      "expected": 4583,
      "layout": 4584,
      "watch": 4585,
      "##cle": 4586,
      "##work": 4587,
      "##gn": 4588,
      "avcol": 4589,
      "##_fr": 4590,
      "restore": 4591,
      "##ells": 4592,
      "##_nv": 4593,
      "cow": 4594,
      "##_lsb": 4595,
      "##_object": 4596,
      "##ampling": 4597,
      "##_eax": 4598,
      "below": 4599,
      "move": 4600,
      "##quency": 4601,
      "spr_read": 4602,
      "usb_ret": 4603,
      "##4210": 4604,
      "lock_user_struct": 4605,
      "##_x86_64": 4606,
      ")-": 4607,
      "bi": 4608,
      "##wise": 4609,
      "##strc": 4610,
      "bswap": 4611,
      "secs": 4612,
      "##place": 4613,
      "pcms": 4614,
      "##_allow": 4615,
      "##streams": 4616,
      "##_header_size": 4617,
      "tables": 4618,
      "exynos4210": 4619,
      "ft": 4620,
      "lines": 4621,
      "pf": 4622,
      "pin": 4623,
      "##right": 4624,
      "stw": 4625,
      "sele": 4626,
      "num_insns": 4627,
      "##_uns": 4628,
      "##endian": 4629,
      "get_bits_left": 4630,
      "board": 4631,
      "cmdline": 4632,
      "##_maps": 4633,
      "low_delay": 4634,
      "##_cc_op": 4635,
      "##_plan": 4636,
      "rgba": 4637,
      "img_cb": 4638,
      "img_cr": 4639,
      "##_empty": 4640,
      "graphic": 4641,
      "planes": 4642,
      "css": 4643,
      "media": 4644,
      "av_pkt": 4645,
      "##_pp": 4646,
      "##_bottom": 4647,
      "encoder": 4648,
      "##esc": 4649,
      "qemu_free": 4650,
      "pcie": 4651,
      "optind": 4652,
      "hwdef": 4653,
      "##_channel_layout": 4654,
      "##_parameters": 4655,
      "##_edge_pos": 4656,
      "rrr_t": 4657,
      "serial_hds": 4658,
      "normal": 4659,
      "visit_type": 4660,
      "packssdw": 4661,
      "42": 4662,
      "ase": 4663,
      "unt": 4664,
      "zstream": 4665,
      "##:\"": 4666,
      "##//": 4667,
      "##_sar": 4668,
      "exc": 4669,
      "nb_input": 4670,
      "nothing": 4671,
      "spr_write": 4672,
      "mpeg4": 4673,
      "##serv": 4674,
      "vhdx": 4675,
      "##_descriptor": 4676,
      "4096": 4677,
      "stl_p": 4678,
      "avio_wb32": 4679,
      "cabac": 4680,
      "sess": 4681,
      "taddr": 4682,
      "vps": 4683,
      "xop": 4684,
      "xfer": 4685,
      "xinc": 4686,
      "##nut": 4687,
      "##lace": 4688,
      "##sz": 4689,
      "##u8": 4690,
      "##ke": 4691,
      "##ged": 4692,
      "##35": 4693,
      "##_rc": 4694,
      "chrom": 4695,
      "ff_vc1": 4696,
      "outpic": 4697,
      "nb_o": 4698,
      "##_frame_num": 4699,
      "next_picture": 4700,
      "##bufsize": 4701,
      "##_arith": 4702,
      "h264context": 4703,
      "##_40": 4704,
      "vmxnet3": 4705,
      "eagain": 4706,
      "glyph": 4707,
      "##_pb": 4708,
      "report": 4709,
      "##hex": 4710,
      "inbuf": 4711,
      "bs3": 4712,
      "##_search": 4713,
      "##_qscale": 4714,
      "probe": 4715,
      "put_user": 4716,
      "##connect": 4717,
      "dest_y": 4718,
      "##_trap": 4719,
      "bytestream2_skip": 4720,
      "vis1": 4721,
      "##vision": 4722,
      "##control": 4723,
      "session": 4724,
      "\".": 4725,
      "cred": 4726,
      "ecx": 4727,
      "json": 4728,
      "##ature": 4729,
      "##_try": 4730,
      "##_pict": 4731,
      "##_post": 4732,
      "##_bad": 4733,
      "repeat": 4734,
      "blockdriver": 4735,
      "pci_set": 4736,
      "])*": 4737,
      "subband": 4738,
      "noise": 4739,
      "##_or_goto": 4740,
      "action": 4741,
      "vectors": 4742,
      "error_setg_errno": 4743,
      "##nutls": 4744,
      "bmv": 4745,
      "uvm": 4746,
      "xtensa": 4747,
      "##vide": 4748,
      "##100": 4749,
      "##win": 4750,
      "##icast": 4751,
      "##_dim": 4752,
      "be64_to_cpu": 4753,
      "xmm1": 4754,
      "##_pred8x8": 4755,
      "\"(%": 4756,
      "##_qemu_st": 4757,
      "gen_op_mov_reg": 4758,
      "immediate": 4759,
      "bdrv_sector_bits": 4760,
      "even": 4761,
      "ibm": 4762,
      "##_input_buffer_padding_size": 4763,
      "\"\",": 4764,
      "dbd": 4765,
      "gd": 4766,
      "rnd": 4767,
      "##_p1": 4768,
      "##_merge": 4769,
      "##_reco": 4770,
      "##thing": 4771,
      "mmco": 4772,
      "src_x": 4773,
      "##scsi": 4774,
      "##_sen": 4775,
      "##_second": 4776,
      "pci_conf": 4777,
      "tcg_gen_trunc": 4778,
      "code_gen": 4779,
      "##_aligned": 4780,
      "vnc_auth": 4781,
      "ipv": 4782,
      "fs_ctx": 4783,
      "var_values": 4784,
      "verify_read": 4785,
      "##_bigendian": 4786,
      "cg": 4787,
      "frag": 4788,
      "vid": 4789,
      "##_total": 4790,
      "##enu": 4791,
      "deblock": 4792,
      "dequant": 4793,
      "##uess": 4794,
      "##_rnd": 4795,
      "##_lim": 4796,
      "alt": 4797,
      "##_ep": 4798,
      "clk": 4799,
      "tcg_gen_ld": 4800,
      "##_u32": 4801,
      "spr_register": 4802,
      "host_addr": 4803,
      "overlap": 4804,
      "0x8000": 4805,
      "##_mpeg2": 4806,
      "padding": 4807,
      "film": 4808,
      "##_present_flag": 4809,
      "vmdk": 4810,
      "qvirtio": 4811,
      "##urfaces": 4812,
      "luks": 4813,
      "png": 4814,
      "##va2": 4815,
      "##lers": 4816,
      "##audio": 4817,
      "##aded": 4818,
      "##_single": 4819,
      "##_push": 4820,
      "cpu_log": 4821,
      "##_vq": 4822,
      "##_vcpu": 4823,
      "##_logic": 4824,
      "pci_exp": 4825,
      "##_unmap": 4826,
      "compare": 4827,
      "0x07": 4828,
      "virtqueue": 4829,
      "disable": 4830,
      "disabled": 4831,
      "avpro": 4832,
      "gen_helper_neon": 4833,
      "##_compose": 4834,
      "##_profile": 4835,
      "requested": 4836,
      "mp3": 4837,
      "##_syscall": 4838,
      "pxor": 4839,
      "##_icount": 4840,
      "tcg_reg_r": 4841,
      "resync_mb": 4842,
      "sysbus_mmio_map": 4843,
      "#%": 4844,
      "60": 4845,
      "_s": 4846,
      "fun": 4847,
      "follow": 4848,
      "##table": 4849,
      "##urb": 4850,
      "is_jmp": 4851,
      "endptr": 4852,
      "##_auto": 4853,
      "##_se_golomb": 4854,
      "##erties": 4855,
      "##names": 4856,
      "tcg_gen_or": 4857,
      "setting": 4858,
      "avfmt": 4859,
      "##_names": 4860,
      "virtio_pci": 4861,
      "physical": 4862,
      "##dbg": 4863,
      "migrate": 4864,
      "verify_write": 4865,
      "##_wrn": 4866,
      "tcg_gen_addi_i32": 4867,
      "cid": 4868,
      "gnutls": 4869,
      "pstrc": 4870,
      "ty": 4871,
      "ve": 4872,
      "##l_t0": 4873,
      "##pad": 4874,
      "##750": 4875,
      "##??": 4876,
      "##ergy": 4877,
      "avdiscard": 4878,
      "insert": 4879,
      "##_reached": 4880,
      "##asses": 4881,
      "cpup": 4882,
      "##_vreg": 4883,
      "ff_i": 4884,
      "##_af": 4885,
      "movnt": 4886,
      "##_unimplemented": 4887,
      "buffers": 4888,
      "pic_conf": 4889,
      "##_disk": 4890,
      "##_progress": 4891,
      "##ppy": 4892,
      "crn": 4893,
      "##_overlap": 4894,
      "gen_store_fpr": 4895,
      "cpu_gpr_d": 4896,
      "ignored": 4897,
      "cpu_v0": 4898,
      "]\"": 4899,
      "cre": 4900,
      "fat": 4901,
      "fop": 4902,
      "lsi": 4903,
      "nip": 4904,
      "qbus": 4905,
      "rice": 4906,
      "slow": 4907,
      "##duct": 4908,
      "##orrect": 4909,
      "av_ch": 4910,
      "av_rl16": 4911,
      "##_sd": 4912,
      "##_pad": 4913,
      "##ults": 4914,
      "##ub_code": 4915,
      "nb_channels": 4916,
      "vsrc": 4917,
      "##_uv": 4918,
      "pl1": 4919,
      "content": 4920,
      "page_size": 4921,
      "tcg_gen_movi_i32": 4922,
      "tcg_gen_movi_tl": 4923,
      "delayed": 4924,
      "/=": 4925,
      "its": 4926,
      "qdec": 4927,
      "t3": 4928,
      "ud": 4929,
      "##save": 4930,
      "##ito": 4931,
      "##_medi": 4932,
      "##oti": 4933,
      "##ason": 4934,
      "cpu_x86": 4935,
      "ff_h263": 4936,
      "##_half": 4937,
      "srcslice": 4938,
      "frame_number": 4939,
      "swr": 4940,
      "##plane": 4941,
      "aspect": 4942,
      "avio_printf": 4943,
      "##_altivec": 4944,
      "##_extension": 4945,
      "##_compare": 4946,
      "##position": 4947,
      "tswap32": 4948,
      "av_sample_fmt_flt": 4949,
      "scaler": 4950,
      "peer": 4951,
      "psrlq": 4952,
      "spr_read_generic": 4953,
      "qdecref": 4954,
      "c7": 4955,
      "cand": 4956,
      "fi": 4957,
      "mix": 4958,
      "xor": 4959,
      "##dimm": 4960,
      "##sec": 4961,
      "##onic": 4962,
      "##_pu": 4963,
      "##_binfo": 4964,
      "##_dv": 4965,
      "##umb": 4966,
      "##_hy": 4967,
      "target_sparc": 4968,
      "##_hevc": 4969,
      "##match": 4970,
      "bdrv_block": 4971,
      "tcg_gen_qemu_ld": 4972,
      "##ields": 4973,
      "float64": 4974,
      "fprintf_func": 4975,
      "chroma_format": 4976,
      "##_cbp": 4977,
      "scsi_req": 4978,
      "vari": 4979,
      "exponent": 4980,
      "log2_prec": 4981,
      "##_32_64": 4982,
      "##ween": 4983,
      "##_system_memory": 4984,
      "dbdma": 4985,
      "cpuppcstate": 4986,
      "farg": 4987,
      "merge": 4988,
      "ring": 4989,
      "vio": 4990,
      "##elem": 4991,
      "##etype": 4992,
      "enot": 4993,
      "buff": 4994,
      "##dexec": 4995,
      "##_hi": 4996,
      "##_huff": 4997,
      "strt": 4998,
      "##_changed": 4999,
      "##_unpack": 5000,
      "avio_read": 5001,
      "last_non": 5002,
      "##_begin": 5003,
      "sdhc": 5004,
      "syn": 5005,
      "##_zeroes": 5006,
      "\"(*": 5007,
      "sysbus_connect": 5008,
      "thread_count": 5009,
      "##_resample": 5010,
      "phase": 5011,
      "##_permutation": 5012,
      "av_time_base_q": 5013,
      "outpicref": 5014,
      "sysbus_connect_irq": 5015,
      "giv": 5016,
      "##ied": 5017,
      "##ntax": 5018,
      "##_cpl": 5019,
      "##_surface": 5020,
      "##_mpu": 5021,
      "##ionary": 5022,
      "##_reply": 5023,
      "##ues": 5024,
      "##_rv": 5025,
      "##_ring": 5026,
      "##come": 5027,
      "##_lookup": 5028,
      "##ampler": 5029,
      "offset_addr": 5030,
      "blkdbg": 5031,
      "##tered": 5032,
      "##_extr": 5033,
      "formatconv": 5034,
      "vnc_write": 5035,
      "mpeg2": 5036,
      "tcg_out32": 5037,
      "idct_put": 5038,
      "smbios": 5039,
      "v16u8": 5040,
      "##3d11": 5041,
      "##allel": 5042,
      "formatconvbuffer": 5043,
      "did": 5044,
      "every": 5045,
      "gsi": 5046,
      "hdev": 5047,
      "##sion": 5048,
      "##side": 5049,
      "##dct": 5050,
      "##_text": 5051,
      "##_pe": 5052,
      "int128": 5053,
      "##_mac": 5054,
      "##_magic": 5055,
      "##_v_loop_filter": 5056,
      "##_vertical": 5057,
      "get_field": 5058,
      "##_ready": 5059,
      "prom": 5060,
      "qdev_create": 5061,
      "##_disable": 5062,
      "nvenc": 5063,
      "##_draw": 5064,
      "##pendent": 5065,
      "execute": 5066,
      "##--------": 5067,
      "between": 5068,
      "##_raise": 5069,
      "##pixel": 5070,
      "##_vendor_id": 5071,
      "\":": 5072,
      "00": 5073,
      "kv": 5074,
      "know": 5075,
      "ow": 5076,
      "sof": 5077,
      "soft": 5078,
      "##og": 5079,
      "##31": 5080,
      "##cts": 5081,
      "##_mark": 5082,
      "incl": 5083,
      "colo": 5084,
      ")),": 5085,
      "stats": 5086,
      "dstblock": 5087,
      "pci_device": 5088,
      "io_mem": 5089,
      "##mbol": 5090,
      "##_org": 5091,
      "##formation": 5092,
      "dpy": 5093,
      "cpu_to_le32": 5094,
      "property": 5095,
      "paddw": 5096,
      "tcg_cond_eq": 5097,
      "g_strdup_printf": 5098,
      "##259": 5099,
      "##decodecontext": 5100,
      "04": 5101,
      "1ull": 5102,
      "hist": 5103,
      "lc": 5104,
      "mangle": 5105,
      "nand": 5106,
      "ok": 5107,
      "pq": 5108,
      "##4000": 5109,
      "##zag": 5110,
      "##ination": 5111,
      "##_tm": 5112,
      "##_sz": 5113,
      "rest": 5114,
      "##igzag": 5115,
      "##_dprintf": 5116,
      "chapter": 5117,
      "buflen": 5118,
      "mmio": 5119,
      "qemu_aio": 5120,
      "##_data_size": 5121,
      "buffer_size": 5122,
      "##_alias": 5123,
      "##uvid": 5124,
      "##ording": 5125,
      "position": 5126,
      "have_mmx": 5127,
      "access_type": 5128,
      "rlim": 5129,
      "##_timestamp": 5130,
      "secure": 5131,
      "gen_jmp_im": 5132,
      "until": 5133,
      "enotsup": 5134,
      "???": 5135,
      "vui": 5136,
      "ws": 5137,
      "x0": 5138,
      "##pol": 5139,
      "##wb": 5140,
      "##bsock": 5141,
      "##_mix": 5142,
      "##_sts": 5143,
      "##32u": 5144,
      "buf_index": 5145,
      "##_opaque": 5146,
      "##16s": 5147,
      "##16u": 5148,
      "notifier": 5149,
      "bdrvq": 5150,
      "rtmp": 5151,
      "reading": 5152,
      "old_act": 5153,
      "##_dc_scale": 5154,
      "'):": 5155,
      "##_chunks": 5156,
      "av_realloc": 5157,
      "filtered": 5158,
      "##armstate": 5159,
      "##_attach": 5160,
      "g_io": 5161,
      "later": 5162,
      "mpc": 5163,
      "rri": 5164,
      "##fid": 5165,
      "##_5": 5166,
      "##nector": 5167,
      "##late": 5168,
      "##pv": 5169,
      "##-+": 5170,
      "##orage": 5171,
      "##_ce": 5172,
      "##_wh": 5173,
      "##istate": 5174,
      "arith": 5175,
      "get_byte": 5176,
      "max_insns": 5177,
      "ref_list": 5178,
      "least": 5179,
      "current_frame": 5180,
      "uses": 5181,
      "0x30": 5182,
      "##_allocate": 5183,
      "pict_frame": 5184,
      "##_probe": 5185,
      "initrd_base": 5186,
      "g_assert_cmphex": 5187,
      "ivi": 5188,
      "singlestep": 5189,
      "atomic": 5190,
      "array_size": 5191,
      "non_zero_count_cache": 5192,
      "movntq": 5193,
      ":\",": 5194,
      "^=": 5195,
      "che": 5196,
      "ti": 5197,
      "##\\\"": 5198,
      "##++": 5199,
      "##se3": 5200,
      "##_sb": 5201,
      "##_side_data": 5202,
      "rets": 5203,
      "##andard": 5204,
      "mb_pos": 5205,
      "swap": 5206,
      "##_codes": 5207,
      "##_put_bits": 5208,
      "##_stats": 5209,
      "##_static": 5210,
      "##aves": 5211,
      "##_than": 5212,
      "allocation": 5213,
      "##_fdt": 5214,
      "reg_bp": 5215,
      "av_opt_type": 5216,
      "dh": 5217,
      "jump": 5218,
      "mch": 5219,
      "tl": 5220,
      "ut": 5221,
      "vendor": 5222,
      "##phys": 5223,
      "##ead": 5224,
      "##just": 5225,
      "av_q": 5226,
      "##_pid": 5227,
      "##_beta": 5228,
      "##utdown": 5229,
      "cpuarmstate": 5230,
      "elbg": 5231,
      "target_ppc": 5232,
      "qemuiov": 5233,
      "##scan": 5234,
      "new_msr": 5235,
      "csock": 5236,
      "xmm4": 5237,
      "##_parser": 5238,
      "qtd": 5239,
      "required": 5240,
      "lp2": 5241,
      "indic": 5242,
      "cpu_register_physical_memory": 5243,
      "qdev_init_nofail": 5244,
      "##amplerate": 5245,
      "qemuiovector": 5246,
      "'\",": 5247,
      "r3": 5248,
      "vertical": 5249,
      "way": 5250,
      "##sure": 5251,
      "##e0": 5252,
      "##_tis": 5253,
      "##_spl": 5254,
      "##_mp": 5255,
      "tok": 5256,
      "framep": 5257,
      "start_addr": 5258,
      "##_new_stream": 5259,
      "pixel_count": 5260,
      "bios_name": 5261,
      "avfilterlink": 5262,
      "##_mpeg1": 5263,
      "av_sample_fmt_s16": 5264,
      "##ternate": 5265,
      "like": 5266,
      "selector": 5267,
      "bmap": 5268,
      "cd": 5269,
      "es": 5270,
      "lx": 5271,
      "lr": 5272,
      "lfe": 5273,
      "qmat": 5274,
      "qpel": 5275,
      "title": 5276,
      "##c3": 5277,
      "##hb": 5278,
      "##i16": 5279,
      "inv": 5280,
      "##_incr": 5281,
      "##ility": 5282,
      "##_delete": 5283,
      "ff_vp": 5284,
      "##sconf": 5285,
      "##_mem_size": 5286,
      "##conf": 5287,
      "input_streams": 5288,
      "vdi": 5289,
      "times": 5290,
      "svga": 5291,
      "otherwise": 5292,
      "##proc": 5293,
      "adpcm_ima": 5294,
      "dirac_std": 5295,
      "instead": 5296,
      "av_q2d": 5297,
      "/(": 5298,
      "bnd": 5299,
      "layer": 5300,
      "raddr": 5301,
      "tight": 5302,
      "uid": 5303,
      "yalpha": 5304,
      "##cation": 5305,
      "##23": 5306,
      "##_td": 5307,
      "##_cop": 5308,
      "##here": 5309,
      "##_nic": 5310,
      "##_nibble": 5311,
      "get_se_golomb": 5312,
      "##16_to": 5313,
      "tmp3": 5314,
      "##mms": 5315,
      "scsid": 5316,
      "##_stream_index": 5317,
      "armv": 5318,
      "uvsrc": 5319,
      "##_fd_handler": 5320,
      "##_offs": 5321,
      "##_31": 5322,
      "v9fs_string": 5323,
      "rrr_r": 5324,
      "tcg_cond_ne": 5325,
      "keep": 5326,
      "tpm_tis": 5327,
      "scsidisk": 5328,
      "29": 5329,
      "dynamic": 5330,
      "e2": 5331,
      "fetch": 5332,
      "sco": 5333,
      "side": 5334,
      "wv": 5335,
      "##_er": 5336,
      "##14": 5337,
      "##eps": 5338,
      "##gen": 5339,
      "##76": 5340,
      "##_tt": 5341,
      "##lend": 5342,
      "##leep": 5343,
      "##_f0": 5344,
      "##_bios": 5345,
      "##elcome": 5346,
      "##_l0": 5347,
      "##_lea": 5348,
      "threshold": 5349,
      "gen_helper_mtc0": 5350,
      "ptrdiff": 5351,
      "extension": 5352,
      "##dictionary": 5353,
      "##pectr": 5354,
      "avfiltercontext": 5355,
      "cleanup": 5356,
      "got_frame_ptr": 5357,
      "mdct": 5358,
      "transport": 5359,
      "geot": 5360,
      "ci": 5361,
      "card": 5362,
      "sx": 5363,
      "##vr": 5364,
      "##ture": 5365,
      "##ude": 5366,
      "changed": 5367,
      "isn": 5368,
      "##enter": 5369,
      "loss": 5370,
      "reg_addr": 5371,
      "cur_lp": 5372,
      "##_table_size": 5373,
      "do_fault": 5374,
      "##_to_q": 5375,
      "mvd": 5376,
      "##output": 5377,
      "put_be32": 5378,
      "register_hwaccel": 5379,
      "assume": 5380,
      "arm_cpu": 5381,
      "##board": 5382,
      "requests": 5383,
      "##_4g": 5384,
      "specific": 5385,
      "##_rdwr": 5386,
      "written": 5387,
      "##_savevm": 5388,
      "heads": 5389,
      "tcg_gen_andi_tl": 5390,
      "fbdev": 5391,
      "v8i16": 5392,
      "##_pool": 5393,
      "27": 5394,
      "]>>": 5395,
      "dpp": 5396,
      "iops": 5397,
      "mid": 5398,
      "ori": 5399,
      "rot": 5400,
      "x264": 5401,
      "##cache": 5402,
      "##high": 5403,
      "##xattr": 5404,
      "##rle": 5405,
      "##_tail": 5406,
      "##_fc": 5407,
      "##_menu": 5408,
      "theor": 5409,
      "srch": 5410,
      "##_frame_size": 5411,
      "notify": 5412,
      "##_disas": 5413,
      "exit_program": 5414,
      "strchr": 5415,
      "period": 5416,
      "bytestream2_get_le16": 5417,
      ")],": 5418,
      "av_pix_fmt_yuv420p": 5419,
      "connection": 5420,
      "!!(": 5421,
      "frequency": 5422,
      "##_template": 5423,
      "pstrcpy": 5424,
      "evt": 5425,
      "pde": 5426,
      "sem": 5427,
      "##ton": 5428,
      "##ted": 5429,
      "##au": 5430,
      "##cty": 5431,
      "##_inv": 5432,
      "ffalign": 5433,
      "data_len": 5434,
      "##_set_pts": 5435,
      "##_reg_bits": 5436,
      "nb_frames": 5437,
      "num_bands": 5438,
      "virtiodevice": 5439,
      "##_io_memory": 5440,
      "##_flash": 5441,
      "line_size": 5442,
      "##_avx": 5443,
      "##_avg": 5444,
      "pte1": 5445,
      "qtailq_foreach": 5446,
      "tcg_gen_shri": 5447,
      "i8259": 5448,
      "obt": 5449,
      "##_set_pts_info": 5450,
      "bstate": 5451,
      "cvt": 5452,
      "emms": 5453,
      "fpu": 5454,
      "lambda": 5455,
      "meta": 5456,
      "##iop": 5457,
      "avdictionary": 5458,
      "##_power": 5459,
      "coefs": 5460,
      "##_va": 5461,
      "is_le": 5462,
      "av_log_fatal": 5463,
      "gen_lea": 5464,
      "##_hflag": 5465,
      "##_devs": 5466,
      "objectclass": 5467,
      "##ckets": 5468,
      "##_armv": 5469,
      "colorspace": 5470,
      "v9f": 5471,
      "mips_hflag": 5472,
      "'))": 5473,
      "##_booke": 5474,
      "nd_table": 5475,
      "sectors_per": 5476,
      "super": 5477,
      "wrong": 5478,
      "calculate": 5479,
      "qemu_mallocz": 5480,
      "spr_write_generic": 5481,
      "##_extradata": 5482,
      "ptrdiff_t": 5483,
      "1000000": 5484,
      "cflags": 5485,
      "let": 5486,
      "npc": 5487,
      "##88": 5488,
      "##97": 5489,
      "##52": 5490,
      "av_buffer": 5491,
      "reject": 5492,
      "##_inline": 5493,
      "##_dynamic": 5494,
      "##_r8": 5495,
      "##ac3": 5496,
      "##coming": 5497,
      "##version": 5498
    }
  }
}