{
  "version": "1.0",
  "truncation": null,
  "padding": null,
  "added_tokens": [
    {
      "id": 0,
      "content": "<s>",
      "single_word": false,
      "lstrip": false,
      "rstrip": false,
      "normalized": false,
      "special": true
    },
    {
      "id": 1,
      "content": "<pad>",
      "single_word": false,
      "lstrip": false,
      "rstrip": false,
      "normalized": false,
      "special": true
    },
    {
      "id": 2,
      "content": "</s>",
      "single_word": false,
      "lstrip": false,
      "rstrip": false,
      "normalized": false,
      "special": true
    },
    {
      "id": 3,
      "content": "<unk>",
      "single_word": false,
      "lstrip": false,
      "rstrip": false,
      "normalized": false,
      "special": true
    }
  ],
  "normalizer": {
    "type": "Sequence",
    "normalizers": [
      {
        "type": "Lowercase"
      },
      {
        "type": "NFKD"
      },
      {
        "type": "Strip",
        "strip_left": true,
        "strip_right": true
      },
      {
        "type": "StripAccents"
      }
    ]
  },
  "pre_tokenizer": {
    "type": "Whitespace"
  },
  "post_processor": null,
  "decoder": {
    "type": "WordPiece",
    "prefix": "##",
    "cleanup": true
  },
  "model": {
    "type": "WordPiece",
    "unk_token": "[UNK]",
    "continuing_subword_prefix": "##",
    "max_input_chars_per_word": 100,
    "vocab": {
      "<s>": 0,
      "<pad>": 1,
      "</s>": 2,
      "<unk>": 3,
      "!": 4,
      "\"": 5,
      "#": 6,
      "$": 7,
      "%": 8,
      "&": 9,
      "'": 10,
      "(": 11,
      ")": 12,
      "*": 13,
      "+": 14,
      ",": 15,
      "-": 16,
      ".": 17,
      "/": 18,
      "0": 19,
      "1": 20,
      "2": 21,
      "3": 22,
      "4": 23,
      "5": 24,
      "6": 25,
      "7": 26,
      "8": 27,
      "9": 28,
      ":": 29,
      ";": 30,
      "<": 31,
      "=": 32,
      ">": 33,
      "?": 34,
      "@": 35,
      "[": 36,
      "\\": 37,
      "]": 38,
      "^": 39,
      "_": 40,
      "`": 41,
      "a": 42,
      "b": 43,
      "c": 44,
      "d": 45,
      "e": 46,
      "f": 47,
      "g": 48,
      "h": 49,
      "i": 50,
      "j": 51,
      "k": 52,
      "l": 53,
      "m": 54,
      "n": 55,
      "o": 56,
      "p": 57,
      "q": 58,
      "r": 59,
      "s": 60,
      "t": 61,
      "u": 62,
      "v": 63,
      "w": 64,
      "x": 65,
      "y": 66,
      "z": 67,
      "{": 68,
      "|": 69,
      "}": 70,
      "~": 71,
      "##l": 72,
      "##o": 73,
      "##c": 74,
      "##k": 75,
      "##_": 76,
      "##j": 77,
      "##b": 78,
      "##d": 79,
      "##e": 80,
      "##t": 81,
      "##a": 82,
      "##h": 83,
      "##i": 84,
      "##n": 85,
      "##x": 86,
      "##r": 87,
      "##7": 88,
      "##8": 89,
      "##1": 90,
      "##6": 91,
      "##s": 92,
      "##u": 93,
      "##f": 94,
      "##0": 95,
      "##p": 96,
      "##g": 97,
      "##q": 98,
      "##y": 99,
      "##m": 100,
      "##2": 101,
      "##<": 102,
      "##?": 103,
      "##v": 104,
      "##4": 105,
      "##w": 106,
      "##5": 107,
      "##9": 108,
      "##z": 109,
      "##3": 110,
      "##=": 111,
      "##%": 112,
      "##\"": 113,
      "##(": 114,
      "##)": 115,
      "##;": 116,
      "##,": 117,
      "##-": 118,
      "##[": 119,
      "##*": 120,
      "##/": 121,
      "##!": 122,
      "##'": 123,
      "##]": 124,
      "##{": 125,
      "##}": 126,
      "##>": 127,
      "##\\": 128,
      "##.": 129,
      "##:": 130,
      "##+": 131,
      "##@": 132,
      "##$": 133,
      "##^": 134,
      "##~": 135,
      "##|": 136,
      "###": 137,
      "##&": 138,
      "->": 139,
      "##et": 140,
      "##re": 141,
      "##nt": 142,
      ");": 143,
      "##er": 144,
      "##st": 145,
      "##at": 146,
      "##de": 147,
      "##or": 148,
      "##in": 149,
      "if": 150,
      "##se": 151,
      "##_t": 152,
      "##le": 153,
      "##on": 154,
      "av": 155,
      "##_c": 156,
      "##_s": 157,
      "##am": 158,
      "##ct": 159,
      "##it": 160,
      "##_p": 161,
      "##al": 162,
      "##_f": 163,
      "##lo": 164,
      "##ar": 165,
      "##en": 166,
      "##iz": 167,
      "##ize": 168,
      "st": 169,
      "##_b": 170,
      "ret": 171,
      "##ad": 172,
      "##id": 173,
      "int": 174,
      "##_m": 175,
      "##ck": 176,
      "##ff": 177,
      "##ur": 178,
      "##ode": 179,
      "##an": 180,
      "/*": 181,
      "##ic": 182,
      "*/": 183,
      "re": 184,
      "##ut": 185,
      "##ase": 186,
      "##he": 187,
      "##);": 188,
      "##em": 189,
      "##int": 190,
      "##pe": 191,
      "##ame": 192,
      "##ot": 193,
      "in": 194,
      "##ate": 195,
      "##ul": 196,
      "de": 197,
      "##ig": 198,
      "##op": 199,
      "##ag": 200,
      "##00": 201,
      "case": 202,
      "##ion": 203,
      "##urn": 204,
      "##mp": 205,
      "return": 206,
      "##el": 207,
      "##_re": 208,
      "en": 209,
      "##dr": 210,
      "##pu": 211,
      "##_in": 212,
      "##as": 213,
      "0x": 214,
      "##_n": 215,
      "##ex": 216,
      "##ed": 217,
      "##io": 218,
      "##_g": 219,
      "##_st": 220,
      "##_size": 221,
      "##ak": 222,
      "==": 223,
      "##ata": 224,
      "##ue": 225,
      "##_d": 226,
      "bu": 227,
      "##reak": 228,
      "##32": 229,
      "break": 230,
      "##es": 231,
      "##ab": 232,
      "##_r": 233,
      "##ac": 234,
      "cpu": 235,
      "##ror": 236,
      "##il": 237,
      "el": 238,
      "##ing": 239,
      "ch": 240,
      "size": 241,
      "##lock": 242,
      "##ype": 243,
      "##co": 244,
      "(&": 245,
      "for": 246,
      "##ap": 247,
      "##rame": 248,
      "else": 249,
      "##set": 250,
      "##_lo": 251,
      "##ext": 252,
      "co": 253,
      "##_i": 254,
      "op": 255,
      "\",": 256,
      "##64": 257,
      "##ro": 258,
      "##_v": 259,
      "##um": 260,
      "##ile": 261,
      "##ctx": 262,
      "##rc": 263,
      "##ix": 264,
      "er": 265,
      "))": 266,
      "++": 267,
      "##un": 268,
      "##us": 269,
      "##odec": 270,
      "con": 271,
      "the": 272,
      "tc": 273,
      "avctx": 274,
      "uint": 275,
      "##tr": 276,
      "##_l": 277,
      "##ri": 278,
      "is": 279,
      "##_log": 280,
      "buf": 281,
      "##_de": 282,
      "##ull": 283,
      "##_co": 284,
      "##_o": 285,
      "##arg": 286,
      "##_w": 287,
      "##ack": 288,
      "##if": 289,
      "##lag": 290,
      "##tx": 291,
      "##im": 292,
      "];": 293,
      "##ist": 294,
      "##ent": 295,
      "##is": 296,
      "##ffset": 297,
      "tcg": 298,
      "##th": 299,
      "##ir": 300,
      "ar": 301,
      "stat": 302,
      "##able": 303,
      "av_log": 304,
      "##_type": 305,
      "##its": 306,
      "(!": 307,
      "##ream": 308,
      "&&": 309,
      "null": 310,
      "##ch": 311,
      "gen": 312,
      "##_op": 313,
      "##_id": 314,
      "##dex": 315,
      "##arget": 316,
      "ff": 317,
      "get": 318,
      "##emu": 319,
      "][": 320,
      "codec": 321,
      "##ts": 322,
      "env": 323,
      "##ict": 324,
      "vo": 325,
      "ad": 326,
      "mm": 327,
      "ex": 328,
      "lo": 329,
      "##_get": 330,
      "##16": 331,
      "##error": 332,
      "##_h": 333,
      "%%": 334,
      "data": 335,
      "##up": 336,
      "ctx": 337,
      "##of": 338,
      "],": 339,
      "##_ad": 340,
      "##and": 341,
      "target": 342,
      "##ect": 343,
      "##pr": 344,
      "##ci": 345,
      "##oto": 346,
      "src": 347,
      "##ure": 348,
      "##ax": 349,
      "##amp": 350,
      "static": 351,
      "##ov": 352,
      "mb": 353,
      "qemu": 354,
      "to": 355,
      "((": 356,
      "void": 357,
      "##ntext": 358,
      "##unt": 359,
      "));": 360,
      "arg": 361,
      "##ice": 362,
      "++)": 363,
      "##art": 364,
      "##_en": 365,
      "block": 366,
      "##ss": 367,
      "),": 368,
      "val": 369,
      "un": 370,
      "const": 371,
      "goto": 372,
      "!=": 373,
      "reg": 374,
      "##ort": 375,
      "\");": 376,
      "out": 377,
      "##ample": 378,
      "##ce": 379,
      "tmp": 380,
      "##ign": 381,
      "##fo": 382,
      "##_bits": 383,
      "##ter": 384,
      "##_le": 385,
      "##igh": 386,
      "frame": 387,
      "##_set": 388,
      "##yt": 389,
      "dev": 390,
      "##lags": 391,
      "##ffer": 392,
      "mem": 393,
      "pb": 394,
      ">>": 395,
      "##ub": 396,
      "##ps": 397,
      "##ay": 398,
      "end": 399,
      "he": 400,
      "##ow": 401,
      "##ve": 402,
      "bs": 403,
      "+=": 404,
      "gb": 405,
      "err": 406,
      "<<": 407,
      "##code": 408,
      "error": 409,
      "##_reg": 410,
      "//": 411,
      "##rit": 412,
      "sizeof": 413,
      "##mt": 414,
      "||": 415,
      "##_a": 416,
      "##_bu": 417,
      "].": 418,
      "##context": 419,
      "##val": 420,
      "##state": 421,
      "th": 422,
      "##ask": 423,
      "##nel": 424,
      "dst": 425,
      "##sc": 426,
      "##err": 427,
      "##ult": 428,
      "##ight": 429,
      "##ree": 430,
      "nb": 431,
      "##put": 432,
      "##kt": 433,
      "##_se": 434,
      "##que": 435,
      "##_frame": 436,
      "##ine": 437,
      "##dev": 438,
      "##_he": 439,
      "##mm": 440,
      "tr": 441,
      "##ert": 442,
      "offset": 443,
      "len": 444,
      "##rite": 445,
      "##idth": 446,
      "##_index": 447,
      "al": 448,
      "##mat": 449,
      "##bu": 450,
      "str": 451,
      "cur": 452,
      "(\"": 453,
      "##pc": 454,
      "##loc": 455,
      "##ew": 456,
      "##ilter": 457,
      "sc": 458,
      "##8_t": 459,
      "##_x": 460,
      "def": 461,
      "##ast": 462,
      "##os": 463,
      "##_init": 464,
      "char": 465,
      "##ma": 466,
      "##age": 467,
      "##ip": 468,
      "##acket": 469,
      "##est": 470,
      "16": 471,
      "##_fmt": 472,
      "uint8_t": 473,
      "##ver": 474,
      "##ation": 475,
      "##ader": 476,
      "##_error": 477,
      "##intf": 478,
      "##ail": 479,
      "addr": 480,
      "##_free": 481,
      "##red": 482,
      "##_ch": 483,
      "##_ptr": 484,
      "##ass": 485,
      "dc": 486,
      "##_offset": 487,
      "pix": 488,
      "##_q": 489,
      "pci": 490,
      "##32_t": 491,
      "se": 492,
      "##sp": 493,
      "##_data": 494,
      "##0000": 495,
      "num": 496,
      "##ol": 497,
      "##icture": 498,
      "##_table": 499,
      "##annel": 500,
      "##64_t": 501,
      "fd": 502,
      "##_gen": 503,
      "sw": 504,
      "##_int": 505,
      "##ime": 506,
      "##pl": 507,
      "##_count": 508,
      "do": 509,
      "##nd": 510,
      "##ys": 511,
      "##uct": 512,
      "not": 513,
      "##ory": 514,
      "##ault": 515,
      "##_read": 516,
      "##pt": 517,
      "##_y": 518,
      "##_addr": 519,
      "##_con": 520,
      "id": 521,
      "sh": 522,
      "byt": 523,
      "##name": 524,
      "]);": 525,
      "max": 526,
      "##nc": 527,
      "file": 528,
      "pr": 529,
      "();": 530,
      "##drv": 531,
      "flags": 532,
      "ac": 533,
      "##alloc": 534,
      "##om": 535,
      "##ust": 536,
      "##ge": 537,
      "##emp": 538,
      "##irt": 539,
      "endif": 540,
      "sample": 541,
      "##_len": 542,
      "bdrv": 543,
      "##_str": 544,
      "we": 545,
      "##_e": 546,
      "##md": 547,
      "##ers": 548,
      "##ry": 549,
      "type": 550,
      "stream": 551,
      "be": 552,
      "ref": 553,
      "##ride": 554,
      "##bj": 555,
      "##ide": 556,
      "res": 557,
      "cl": 558,
      "##igned": 559,
      "##sn": 560,
      "##heck": 561,
      "##_base": 562,
      "of": 563,
      "tcg_gen": 564,
      "##000": 565,
      "le": 566,
      "##ines": 567,
      "##_add": 568,
      "##ly": 569,
      "##ost": 570,
      "sl": 571,
      "##rent": 572,
      "##ong": 573,
      "pkt": 574,
      "wh": 575,
      "##ace": 576,
      "##_write": 577,
      "##fig": 578,
      "##ud": 579,
      "##ress": 580,
      "##ector": 581,
      "##printf": 582,
      "index": 583,
      "##der": 584,
      "##ormat": 585,
      "##no": 586,
      "##ister": 587,
      "mov": 588,
      "pc": 589,
      "*)": 590,
      "##rq": 591,
      "averror": 592,
      "##_i32": 593,
      "width": 594,
      "##cp": 595,
      "value": 596,
      "])": 597,
      "as": 598,
      "##_buffer": 599,
      "##itch": 600,
      "uint32_t": 601,
      "##inesize": 602,
      "##_cpu": 603,
      "##_num": 604,
      "on": 605,
      "##vel": 606,
      "pre": 607,
      "##_ex": 608,
      "uns": 609,
      "##lk": 610,
      "av_log_error": 611,
      "##port": 612,
      ">=": 613,
      "##_block": 614,
      "##valid": 615,
      "bit": 616,
      "##ale": 617,
      "##_to": 618,
      "mv": 619,
      "##ctor": 620,
      "so": 621,
      "set": 622,
      "##_mask": 623,
      "##_pr": 624,
      "##ift": 625,
      "##ment": 626,
      "##_pix": 627,
      "start": 628,
      "##peg": 629,
      "next": 630,
      "##si": 631,
      "##_un": 632,
      "##_out": 633,
      "comp": 634,
      "##size": 635,
      "##aram": 636,
      "##ind": 637,
      "##udio": 638,
      "avio": 639,
      "##ache": 640,
      "code": 641,
      "struct": 642,
      "switch": 643,
      "##addr": 644,
      "##def": 645,
      "##ore": 646,
      "##end": 647,
      "##_us": 648,
      "unsigned": 649,
      "init": 650,
      "##ave": 651,
      "##map": 652,
      "last": 653,
      "##ra": 654,
      "name": 655,
      "us": 656,
      "0x0": 657,
      "0x1": 658,
      "add": 659,
      "##_cl": 660,
      "##ess": 661,
      "##ideo": 662,
      "##_file": 663,
      "##_err": 664,
      "and": 665,
      "default": 666,
      "##ant": 667,
      "pro": 668,
      "##out": 669,
      "##read": 670,
      "height": 671,
      "##ey": 672,
      "sub": 673,
      "rt": 674,
      "##_flag": 675,
      "memory": 676,
      "##_dev": 677,
      "channel": 678,
      "##_start": 679,
      "##_picture": 680,
      "##_code": 681,
      "fail": 682,
      "##eld": 683,
      "obj": 684,
      "##kip": 685,
      "##reg": 686,
      "##ield": 687,
      "buffer": 688,
      "##riv": 689,
      "get_bits": 690,
      "sp": 691,
      "){": 692,
      "##aque": 693,
      "errp": 694,
      "##ith": 695,
      "put": 696,
      "vs": 697,
      "##ec": 698,
      "avf": 699,
      "##_user": 700,
      "|=": 701,
      "read": 702,
      "##_sh": 703,
      "##_max": 704,
      "check": 705,
      "header": 706,
      "##per": 707,
      "virt": 708,
      "tb": 709,
      "##_val": 710,
      "##vm": 711,
      "new": 712,
      "(*": 713,
      "opt": 714,
      "dis": 715,
      "##_u": 716,
      "opaque": 717,
      "##_mem": 718,
      "12": 719,
      "##_new": 720,
      "insn": 721,
      "pl": 722,
      "##sr": 723,
      "##_end": 724,
      "++;": 725,
      "info": 726,
      "##_al": 727,
      "##gth": 728,
      "bo": 729,
      "##_io": 730,
      "rd": 731,
      "##_sample": 732,
      "##ive": 733,
      "current": 734,
      "##ffff": 735,
      "##bug": 736,
      "tcg_t": 737,
      "cont": 738,
      "register": 739,
      "##_nr": 740,
      "##ions": 741,
      "config": 742,
      "##_state": 743,
      "io": 744,
      "##_mode": 745,
      "it": 746,
      "##_packet": 747,
      "##loat": 748,
      "##_buf": 749,
      "##lc": 750,
      "at": 751,
      "pic": 752,
      "##_sector": 753,
      "##_mb": 754,
      "##_byt": 755,
      "##ath": 756,
      "##len": 757,
      "##eat": 758,
      "avp": 759,
      "uint64_t": 760,
      "##ld": 761,
      "linesize": 762,
      "##buf": 763,
      "##hys": 764,
      "##_irq": 765,
      "##ach": 766,
      "10": 767,
      "mode": 768,
      "##adata": 769,
      "while": 770,
      "##uster": 771,
      "(%": 772,
      "##cal": 773,
      "##cess": 774,
      "device": 775,
      "##qu": 776,
      "32": 777,
      "di": 778,
      "target_nr": 779,
      "output": 780,
      "##_info": 781,
      "##rom": 782,
      "##ink": 783,
      "log": 784,
      "##16_t": 785,
      "codec_id": 786,
      "##fd": 787,
      "list": 788,
      "this": 789,
      "##uv": 790,
      "##roma": 791,
      "ost": 792,
      "time": 793,
      "##ft": 794,
      "##_be": 795,
      "##eature": 796,
      "##sh": 797,
      "##unc": 798,
      "##codec": 799,
      "blk": 800,
      "##_stream": 801,
      "##_rate": 802,
      "##one": 803,
      "##estream": 804,
      "##sed": 805,
      "packet": 806,
      "ne": 807,
      "extr": 808,
      "has": 809,
      "##ord": 810,
      "cb": 811,
      "bytestream": 812,
      "pixel": 813,
      "##ial": 814,
      "##ard": 815,
      "##_tl": 816,
      "##_env": 817,
      "pix_fmt": 818,
      "##_i64": 819,
      "##_ctx": 820,
      "##und": 821,
      "##gb": 822,
      "ifdef": 823,
      "bits": 824,
      "##_per": 825,
      "\")": 826,
      "##info": 827,
      "or": 828,
      "##irst": 829,
      "##ync": 830,
      "##_opt": 831,
      "##_malloc": 832,
      "im": 833,
      "int64_t": 834,
      "##ans": 835,
      "rc": 836,
      "tcg_temp": 837,
      "##opy": 838,
      "gen_op": 839,
      "##fs": 840,
      "##_idx": 841,
      "##te": 842,
      "##stream": 843,
      "##date": 844,
      "opc": 845,
      "##_sc": 846,
      "filter": 847,
      "##12": 848,
      "\"\\": 849,
      "fl": 850,
      "cmd": 851,
      "no": 852,
      "count": 853,
      "ass": 854,
      "##quest": 855,
      "##ib": 856,
      "##vent": 857,
      "t0": 858,
      "##_put": 859,
      "##_hel": 860,
      "##_width": 861,
      "##_name": 862,
      "##_flags": 863,
      "<=": 864,
      "priv": 865,
      "audio": 866,
      "##ain": 867,
      "##imer": 868,
      "##_k": 869,
      "##ram": 870,
      "##_helper": 871,
      "##od": 872,
      "buf_size": 873,
      "spr": 874,
      "##reate": 875,
      "mb_type": 876,
      "##_mov": 877,
      "skip": 878,
      "##_stat": 879,
      "##coder": 880,
      "##_cache": 881,
      "##con": 882,
      "object": 883,
      "pos": 884,
      "hw": 885,
      "##data": 886,
      "]=": 887,
      "ts": 888,
      "dest": 889,
      "##ange": 890,
      "status": 891,
      "virtio": 892,
      "##_mm": 893,
      "##_header": 894,
      "cs": 895,
      "ab": 896,
      "band": 897,
      "##ity": 898,
      "##lt": 899,
      "gen_helper": 900,
      "load": 901,
      "##_list": 902,
      "arm": 903,
      "##_tr": 904,
      "##_ext": 905,
      "##_as": 906,
      "temp": 907,
      "##_sub": 908,
      "##->": 909,
      "##ref": 910,
      "##264": 911,
      "level": 912,
      "chr": 913,
      "##ph": 914,
      "##mb": 915,
      "decode": 916,
      "##cept": 917,
      "table": 918,
      "req": 919,
      "##add": 920,
      "ist": 921,
      "vc": 922,
      "25": 923,
      "write": 924,
      "##24": 925,
      "##xx": 926,
      "##ep": 927,
      "sd": 928,
      "##ero": 929,
      "##_invalid": 930,
      "##_prop": 931,
      "ptr": 932,
      "()": 933,
      "float": 934,
      "ent": 935,
      "##eff": 936,
      "sector": 937,
      "bus": 938,
      "fdt": 939,
      "samples": 940,
      "##_codec": 941,
      "##scale": 942,
      "avcodec": 943,
      "input": 944,
      "state": 945,
      "##ill": 946,
      "first": 947,
      "##_feature": 948,
      "##ms": 949,
      "ra": 950,
      "##_sectors": 951,
      "##str": 952,
      "min": 953,
      "##block": 954,
      "fprintf": 955,
      "##ound": 956,
      "##own": 957,
      "##ernel": 958,
      "##uld": 959,
      "par": 960,
      "**": 961,
      "video": 962,
      "ram": 963,
      "##rect": 964,
      "format": 965,
      "pts": 966,
      "ps": 967,
      "cluster": 968,
      "inter": 969,
      "args": 970,
      "##_ld": 971,
      "##unk": 972,
      "##ber": 973,
      "##86": 974,
      "local": 975,
      "slice": 976,
      "an": 977,
      "##all": 978,
      "can": 979,
      "std": 980,
      "##ane": 981,
      "host": 982,
      "picture": 983,
      "##ok": 984,
      "invalid": 985,
      "##_time": 986,
      "0xff": 987,
      "key": 988,
      "back": 989,
      "kvm": 990,
      "##ient": 991,
      "##av": 992,
      "##upport": 993,
      "##low": 994,
      "filename": 995,
      "cp": 996,
      "##hci": 997,
      "pred": 998,
      "##_debug": 999,
      "up": 1000,
      "with": 1001,
      "##lor": 1002,
      "##_vlc": 1003,
      "##mple": 1004,
      "qdev": 1005,
      "##_pixel": 1006,
      "##edi": 1007,
      "##_height": 1008,
      "address": 1009,
      "##_up": 1010,
      "0x2": 1011,
      "cpu_env": 1012,
      "##_decode": 1013,
      "##_ent": 1014,
      "use": 1015,
      "usb": 1016,
      "##ips": 1017,
      "mb_x": 1018,
      "desc": 1019,
      "##fg": 1020,
      "cc": 1021,
      "##oint": 1022,
      "arg1": 1023,
      "xmm": 1024,
      "##80": 1025,
      "##_region": 1026,
      "##_channel": 1027,
      "##andle": 1028,
      "-=": 1029,
      "##_or": 1030,
      "base": 1031,
      "##_shift": 1032,
      "sys": 1033,
      "##ined": 1034,
      "tag": 1035,
      "##\",": 1036,
      "sps": 1037,
      "##count": 1038,
      "##_comp": 1039,
      "\";": 1040,
      "##bus": 1041,
      "##_pre": 1042,
      "vnc": 1043,
      "##_pix_fmt": 1044,
      "mask": 1045,
      "##_page": 1046,
      "##line": 1047,
      "##_ass": 1048,
      "iov": 1049,
      "##ush": 1050,
      "##list": 1051,
      "fp": 1052,
      "##_j": 1053,
      "##_phys": 1054,
      "vp": 1055,
      "rn": 1056,
      "channels": 1057,
      "opts": 1058,
      "qu": 1059,
      "t1": 1060,
      "##ition": 1061,
      "##_ref": 1062,
      "have": 1063,
      "av_free": 1064,
      "mat": 1065,
      "##_filter": 1066,
      "stride": 1067,
      "l1": 1068,
      "rs": 1069,
      "##_ms": 1070,
      "0x3": 1071,
      "assert": 1072,
      "##uest": 1073
    }
  }
}