{
  "version": "1.0",
  "truncation": null,
  "padding": null,
  "added_tokens": [
    {
      "id": 0,
      "content": "<s>",
      "single_word": false,
      "lstrip": false,
      "rstrip": false,
      "normalized": false,
      "special": true
    },
    {
      "id": 1,
      "content": "<pad>",
      "single_word": false,
      "lstrip": false,
      "rstrip": false,
      "normalized": false,
      "special": true
    },
    {
      "id": 2,
      "content": "</s>",
      "single_word": false,
      "lstrip": false,
      "rstrip": false,
      "normalized": false,
      "special": true
    },
    {
      "id": 3,
      "content": "<unk>",
      "single_word": false,
      "lstrip": false,
      "rstrip": false,
      "normalized": false,
      "special": true
    }
  ],
  "normalizer": {
    "type": "Sequence",
    "normalizers": [
      {
        "type": "Lowercase"
      },
      {
        "type": "NFKD"
      },
      {
        "type": "Strip",
        "strip_left": true,
        "strip_right": true
      },
      {
        "type": "StripAccents"
      }
    ]
  },
  "pre_tokenizer": {
    "type": "Whitespace"
  },
  "post_processor": null,
  "decoder": {
    "type": "WordPiece",
    "prefix": "##",
    "cleanup": true
  },
  "model": {
    "type": "WordPiece",
    "unk_token": "[UNK]",
    "continuing_subword_prefix": "##",
    "max_input_chars_per_word": 100,
    "vocab": {
      "<s>": 0,
      "<pad>": 1,
      "</s>": 2,
      "<unk>": 3,
      "!": 4,
      "\"": 5,
      "#": 6,
      "$": 7,
      "%": 8,
      "&": 9,
      "'": 10,
      "(": 11,
      ")": 12,
      "*": 13,
      "+": 14,
      ",": 15,
      "-": 16,
      ".": 17,
      "/": 18,
      "0": 19,
      "1": 20,
      "2": 21,
      "3": 22,
      "4": 23,
      "5": 24,
      "6": 25,
      "7": 26,
      "8": 27,
      "9": 28,
      ":": 29,
      ";": 30,
      "<": 31,
      "=": 32,
      ">": 33,
      "?": 34,
      "@": 35,
      "[": 36,
      "\\": 37,
      "]": 38,
      "^": 39,
      "_": 40,
      "`": 41,
      "a": 42,
      "b": 43,
      "c": 44,
      "d": 45,
      "e": 46,
      "f": 47,
      "g": 48,
      "h": 49,
      "i": 50,
      "j": 51,
      "k": 52,
      "l": 53,
      "m": 54,
      "n": 55,
      "o": 56,
      "p": 57,
      "q": 58,
      "r": 59,
      "s": 60,
      "t": 61,
      "u": 62,
      "v": 63,
      "w": 64,
      "x": 65,
      "y": 66,
      "z": 67,
      "{": 68,
      "|": 69,
      "}": 70,
      "~": 71,
      "##p": 72,
      "##7": 73,
      "##8": 74,
      "##_": 75,
      "##d": 76,
      "##e": 77,
      "##c": 78,
      "##o": 79,
      "##m": 80,
      "##v": 81,
      "##b": 82,
      "##s": 83,
      "##i": 84,
      "##n": 85,
      "##t": 86,
      "##u": 87,
      "##l": 88,
      "##f": 89,
      "##r": 90,
      "##4": 91,
      "##0": 92,
      "##q": 93,
      "##2": 94,
      "##3": 95,
      "##a": 96,
      "##h": 97,
      "##6": 98,
      "##w": 99,
      "##1": 100,
      "##g": 101,
      "##z": 102,
      "##k": 103,
      "##y": 104,
      "##x": 105,
      "##<": 106,
      "##\"": 107,
      "##,": 108,
      "##[": 109,
      "##'": 110,
      "##;": 111,
      "##j": 112,
      "##9": 113,
      "##>": 114,
      "##(": 115,
      "##-": 116,
      "##5": 117,
      "##\\": 118,
      "##:": 119,
      "##/": 120,
      "##%": 121,
      "##)": 122,
      "##.": 123,
      "##*": 124,
      "##+": 125,
      "##]": 126,
      "##=": 127,
      "##~": 128,
      "##?": 129,
      "##}": 130,
      "##&": 131,
      "##!": 132,
      "##|": 133,
      "##{": 134,
      "##$": 135,
      "##^": 136,
      "###": 137,
      "##@": 138,
      "->": 139,
      "##nt": 140,
      "##er": 141,
      "##re": 142,
      "##at": 143,
      "##et": 144,
      ");": 145,
      "##st": 146,
      "##de": 147,
      "##or": 148,
      "##in": 149,
      "##on": 150,
      "##e_": 151,
      "if": 152,
      "##se": 153,
      "##am": 154,
      "##_t": 155,
      "##_c": 156,
      "##al": 157,
      "co": 158,
      "##it": 159,
      "##en": 160,
      "##ct": 161,
      "av": 162,
      "st": 163,
      "##ex": 164,
      "##_s": 165,
      "##lo": 166,
      "##_p": 167,
      "##ar": 168,
      "##iz": 169,
      "##ext": 170,
      "##_f": 171,
      "##le": 172,
      "##ck": 173,
      "##ize": 174,
      "##ff": 175,
      "##ad": 176,
      "##ntext": 177,
      "##id": 178,
      "int": 179,
      "##ut": 180,
      "##ur": 181,
      "##_b": 182,
      "##ic": 183,
      "ret": 184,
      "re": 185,
      "##an": 186,
      "##ion": 187,
      "##_m": 188,
      "##ate": 189,
      "in": 190,
      "##em": 191,
      "##co": 192,
      "##int": 193,
      "##ul": 194,
      "##el": 195,
      "##);": 196,
      "##ase": 197,
      "/*": 198,
      "*/": 199,
      "de": 200,
      "##ig": 201,
      "##ag": 202,
      "##ot": 203,
      "##ata": 204,
      "##ed": 205,
      "context": 206,
      "##urn": 207,
      "return": 208,
      "##as": 209,
      "##es": 210,
      "##00": 211,
      "##io": 212,
      "##il": 213,
      "##_st": 214,
      "##ro": 215,
      "##_co": 216,
      "##he": 217,
      "##_re": 218,
      "case": 219,
      "##pu": 220,
      "en": 221,
      "##mp": 222,
      "##_n": 223,
      "##_in": 224,
      "##ram": 225,
      "0x": 226,
      "##_o": 227,
      "##ue": 228,
      "##pt": 229,
      "##get": 230,
      "##_d": 231,
      "##um": 232,
      "##lock": 233,
      "##ror": 234,
      "##pe": 235,
      "==": 236,
      "##ak": 237,
      "##ab": 238,
      "##ri": 239,
      "bu": 240,
      "##dec": 241,
      "##ac": 242,
      "##ing": 243,
      "ch": 244,
      "##32": 245,
      "##reak": 246,
      "break": 247,
      "for": 248,
      "el": 249,
      "##_l": 250,
      "cpu": 251,
      "##dr": 252,
      "##_size": 253,
      "(&": 254,
      "##set": 255,
      "##ent": 256,
      "else": 257,
      "##ap": 258,
      "##_lo": 259,
      "##ream": 260,
      "##_v": 261,
      "##dex": 262,
      "\",": 263,
      "##ack": 264,
      "size": 265,
      "##us": 266,
      "##64": 267,
      "con": 268,
      "er": 269,
      "##ir": 270,
      "##is": 271,
      "##im": 272,
      "##th": 273,
      "##un": 274,
      "))": 275,
      "##ffer": 276,
      "++": 277,
      "##ist": 278,
      "uint": 279,
      "##put": 280,
      "##ix": 281,
      "##if": 282,
      "##tx": 283,
      "codec": 284,
      "data": 285,
      "##g_": 286,
      "##ull": 287,
      "##ch": 288,
      "tc": 289,
      "##ult": 290,
      "##lag": 291,
      "##ss": 292,
      "stat": 293,
      "##tr": 294,
      "ar": 295,
      "##ffset": 296,
      "##ype": 297,
      "];": 298,
      "is": 299,
      "##rc": 300,
      "##its": 301,
      "state": 302,
      "##and": 303,
      "(!": 304,
      "av_lo": 305,
      "##_de": 306,
      "##ect": 307,
      "null": 308,
      "##_r": 309,
      "##ation": 310,
      "&&": 311,
      "##ctx": 312,
      "##ile": 313,
      "the": 314,
      "##vic": 315,
      "##_w": 316,
      "##arget": 317,
      "##_h": 318,
      "##error": 319,
      "##ict": 320,
      "block": 321,
      "get": 322,
      "vo": 323,
      "out": 324,
      "##ure": 325,
      "##pl": 326,
      "gen": 327,
      "op": 328,
      "##able": 329,
      "res": 330,
      "##unt": 331,
      "][": 332,
      "##ame": 333,
      "ad": 334,
      "##rame": 335,
      "ex": 336,
      "target": 337,
      "lo": 338,
      "##emu": 339,
      "##of": 340,
      "##context": 341,
      "##16": 342,
      "##art": 343,
      "mm": 344,
      "static": 345,
      "ff": 346,
      "##_id": 347,
      "%%": 348,
      "##ci": 349,
      "void": 350,
      "##ax": 351,
      "avctx": 352,
      "],": 353,
      "##ce": 354,
      "##oto": 355,
      "ctx": 356,
      "to": 357,
      "error": 358,
      "##_get": 359,
      "val": 360,
      "((": 361,
      "arg": 362,
      "qemu": 363,
      "##ov": 364,
      "));": 365,
      "##_ad": 366,
      "##ort": 367,
      "##igh": 368,
      "++)": 369,
      "##pr": 370,
      "const": 371,
      "##acket": 372,
      "un": 373,
      "##fo": 374,
      "mb": 375,
      "##ign": 376,
      "),": 377,
      "!=": 378,
      "##ter": 379,
      "##ay": 380,
      "buf": 381,
      "\");": 382,
      "goto": 383,
      "##ps": 384,
      "mem": 385,
      "##yt": 386,
      "##ru": 387,
      "env": 388,
      "index": 389,
      "reg": 390,
      "##vice": 391,
      "end": 392,
      "##state": 393,
      "##up": 394,
      "##nel": 395,
      "##ress": 396,
      "##ub": 397,
      "num": 398,
      "##sc": 399,
      "##ight": 400,
      "##_bits": 401,
      "##mat": 402,
      "##lags": 403,
      "##ode": 404,
      "##_en": 405,
      "##ow": 406,
      "##val": 407,
      "he": 408,
      "##code": 409,
      "##_set": 410,
      ">>": 411,
      "buffer": 412,
      "stream": 413,
      "+=": 414,
      "##ver": 415,
      "##idth": 416,
      "##_bu": 417,
      "sizeof": 418,
      "##rit": 419,
      "##os": 420,
      "##ask": 421,
      "##mm": 422,
      "##_i": 423,
      "||": 424,
      "<<": 425,
      "tr": 426,
      "##que": 427,
      "##ate_": 428,
      "th": 429,
      "].": 430,
      "cur": 431,
      "##size": 432,
      "##_type": 433,
      "##mt": 434,
      "##_reg": 435,
      "##bu": 436,
      "##_context": 437,
      "##der": 438,
      "src": 439,
      "##ew": 440,
      "tcg": 441,
      "##pc": 442,
      "##ory": 443,
      "fil": 444,
      "len": 445,
      "##_data": 446,
      "##emp": 447,
      "av_log": 448,
      "##dress": 449,
      "//": 450,
      "##ert": 451,
      "gb": 452,
      "##yp": 453,
      "##ader": 454,
      "##loc": 455,
      "char": 456,
      "##amp": 457,
      "pb": 458,
      "##_g": 459,
      "(\"": 460,
      "##_se": 461,
      "##annel": 462,
      "result": 463,
      "##ister": 464,
      "so": 465,
      "##8_t": 466,
      "al": 467,
      "offset": 468,
      "##ruct": 469,
      "##gth": 470,
      "##ass": 471,
      "##av": 472,
      "##est": 473,
      "##rame_": 474,
      "##ide": 475,
      "##_index": 476,
      "def": 477,
      "##ma": 478,
      "##_op": 479,
      "tmp": 480,
      "uint8_t": 481,
      "output": 482,
      "err": 483,
      "##ast": 484,
      "##ail": 485,
      "##icture": 486,
      "pre": 487,
      "##_x": 488,
      "se": 489,
      "pci": 490,
      "##ip": 491,
      "##ol": 492,
      "##ud": 493,
      "##_fre": 494,
      "##ption": 495,
      "##intf": 496,
      "16": 497,
      "nb": 498,
      "sc": 499,
      "##op": 500,
      "##rent": 501,
      "##_ch": 502,
      "##ample": 503,
      "##32_t": 504,
      "##sp": 505,
      "pix": 506,
      "##ment": 507,
      "##64_t": 508,
      "##ype_": 509,
      "bs": 510,
      "##_init": 511,
      "byt": 512,
      "##0000": 513,
      "input": 514,
      "av_log_": 515,
      "##ine": 516,
      "##ault": 517,
      "##ess": 518,
      "##le_": 519,
      "sw": 520,
      "##ys": 521,
      "max": 522,
      "##udio": 523,
      "##_offset": 524,
      "value": 525,
      "##ry": 526,
      "##irt": 527,
      "pro": 528,
      "##iv": 529,
      "##ector": 530,
      "packet": 531,
      "##_buffer": 532,
      "##_ptr": 533,
      "##_con": 534,
      "##_int": 535,
      "##_fmt": 536,
      "dst": 537,
      "##_count": 538,
      "sh": 539,
      "]);": 540,
      "##dev": 541,
      "device": 542,
      "##fig": 543,
      "##alloc": 544,
      "##py": 545,
      "##nc": 546,
      "##_a": 547,
      "##kt": 548,
      "not": 549,
      "##_y": 550,
      "##bj": 551,
      "id": 552,
      "##_val": 553,
      "do": 554,
      "flags": 555,
      "##for": 556,
      "();": 557,
      "##gen": 558,
      "##ust": 559,
      "dc": 560,
      "cl": 561,
      "bit": 562,
      "endif": 563,
      "##ers": 564,
      "##ideo": 565,
      "fd": 566,
      "##igned": 567,
      "##_read": 568,
      "##_len": 569,
      "##ec": 570,
      "##ts": 571,
      "ref": 572,
      "##_state": 573,
      "an": 574,
      "ac": 575,
      "##aram": 576,
      "tim": 577,
      "##drv": 578,
      "le": 579,
      "##riv": 580,
      "start": 581,
      "temp": 582,
      "current": 583,
      "bdrv": 584,
      "lin": 585,
      "##ost": 586,
      "##_q": 587,
      "width": 588,
      "##heck": 589,
      "##ride": 590,
      "##_type_": 591,
      "init": 592,
      "##port": 593,
      "tcg_": 594,
      "##_block": 595,
      "##ition": 596,
      "##ong": 597,
      "##000": 598,
      "sl": 599,
      "##ilter": 600,
      "##_e": 601,
      "us": 602,
      "##end": 603,
      "##printf": 604,
      "##_frame": 605,
      "averror": 606,
      "frame": 607,
      "##vel": 608,
      "##_free": 609,
      "wh": 610,
      "memory": 611,
      "*)": 612,
      "##itch": 613,
      "channel": 614,
      "##reg": 615,
      "##age": 616,
      "mov": 617,
      "##_he": 618,
      "##age_": 619,
      "uint32_t": 620,
      "##_addr": 621,
      "##om": 622,
      "##rite": 623,
      "tcg_gen": 624,
      "uns": 625,
      "address": 626,
      "##esize": 627,
      "##valid": 628,
      "##ach": 629,
      "##_ctx": 630,
      "we": 631,
      "])": 632,
      "dis": 633,
      "##ctor": 634,
      "##ial": 635,
      "##_table": 636,
      "##_num": 637,
      "##no": 638,
      ">=": 639,
      "av_log_error": 640,
      "##_stream": 641,
      "register": 642,
      "##cess": 643,
      "dev": 644,
      "set": 645,
      "##oint": 646,
      "dest": 647,
      "as": 648,
      "##_cpu": 649,
      "code": 650,
      "addr": 651,
      "be": 652,
      "comp": 653,
      "##ampl": 654,
      "##_to": 655,
      "pc": 656,
      "struct": 657,
      "##md": 658,
      "pr": 659,
      "io": 660,
      "##ift": 661,
      "##ind": 662,
      "##err": 663,
      "##_str": 664,
      "audio": 665,
      "##ra": 666,
      "##si": 667,
      "##_pix": 668,
      "type": 669,
      "##_pro": 670,
      "##bject": 671,
      "##read": 672,
      "next": 673,
      "height": 674,
      "##ly": 675,
      "##ang": 676,
      "avio": 677,
      "of": 678,
      "##ant": 679,
      "switch": 680,
      "##data": 681,
      "##def": 682,
      "##_tim": 683,
      "frame_": 684,
      "unsigned": 685,
      "sub": 686,
      "##ber": 687,
      "##e_t": 688,
      "##lk": 689,
      "##_le": 690,
      "mv": 691,
      "on": 692,
      "##ey": 693,
      "##_us": 694,
      "##addr": 695,
      "str": 696,
      "##amples": 697,
      "##quest": 698,
      "##map": 699,
      "##cal": 700,
      "rt": 701,
      "last": 702,
      "header": 703,
      "new": 704,
      "read": 705,
      "virt": 706,
      "##red": 707,
      "##out": 708,
      "##_out": 709,
      "##pts": 710,
      "file": 711,
      "length": 712,
      "##_un": 713,
      "##ample_": 714,
      "##ans": 715,
      "default": 716,
      "##sn": 717,
      "0x0": 718,
      "0x1": 719,
      "##kip": 720,
      "get_bits": 721,
      "##_cl": 722,
      "##_ex": 723,
      "fail": 724,
      "##eld": 725,
      "##_picture": 726,
      "format": 727,
      "cont": 728,
      "put": 729,
      "inter": 730,
      "##ield": 731,
      "##_code": 732,
      "config": 733,
      "##ename": 734,
      "##_flag": 735,
      "bo": 736,
      "##_io": 737,
      "|=": 738,
      "##sh": 739,
      "##_user": 740,
      "##_mask": 741,
      "##_add": 742,
      "video": 743,
      "){": 744,
      "##qu": 745,
      "##_new": 746,
      "##ath": 747,
      "check": 748,
      "(*": 749,
      "im": 750,
      "##_mem": 751,
      "##_i32": 752,
      "##vm": 753,
      "12": 754,
      "##_nr": 755,
      "++;": 756,
      "##ore": 757,
      "##coder": 758,
      "##_u": 759,
      "##block": 760,
      "##ith": 761,
      "##rom": 762,
      "##loat": 763,
      "##_start": 764,
      "##ard": 765,
      "##lc": 766,
      "0xff": 767,
      "and": 768,
      "##stream": 769,
      "sp": 770,
      "##_sh": 771,
      "##_max": 772,
      "##irq": 773,
      "##per": 774,
      "##info": 775,
      "##_byt": 776,
      "pl": 777,
      "##_info": 778,
      "##_err": 779,
      "info": 780,
      "##peg": 781,
      "at": 782,
      "##format": 783,
      "uint64_t": 784,
      "pkt": 785,
      "##sr": 786,
      "##hys": 787,
      "##len": 788,
      "##_packet": 789,
      "pos": 790,
      "##_sector": 791,
      "##ction": 792,
      "sour": 793,
      "##eat": 794,
      "filter": 795,
      "##adata": 796,
      "##ld": 797,
      "name": 798,
      "##rite_": 799,
      "##uster": 800,
      "##able_": 801,
      "target_nr": 802,
      "mode": 803,
      "while": 804,
      "pixel": 805,
      "##ord": 806,
      "slic": 807,
      "##ary": 808,
      "10": 809,
      "##roma": 810,
      "##_mode": 811,
      "object": 812,
      "(%": 813,
      "##count": 814,
      "##ft": 815,
      "##16_t": 816,
      "option": 817,
      "##codec": 818,
      "##_value": 819,
      "count": 820,
      "##bug": 821,
      "##_per": 822,
      "tb": 823,
      "##_end": 824,
      "ptr": 825,
      "##ity": 826,
      "fl": 827,
      "##uv": 828,
      "##_ar": 829,
      "##und": 830,
      "list": 831,
      "32": 832,
      "##_name": 833,
      "##con": 834,
      "##_base": 835,
      "##eature": 836,
      "##cl": 837,
      "##vent": 838,
      "has": 839,
      "##sed": 840,
      "##estream": 841,
      "tcg_t": 842,
      "linesize": 843,
      "extr": 844,
      "##_al": 845,
      "##filter": 846,
      "rd": 847,
      "codec_id": 848,
      "bits": 849,
      "bytestream": 850,
      "##fd": 851,
      "##ync": 852,
      "ifdef": 853,
      "ent": 854,
      "it": 855,
      "##gb": 856,
      "##_malloc": 857,
      "int64_t": 858,
      "##ination": 859,
      "##mb": 860,
      "##ace": 861,
      "log": 862,
      "##_tl": 863,
      "di": 864,
      "\")": 865,
      "pix_fmt": 866,
      "picture": 867,
      "##ient": 868,
      "##_be": 869,
      "##cp": 870,
      "##ref": 871,
      "##ize_": 872,
      "##unc": 873,
      "pic": 874,
      "##elper": 875,
      "##_frame_": 876,
      "##dict": 877,
      "##irst": 878,
      "priv": 879,
      "status": 880,
      "##river": 881,
      "ne": 882,
      "decode": 883,
      "##_env": 884,
      "##12": 885,
      "##ache": 886,
      "vs": 887,
      "##rol": 888,
      "##_write": 889,
      "##264": 890,
      "sample_": 891,
      "##_mb": 892,
      "##_irq": 893,
      "<=": 894,
      "blk": 895,
      "ass": 896,
      "##vice_": 897,
      "##_stat": 898,
      "level": 899,
      "##_error": 900,
      "##lin": 901,
      "##cket": 902,
      "##od": 903,
      "##ce_": 904,
      "##ok": 905,
      "##ain": 906,
      "errp": 907,
      "##frame": 908,
      "avp": 909,
      "##edi": 910,
      "or": 911,
      "##buf": 912,
      "destination": 913,
      "##scal": 914,
      "##ep": 915,
      "##play": 916,
      "##e_b": 917,
      "##aque": 918,
      "##_list": 919,
      "virtio": 920,
      "band": 921,
      "##fs": 922,
      "spr": 923,
      "skip": 924,
      "##_flags": 925,
      "this": 926,
      "##ptr": 927,
      "##_for": 928,
      "\"\\": 929,
      "##ding": 930,
      "##rames": 931,
      "##eff": 932,
      "cb": 933,
      "##ual": 934,
      "arm": 935,
      "no": 936,
      "##_tr": 937,
      "##_width": 938,
      "##_put": 939,
      "##ars": 940,
      "##ace_": 941,
      "##_buf": 942,
      "sd": 943,
      "##_codec": 944,
      "ab": 945,
      "float": 946,
      "bus": 947,
      "min": 948,
      "##->": 949,
      "trans": 950,
      "##ler": 951,
      "opaque": 952,
      "##_fil": 953,
      "##lor": 954,
      "tcg_temp": 955,
      "##_invalid": 956,
      "sector": 957,
      "up": 958,
      "25": 959,
      "##24": 960,
      "##_k": 961,
      "##_region": 962,
      "##ave": 963,
      "##_inter": 964,
      "##rupt": 965,
      "##_mov": 966,
      "fdt": 967,
      "##lb": 968,
      "##index": 969,
      "comm": 970,
      "##buffer": 971,
      "##_length": 972,
      "##ointer": 973,
      "usb": 974,
      "**": 975,
      "host": 976,
      "request": 977,
      "insn": 978,
      "##rate": 979,
      "##_channel": 980,
      "hw": 981,
      "##scri": 982,
      "()": 983,
      "##one": 984,
      "load": 985,
      "##ero": 986,
      "rc": 987,
      "vm": 988,
      "##_prop": 989,
      "##own": 990,
      "##_sub": 991,
      "local": 992,
      "ts": 993,
      "##unk": 994,
      "cluster": 995,
      "##otion": 996,
      "##_ext": 997,
      "##_im": 998,
      "##name": 999,
      "##_helper": 1000,
      "##_register": 1001,
      "]=": 1002,
      "##lement": 1003,
      "cs": 1004,
      "##upport": 1005,
      "##form": 1006,
      "##ower": 1007,
      "invalid": 1008,
      "fprintf": 1009,
      "##ib": 1010,
      "##ernel": 1011,
      "##_pixel": 1012,
      "##xx": 1013,
      "##_address": 1014,
      "first": 1015,
      "##ical": 1016,
      "##_param": 1017,
      "avcodec": 1018,
      "##are": 1019,
      "##ifi": 1020,
      "##86": 1021,
      "##list": 1022,
      "##otal": 1023,
      "##ence": 1024,
      "##rect": 1025,
      "source": 1026,
      "##uration": 1027,
      "##_feature": 1028,
      "##ere": 1029,
      "param": 1030,
      "sn": 1031,
      "back": 1032,
      "##_memory": 1033,
      "##ph": 1034,
      "##_header": 1035,
      "##_pos": 1036,
      "arg1": 1037,
      "##entry": 1038,
      "defin": 1039,
      "opc": 1040,
      "##ffff": 1041,
      "##str": 1042,
      "##low": 1043,
      "##_sectors": 1044,
      "##bus": 1045,
      "vc": 1046,
      "##act": 1047,
      "##ge": 1048,
      "##_i64": 1049,
      "##e_p": 1050,
      "gen_helper": 1051,
      "key": 1052,
      "qdev": 1053,
      "##uld": 1054,
      "-=": 1055,
      "##ls": 1056,
      "cpu_env": 1057,
      "channels": 1058,
      "options": 1059,
      "chroma": 1060,
      "##_height": 1061,
      "##ated": 1062,
      "##_j": 1063,
      "\";": 1064,
      "##_device": 1065,
      "tag": 1066,
      "##ush": 1067,
      "entry": 1068,
      "##_ass": 1069,
      "##ersion": 1070,
      "qu": 1071,
      "##_filter": 1072,
      "##_pix_fmt": 1073,
      "pts": 1074,
      "mask": 1075,
      "memc": 1076,
      "iov": 1077,
      "sys": 1078,
      "##rix": 1079,
      "gener": 1080,
      "can": 1081,
      "##device": 1082,
      "##ception": 1083,
      "xmm": 1084,
      "cmd": 1085,
      "##res": 1086,
      "##_idx": 1087,
      "##_comp": 1088,
      "##_no": 1089,
      "##_vlc": 1090,
      "kvm": 1091,
      "assert": 1092,
      "##mask": 1093,
      "##ray": 1094,
      "##atch": 1095,
      "##app": 1096,
      "ps": 1097,
      "##ash": 1098,
      "##script": 1099,
      "initial": 1100,
      "add": 1101,
      "##_up": 1102,
      "samples": 1103,
      "##derr": 1104,
      "vnc": 1105,
      "##ork": 1106,
      "codec_context": 1107,
      "prev": 1108,
      "##\",": 1109,
      "##bo": 1110,
      "##itor": 1111,
      "##_or": 1112,
      "total": 1113,
      "##_phys": 1114,
      "hand": 1115,
      "stderr": 1116,
      "##_opt": 1117,
      "ram": 1118,
      "##ek": 1119,
      "ost": 1120,
      "sps": 1121,
      "##_assert": 1122,
      "##num": 1123,
      "##rd": 1124,
      "##ded": 1125,
      "0x2": 1126,
      "##scriptor": 1127,
      "run": 1128,
      "##_mm": 1129,
      "##ips": 1130,
      "shift": 1131,
      "',": 1132,
      "##eration": 1133,
      "power": 1134,
      "##_ld": 1135,
      "ir": 1136,
      "##ens": 1137,
      "del": 1138,
      "port": 1139,
      "##uest": 1140,
      "##hci": 1141,
      "##so": 1142,
      "fa": 1143,
      "kernel": 1144,
      "##add": 1145,
      "##pect": 1146,
      "ser": 1147,
      "with": 1148,
      "cp": 1149,
      "##_field": 1150,
      "av_free": 1151,
      "bytestream2": 1152,
      "##_status": 1153,
      "bytes": 1154,
      "##pha": 1155,
      "##_bit": 1156,
      "##mv": 1157,
      "##ane": 1158,
      "(!(": 1159,
      "##ound": 1160,
      "##_samples": 1161,
      "gen_op": 1162,
      "arg2": 1163,
      ")))": 1164,
      "##abled": 1165,
      "##_shift": 1166,
      "filename": 1167,
      "req": 1168,
      "table": 1169,
      "av_pix_fmt": 1170,
      "##_load": 1171,
      "##_sp": 1172,
      "##ument": 1173,
      "##ob": 1174,
      "cpu_t": 1175,
      "fal": 1176,
      "##line": 1177,
      "mb_x": 1178,
      "memcpy": 1179,
      "##_lin": 1180,
      "defined": 1181,
      "old": 1182,
      "##_format": 1183,
      "cc": 1184,
      "##me": 1185,
      "t0": 1186,
      "##_bus": 1187,
      ":%": 1188,
      "path": 1189,
      "0x3": 1190,
      "##ange": 1191,
      "ra": 1192,
      "##_time": 1193,
      "##_pred": 1194,
      "true": 1195,
      "##_file": 1196,
      "mm0": 1197,
      "args": 1198,
      "net": 1199,
      "extradata": 1200,
      "##_number": 1201,
      "##_invaliddata": 1202,
      "##ase_": 1203,
      "##omem": 1204,
      "##80": 1205,
      "averror_invaliddata": 1206,
      "]->": 1207,
      "ap": 1208,
      "rs": 1209,
      "stride": 1210,
      "##_alloc": 1211,
      "##10": 1212,
      "##_as": 1213,
      "##_pre": 1214,
      "##edia": 1215,
      "file_": 1216,
      "##_pr": 1217,
      "##erty": 1218,
      "##file": 1219,
      "##_write_": 1220,
      "ext": 1221,
      "##nd": 1222,
      "##_ref": 1223,
      "64": 1224,
      "##_is": 1225,
      "=%": 1226,
      "##8x": 1227,
      "pps": 1228,
      "priv_data": 1229,
      "ot": 1230,
      "##iled": 1231,
      "exit": 1232,
      "##lic": 1233,
      "are": 1234,
      "memory_region": 1235,
      "sy": 1236,
      "##struct": 1237,
      "alloc": 1238,
      "##_del": 1239,
      "l1": 1240,
      "vector": 1241,
      "##ms": 1242,
      "vp": 1243,
      "color": 1244,
      "##_ms": 1245,
      "##ection": 1246,
      "scal": 1247,
      "##_byte": 1248,
      "##fault": 1249,
      "chr": 1250,
      "idx": 1251,
      "##_ul": 1252,
      "##te": 1253,
      "##rap": 1254,
      "uint16_t": 1255,
      "##ive": 1256,
      "##driver": 1257,
      "fix": 1258,
      "##_config": 1259,
      "##_cache": 1260,
      "long": 1261,
      "##_cre": 1262,
      "##region": 1263,
      "##_fl": 1264,
      "fre": 1265,
      "display": 1266,
      "##ux": 1267,
      "ist": 1268,
      "ss": 1269,
      "error_set": 1270,
      "--": 1271,
      "&=": 1272,
      "##pth": 1273,
      "pict": 1274,
      "##_tag": 1275,
      "per": 1276,
      "##_src": 1277,
      "##ild": 1278,
      "##_errno": 1279,
      "##_ulong": 1280,
      "ein": 1281,
      "##_dev": 1282,
      "process": 1283,
      "##_string": 1284,
      "##_pc": 1285,
      "##ify": 1286,
      "motion": 1287,
      "##cb": 1288,
      "fp": 1289,
      "};": 1290,
      "sign": 1291,
      "##fl": 1292,
      "false": 1293,
      "upd": 1294,
      "aio": 1295,
      "movq": 1296,
      "ffm": 1297,
      "memset": 1298,
      "##_dis": 1299,
      "##ance": 1300,
      "that": 1301,
      "contin": 1302,
      "av_malloc": 1303,
      "number": 1304,
      "##_mv": 1305,
      "15": 1306,
      "##apr": 1307,
      "##pos": 1308,
      "##e_base": 1309,
      "mon": 1310,
      "enc": 1311,
      "##ta": 1312,
      "vis": 1313,
      "##_th": 1314,
      "##ctl": 1315,
      "ide": 1316,
      "##enc": 1317,
      "##flag": 1318,
      "##cow": 1319,
      "##_stride": 1320,
      "mb_type": 1321,
      "##_hand": 1322,
      "\"%": 1323,
      "argument": 1324,
      "##rl": 1325,
      "powerpc": 1326,
      "##ell": 1327,
      "open": 1328,
      "einval": 1329,
      "##stride": 1330,
      "lock": 1331,
      "buf_size": 1332,
      "##_z": 1333,
      "##struction": 1334,
      "irq": 1335,
      "regs": 1336,
      "##flags": 1337,
      "##br": 1338,
      "##cr": 1339,
      "failed": 1340,
      "##_log": 1341,
      "base": 1342,
      "##_ne": 1343,
      "0xf": 1344,
      "from": 1345,
      "##width": 1346,
      "ms": 1347,
      "##**": 1348,
      "##abel": 1349,
      "g_assert": 1350,
      "##ue_": 1351,
      "h264": 1352,
      "uv": 1353,
      "##pec": 1354,
      "##_cb": 1355,
      "vec": 1356,
      "##upported": 1357,
      "##_ab": 1358,
      "##offset": 1359,
      "##_tab": 1360,
      "command": 1361,
      "##_report": 1362,
      "track": 1363,
      "##_page_": 1364,
      "##_fd": 1365,
      "mm1": 1366,
      "##_streams": 1367,
      "##_input": 1368,
      "continue": 1369,
      "##_pic": 1370,
      "##ios": 1371,
      "##ug": 1372,
      "##let": 1373,
      "opt": 1374,
      "##bit": 1375,
      "##_bytes": 1376,
      "##class": 1377,
      "##_pixels": 1378,
      "##fer": 1379,
      "seg": 1380,
      "##ues": 1381,
      "l2": 1382,
      "##fmt": 1383,
      "cal": 1384,
      "##mov": 1385,
      "av_codec": 1386,
      "##ifier": 1387,
      "##di": 1388,
      "##pp": 1389,
      "guest": 1390,
      "mac": 1391,
      "mat": 1392,
      "desc": 1393,
      "]]": 1394,
      "##_decode": 1395,
      "##_rl": 1396,
      "dir": 1397,
      "get_errno": 1398,
      "tcgv": 1399,
      "bool": 1400,
      "##44": 1401,
      "##_free_": 1402,
      "enomem": 1403,
      "##_entry": 1404,
      "t1": 1405,
      "##stem": 1406,
      "mpeg": 1407,
      "lum": 1408,
      "copy": 1409,
      "write": 1410,
      "##ump": 1411,
      "##_sig": 1412,
      "##_ac": 1413,
      "256": 1414,
      "g_free": 1415,
      "mx": 1416,
      "##fg": 1417,
      "pal": 1418,
      "##_sc": 1419,
      "low": 1420,
      "##ive_": 1421,
      "##ning": 1422,
      "mb_y": 1423,
      "slice_": 1424,
      "##driverstate": 1425,
      "ip": 1426,
      "##uid": 1427,
      "get_bits1": 1428,
      "##indow": 1429,
      "##_func": 1430,
      "##_que": 1431,
      "version": 1432,
      "##11": 1433,
      "##_output": 1434,
      "##42": 1435,
      "act": 1436,
      "##pel": 1437,
      "##pro": 1438,
      "##c0": 1439,
      "##ave_": 1440,
      "##pi": 1441,
      "device_": 1442,
      "##onent": 1443,
      "##_arg": 1444,
      "##level": 1445,
      "##_not": 1446,
      ")(": 1447,
      "field": 1448,
      "qdict": 1449,
      "position": 1450,
      "##ize_t": 1451,
      "mm2": 1452,
      "control": 1453,
      "int16_t": 1454,
      "##ga": 1455,
      "11": 1456,
      "##_dc": 1457,
      "strc": 1458,
      "cre": 1459,
      "20": 1460,
      "sig": 1461,
      "##bits": 1462,
      "##scale": 1463,
      "##du": 1464,
      "avformat": 1465,
      "opts": 1466,
      "codec_ctx": 1467,
      "time": 1468,
      "avcodeccontext": 1469,
      "av_codec_id": 1470,
      "##_map": 1471,
      "spapr": 1472,
      "dsp": 1473,
      "##ries": 1474,
      "##cond": 1475,
      "mo": 1476,
      "##_request": 1477,
      "##_upd": 1478,
      "##_be32": 1479,
      "##lose": 1480,
      "##coding": 1481,
      "##_struct": 1482,
      "##irty": 1483,
      "##cc": 1484,
      "##gr": 1485,
      "quant": 1486,
      "##_ro": 1487,
      "socket": 1488,
      "interrupt": 1489,
      "##ntrol": 1490,
      "##_2": 1491,
      "##_table_": 1492,
      "##comp": 1493,
      "current_picture": 1494,
      "##yn": 1495,
      "%%\"": 1496,
      "error_setg": 1497,
      "##work": 1498,
      "time_base": 1499,
      "only": 1500,
      "scan": 1501,
      "##_intra": 1502,
      "##_tb": 1503,
      "##ml": 1504,
      "##to": 1505,
      "0x00": 1506,
      "##_pl": 1507,
      "##etadata": 1508,
      "over": 1509,
      "##_filename": 1510,
      "##_reset": 1511,
      "client": 1512,
      "v9": 1513,
      "##_res": 1514,
      "##_check": 1515,
      "##arse_": 1516,
      "nbd": 1517,
      "##cs": 1518,
      "mach": 1519,
      "##e_size": 1520,
      "qcow": 1521,
      "##wap": 1522,
      "##nal": 1523,
      "streams": 1524,
      "##stat": 1525,
      "##_av": 1526,
      "refer": 1527,
      "##_cmp": 1528,
      "##mplement": 1529,
      "##gram": 1530,
      "##_on": 1531,
      "##_ed": 1532,
      "##our": 1533,
      "generate_": 1534,
      "##_cond": 1535,
      "*(": 1536,
      "mm4": 1537,
      "##_key": 1538,
      "all": 1539,
      "##_ram": 1540,
      "##_left": 1541,
      "index_op": 1542,
      "##point": 1543,
      "##sent": 1544,
      "##imit": 1545,
      "node": 1546,
      "coeff": 1547,
      "left": 1548,
      "##ayout": 1549,
      "##erv": 1550,
      "rn": 1551,
      "##address": 1552,
      "##_cmd": 1553,
      "use": 1554,
      "##_long": 1555,
      "write_": 1556,
      "chunk": 1557,
      "access": 1558,
      "##_gpr": 1559,
      "top": 1560,
      "24": 1561,
      "##_class": 1562,
      "need": 1563,
      "driv": 1564,
      "##mem": 1565,
      "##39": 1566,
      "##_min": 1567,
      "event": 1568,
      "pa": 1569,
      "target_ulong": 1570,
      "arg3": 1571,
      "##_insn": 1572,
      "##_frames": 1573,
      "##_property": 1574,
      "test": 1575,
      "##ies": 1576,
      "rx": 1577,
      "##cel": 1578,
      "cr": 1579,
      "tempor": 1580,
      "mm3": 1581,
      "po": 1582,
      "##_di": 1583,
      "off": 1584,
      "by": 1585,
      "sm": 1586,
      "##_slic": 1587,
      "dprintf": 1588,
      "fs": 1589,
      "\"(": 1590,
      "image": 1591,
      "plane": 1592,
      "##video": 1593,
      "tmp2": 1594,
      "cond": 1595,
      "bytestream2_get": 1596,
      "##_vector": 1597,
      "sample_rate": 1598,
      "##start": 1599,
      "pred": 1600,
      "##header": 1601,
      "map": 1602,
      "##debug": 1603,
      "timer": 1604,
      "##do": 1605,
      "rm": 1606,
      ".\\": 1607,
      "##rag": 1608,
      "strcmp": 1609,
      "blockdriverstate": 1610,
      "%\"": 1611,
      "':": 1612,
      "instruction": 1613,
      "\"))": 1614,
      "vdev": 1615,
      "##eth": 1616,
      "##_rb": 1617,
      "opcode": 1618,
      "vf": 1619,
      "##_timer": 1620,
      "##apsh": 1621,
      "13": 1622,
      "av_d": 1623,
      "thread": 1624,
      "##apshot": 1625,
      "##use": 1626,
      "initrd": 1627,
      "transl": 1628,
      "##_yuv": 1629,
      "page_": 1630,
      "rgb": 1631,
      "##iov": 1632,
      "0x4": 1633,
      "isa": 1634,
      "##_order": 1635,
      "omap": 1636,
      "##_comm": 1637,
      "##xl": 1638,
      "sysbus": 1639,
      "##8x8": 1640,
      "##link": 1641,
      "##tim": 1642,
      "##ine_": 1643,
      "##vert": 1644,
      "qp": 1645,
      "##_sample": 1646,
      "cor": 1647,
      "excp": 1648,
      "##eg": 1649,
      "##_enabled": 1650,
      "##_pointer": 1651,
      "error_report": 1652,
      "##ould": 1653,
      "cp0": 1654,
      "##ration": 1655,
      "##_device_": 1656,
      "##eters": 1657,
      "##urf": 1658,
      "av_freep": 1659,
      "##fn": 1660,
      "##ply": 1661,
      "##__": 1662,
      "##arg": 1663,
      "##cpu": 1664,
      "put_bits": 1665,
      "##ill": 1666,
      "..": 1667,
      "##_1": 1668,
      "##ait": 1669,
      "##uble": 1670,
      "real": 1671,
      "have": 1672,
      "exp": 1673,
      "##_sy": 1674,
      "##mmx": 1675,
      "##_channels": 1676,
      "##nect": 1677,
      "##type": 1678,
      "++){": 1679,
      "##_pci": 1680,
      "part": 1681,
      "phys": 1682,
      "scsi": 1683,
      "##estamp": 1684,
      "int32_t": 1685,
      "##media": 1686,
      "##unction": 1687,
      ")));": 1688,
      "##_host": 1689,
      "##roup": 1690,
      "##ken": 1691,
      "temporary": 1692,
      "errno": 1693,
      "exception": 1694,
      "printf": 1695,
      "0x8": 1696,
      "##lob": 1697,
      "##a2": 1698,
      "##ge_": 1699,
      "encode": 1700,
      "##_decoder": 1701,
      "si": 1702,
      "##26": 1703,
      "##_cap": 1704,
      "nal": 1705,
      "par": 1706,
      "##be": 1707,
      "predict": 1708,
      "bios": 1709,
      "var": 1710,
      "dct": 1711,
      "##drm": 1712,
      "ppc": 1713,
      "##uff": 1714,
      "buffer_size": 1715,
      "##cre": 1716,
      "##sk": 1717,
      "##ile_": 1718,
      "decoder": 1719,
      "pass": 1720,
      "##_skip": 1721,
      "##value": 1722,
      "##_addr_t": 1723,
      "pri": 1724,
      "##col": 1725,
      "'\\": 1726,
      "1024": 1727,
      "##_zero": 1728,
      "##50": 1729,
      "qt": 1730,
      "##lem": 1731,
      "size_t": 1732,
      "##--": 1733,
      "avmedia": 1734,
      "unlock": 1735,
      "avmedia_type_": 1736,
      "},": 1737,
      "byte": 1738,
      "##main": 1739,
      "mp": 1740,
      "offsetof": 1741,
      "processor": 1742,
      "qxl": 1743,
      "av_log_debug": 1744,
      "##book": 1745,
      "px": 1746,
      "##_enc": 1747,
      "##nown": 1748,
      "##ott": 1749,
      "ver": 1750,
      "##_64": 1751,
      "seek": 1752,
      "##_open": 1753,
      "nv": 1754,
      "##raph": 1755,
      "duration": 1756,
      "##rypt": 1757,
      "pref": 1758,
      "##arning": 1759,
      "*/\\": 1760,
      "##_audio": 1761,
      "find": 1762,
      "region": 1763,
      "##_dst": 1764,
      "##log": 1765,
      "dr": 1766,
      "##iron": 1767,
      "##load": 1768,
      "trace_": 1769,
      "user": 1770,
      "ed": 1771,
      "flash": 1772,
      "local_err": 1773,
      "fixme": 1774,
      "xxx": 1775,
      "avfilter": 1776,
      "##trl": 1777,
      "reset": 1778,
      "##utex": 1779,
      "tlb": 1780,
      "##net": 1781,
      "codec_type": 1782,
      "##_cc": 1783,
      "##rosk": 1784,
      "##object": 1785,
      "##_mat": 1786,
      "##_find": 1787,
      "##_trans": 1788,
      "msr": 1789,
      "##ator": 1790,
      "##atio": 1791,
      "cpu_to": 1792,
      "##ironment": 1793,
      "##_bo": 1794,
      "++]": 1795,
      "mm7": 1796,
      "data_size": 1797,
      "got": 1798,
      "##ension": 1799,
      "pm": 1800,
      "##mode": 1801,
      "##bd": 1802,
      "boot": 1803,
      "matrosk": 1804,
      "intra": 1805,
      "reg_": 1806,
      "network": 1807,
      "but": 1808,
      "128": 1809,
      "log2": 1810,
      "##_vp": 1811,
      "tcg_temp_new": 1812,
      "##_rgb": 1813,
      "pointer": 1814,
      "##_debug": 1815,
      "##ific": 1816,
      "##par": 1817,
      "store": 1818,
      "##ifo": 1819,
      "##host": 1820,
      "##roblock": 1821,
      "##descriptor": 1822,
      "##lot": 1823,
      "tci": 1824,
      "')": 1825,
      "coded": 1826,
      "row": 1827,
      "0x7": 1828,
      "operation": 1829,
      "xen": 1830,
      "refcount": 1831,
      "disas": 1832,
      "avformatcontext": 1833,
      "unlock_user": 1834,
      "pict_type": 1835,
      "'%": 1836,
      "##_clock": 1837,
      "##mmu": 1838,
      "bitstream": 1839,
      "##_rate": 1840,
      "ds": 1841,
      "debug": 1842,
      "##_abort": 1843,
      "could": 1844,
      "den": 1845,
      "non": 1846,
      "##not": 1847,
      "backing": 1848,
      "fw": 1849,
      "##_copy": 1850,
      "##_pts": 1851,
      "##_const": 1852,
      "g_malloc": 1853,
      "segment": 1854,
      "##tit": 1855,
      "##_layout": 1856,
      "qemu_opt": 1857,
      "##mplemented": 1858,
      "##quant": 1859,
      "blocks": 1860,
      "url": 1861,
      "##tp": 1862,
      "zero": 1863,
      "##_excp": 1864,
      "virtual": 1865,
      "##go": 1866,
      "matroska": 1867,
      "##_4": 1868,
      "##ran": 1869,
      "##_store": 1870,
      "source_": 1871,
      "memoryregion": 1872,
      "##_0": 1873,
      "##sum": 1874,
      "##_word": 1875,
      "cpu_src": 1876,
      "mips": 1877,
      "que": 1878,
      "asf": 1879,
      "##db": 1880,
      "##eter": 1881,
      "image_": 1882,
      "##apping": 1883,
      "frames": 1884,
      "##tb": 1885,
      "##_gen": 1886,
      "##oll": 1887,
      "target_page_": 1888,
      "##_level": 1889,
      "##uth": 1890,
      "##_blocks": 1891,
      "ld": 1892,
      "##_matrix": 1893,
      "mc": 1894,
      "palet": 1895,
      "##_pixels_tab": 1896,
      "##_coeff": 1897,
      "##_opts": 1898,
      "lock_user": 1899,
      "double": 1900,
      "##_qu": 1901,
      "##_and": 1902,
      "cpu_tmp": 1903,
      "##dp": 1904,
      "block_state": 1905,
      "##linesize": 1906,
      "##init": 1907,
      "##_loop": 1908,
      "mod": 1909,
      "##_aio": 1910,
      "dma": 1911,
      ")\\": 1912,
      "va": 1913,
      "##chr": 1914,
      "sr": 1915,
      "##_next": 1916,
      "##_thread": 1917,
      ")]": 1918,
      "##eta": 1919,
      "##ious": 1920,
      "step": 1921,
      "avframe": 1922,
      "##_sample_": 1923,
      "##length": 1924,
      "##known": 1925,
      "##_chunk": 1926,
      "##leg": 1927,
      "tcg_out": 1928,
      "##card": 1929,
      "##_band": 1930,
      "##_scal": 1931,
      "##arch": 1932,
      "##_chroma": 1933,
      "##": 1934,
      "ti": 1935,
      "##_event": 1936,
      "machine": 1937,
      "(((": 1938,
      "31": 1939,
      "\\\"": 1940,
      "should": 1941,
      "##ute": 1942,
      "[(": 1943,
      "##_pkt": 1944,
      "##ake": 1945,
      "server": 1946,
      "line": 1947,
      "##led": 1948,
      "stream_index": 1949,
      "tcg_gen_mov": 1950,
      "prot": 1951,
      "obj": 1952,
      "##o_cpu": 1953,
      "##sub": 1954,
      "##_model": 1955,
      "resp": 1956,
      "##_at": 1957,
      "##ian": 1958,
      "##i32": 1959,
      "##ware": 1960,
      "##ugh": 1961,
      "##xy": 1962,
      "dts": 1963,
      "##_of": 1964,
      "cle": 1965,
      "page": 1966,
      "##c1": 1967,
      "##usters": 1968,
      "##_interrupt": 1969,
      "##>>": 1970,
      "dec": 1971,
      "reference": 1972,
      "environment": 1973,
      "##regs": 1974,
      ")*": 1975,
      "one": 1976,
      "mm5": 1977,
      "monitor": 1978,
      "##ptions": 1979,
      "alpha": 1980,
      "tcg_temp_free_": 1981,
      "##ark": 1982,
      "fc": 1983,
      "##inal": 1984,
      "##_h264": 1985,
      "qcow2": 1986,
      "##000000": 1987,
      "##rid": 1988,
      "spec": 1989,
      "##all": 1990,
      "acb": 1991,
      "##56": 1992,
      "##register": 1993,
      "frame_size": 1994,
      "##lomb": 1995,
      "my": 1996,
      "##2000": 1997,
      "##vc": 1998,
      "14": 1999,
      "ht": 2000,
      "##ds": 2001,
      "##height": 2002,
      "##pic": 2003,
      "##pio": 2004,
      "##_path": 2005,
      "##fp": 2006,
      "##erand": 2007,
      "##lect": 2008,
      "cf": 2009,
      "##_align": 2010,
      "slice": 2011,
      "mult": 2012,
      "##ef": 2013,
      "sws": 2014,
      "scan8": 2015,
      "##ailable": 2016,
      "##dis": 2017,
      "##iss": 2018,
      "##fdt": 2019,
      "##audio": 2020,
      "##_control": 2021,
      "...": 2022,
      "send": 2023,
      "##_port": 2024,
      "==,": 2025,
      "##_array": 2026,
      "mig": 2027,
      "section": 2028,
      "supported": 2029,
      "img": 2030,
      "##erver": 2031,
      "fill": 2032,
      "##_flush": 2033,
      "short": 2034,
      "tx": 2035,
      "##_ratio": 2036,
      "##_qp": 2037,
      "##2c": 2038,
      "##mul": 2039,
      "##dup": 2040,
      "link": 2041,
      "found": 2042,
      "sum": 2043,
      "_fdt": 2044,
      "##lobal": 2045,
      "il": 2046,
      "type_": 2047,
      "##band": 2048,
      "vol": 2049,
      "ph": 2050,
      "depth": 2051,
      "qemu_get": 2052,
      "##resh": 2053,
      "g_assert_cmp": 2054,
      "prop": 2055,
      "translation": 2056,
      "##rr": 2057,
      "initialize_": 2058,
      ")[": 2059,
      "##_off": 2060,
      "delta": 2061,
      "##0000000": 2062,
      "##apt": 2063,
      "mb_type_": 2064,
      "string": 2065,
      "inline": 2066,
      "##_state_": 2067,
      "update_": 2068,
      "512": 2069,
      "##legal": 2070,
      "format_context": 2071,
      "serial": 2072,
      "qemu_opt_get": 2073,
      "##_bs": 2074,
      "##ther": 2075,
      "params": 2076,
      "fmt": 2077,
      "##param": 2078,
      "define": 2079,
      "metadata": 2080,
      "direct": 2081,
      "##_lock": 2082,
      "##_create_": 2083,
      "##_printf": 2084,
      "##lac": 2085,
      "modrm": 2086,
      "too": 2087,
      "label": 2088,
      "##sw": 2089,
      "pt": 2090,
      "qobject": 2091,
      "##_so": 2092,
      "##_buffer_size": 2093,
      "##core": 2094,
      "pack": 2095,
      "##_t0": 2096,
      "av_no": 2097,
      "##ange_": 2098,
      "##_3": 2099,
      "##ause": 2100,
      "uvlinesize": 2101,
      "v9fs": 2102,
      "##_sign": 2103,
      "##_delay": 2104,
      "ep": 2105,
      "##ics": 2106,
      "cpu_state": 2107,
      "##_video": 2108,
      "##eded": 2109,
      "##pts_value": 2110,
      "bits_per": 2111,
      "##_dir": 2112,
      "##api": 2113,
      "##_create": 2114,
      "##_pcm": 2115,
      "av_nopts_value": 2116,
      "##dent": 2117,
      "##pcm": 2118,
      "ro": 2119,
      "##ree": 2120,
      "unknown": 2121,
      "##15": 2122,
      "must": 2123,
      "nb_streams": 2124,
      "##_params": 2125,
      "used": 2126,
      "snprintf": 2127,
      "--;": 2128,
      "vga": 2129,
      "##_rl32": 2130,
      "av_picture": 2131,
      "vb": 2132,
      "##fx": 2133,
      "##inter": 2134,
      "illegal": 2135,
      "att": 2136,
      "high": 2137,
      "hwaddr": 2138,
      "oc": 2139,
      "##e_s": 2140,
      "##_link": 2141,
      "##_from": 2142,
      "##_back": 2143,
      "idct": 2144,
      "cbp": 2145,
      "system": 2146,
      "vlc": 2147,
      "##_cfg": 2148,
      "avpkt": 2149,
      "##pect_ratio": 2150,
      "xb": 2151,
      "##_mutex": 2152,
      "##16x": 2153,
      "skip_bits": 2154,
      "##golomb": 2155,
      "t2": 2156,
      "##formation": 2157,
      "(;": 2158,
      "##agic": 2159,
      "output_stream": 2160,
      "strlen": 2161,
      "##_opc": 2162,
      "##263": 2163,
      "##ending": 2164,
      "##align": 2165,
      "##_mpeg": 2166,
      "##ither": 2167,
      "delay": 2168,
      "operand": 2169,
      "##ik": 2170,
      "##word": 2171,
      "cc_op": 2172,
      "##\");": 2173,
      "##uc": 2174,
      "##idx": 2175,
      "signal": 2176,
      "conn": 2177,
      "##e_golomb": 2178,
      "##string": 2179,
      "##390": 2180,
      "use_": 2181,
      "arguments": 2182,
      "model": 2183,
      "avpacket": 2184,
      "ffmin": 2185,
      "##ll": 2186,
      "##_desc": 2187,
      "cpustate": 2188,
      "av_picture_type_": 2189,
      "sample": 2190,
      "iv": 2191,
      "##_none": 2192,
      "##_cluster": 2193,
      "rom": 2194,
      "##eric": 2195,
      "##req": 2196,
      "show": 2197,
      "##_strdup": 2198,
      "##entries": 2199,
      "##_position": 2200,
      "##ise": 2201,
      "##_cp": 2202,
      "##_exp": 2203,
      "raw": 2204,
      "!(": 2205,
      "(\"%": 2206,
      "##ethod": 2207,
      "support": 2208,
      "window": 2209,
      "##_files": 2210,
      "cap": 2211,
      "##qui": 2212,
      "previous": 2213,
      "%[": 2214,
      "##ence_": 2215,
      "##e_table": 2216,
      "##_node": 2217,
      "##abil": 2218,
      "##ns": 2219,
      "##gress": 2220,
      "mmu": 2221,
      "sdl": 2222,
      "av_get": 2223,
      "arm_feature": 2224,
      "##_32": 2225,
      "pixels": 2226,
      "extradata_size": 2227,
      "powerpc_excp": 2228,
      "yuv": 2229,
      "##rop": 2230,
      "##_regs": 2231,
      "psr": 2232,
      "parent": 2233,
      "plan": 2234,
      "##number": 2235,
      "bitmap": 2236,
      "##ish": 2237,
      "sch": 2238,
      "reg_a": 2239,
      "sync": 2240,
      "##_version": 2241,
      "print": 2242,
      "##_uint": 2243,
      "##ragment": 2244,
      "vd": 2245,
      "##wd": 2246,
      "##write": 2247,
      "0xffff": 2248,
      "register_decoder": 2249,
      "rb": 2250,
      "sbr": 2251,
      "##raw": 2252,
      "##****": 2253,
      "now": 2254,
      "sock": 2255,
      "##_handler": 2256,
      "align": 2257,
      "macroblock": 2258,
      "x86": 2259,
      "##way": 2260,
      "##erved": 2261,
      "table_": 2262,
      "##thread": 2263,
      "##_seg": 2264,
      "avio_w": 2265,
      "exec": 2266,
      "codebook": 2267,
      "group": 2268,
      "##_cur": 2269,
      "##_ra": 2270,
      "##sert": 2271,
      "##etch": 2272,
      "rtsp": 2273,
      "##_depth": 2274,
      "##laced": 2275,
      "##ized": 2276,
      "##_mmx": 2277,
      "##_po": 2278,
      "driver": 2279,
      "##_line": 2280,
      "##_run": 2281,
      "will": 2282,
      "dp": 2283,
      "++,": 2284,
      "##atile": 2285,
      "writ": 2286,
      "##rt": 2287,
      "##_ret": 2288,
      "pxa2": 2289,
      "efault": 2290,
      "##_default": 2291,
      "todo": 2292,
      "any": 2293,
      "##min": 2294,
      "##00000": 2295,
      "##status": 2296,
      "feature": 2297,
      "job": 2298,
      "##old": 2299,
      "##_net": 2300,
      "don": 2301,
      "mpe": 2302,
      "##_act": 2303,
      "##ization": 2304,
      "[]": 2305,
      "pfl": 2306,
      "parameters": 2307,
      "snapshot": 2308,
      "##_xy": 2309,
      "range": 2310,
      "tswap": 2311,
      "##ont": 2312,
      "##_dirty": 2313,
      "##e_type": 2314,
      "respon": 2315,
      "have_": 2316,
      "parse_": 2317,
      "##20": 2318,
      "update": 2319,
      "gl": 2320,
      "##ayload": 2321,
      "','": 2322,
      "mm6": 2323,
      "##_update_": 2324,
      "best": 2325,
      "##ely": 2326,
      "##_rect": 2327,
      "prid": 2328,
      "extract": 2329,
      "##_rd": 2330,
      "target_phys": 2331,
      "does": 2332,
      "##_le16": 2333,
      "sb": 2334,
      "vq": 2335,
      "flush": 2336,
      "##ereo": 2337,
      "av_re": 2338,
      "##_iov": 2339,
      "##_rb32": 2340,
      "##_label": 2341,
      "0x10": 2342,
      "##_only": 2343,
      "##quence": 2344,
      "##icient": 2345,
      "descriptor": 2346,
      "##_hw": 2347,
      "##_loop_filter": 2348,
      "os": 2349,
      "##_req": 2350,
      "tci_read": 2351,
      "av_mallocz": 2352,
      "dx": 2353,
      "##used": 2354,
      "##tern": 2355,
      "##lete": 2356,
      "##orm": 2357,
      "verify": 2358,
      "vl": 2359,
      "##_features": 2360,
      "target_phys_addr_t": 2361,
      "scale": 2362,
      "##event": 2363,
      "vc1": 2364,
      "orig": 2365,
      "##48": 2366,
      "qscale": 2367,
      "##angle": 2368,
      "bad": 2369,
      "##channel": 2370,
      "##55": 2371,
      "02": 2372,
      "af": 2373,
      "##mple": 2374,
      "##hd": 2375,
      "##state_": 2376,
      "avstream": 2377,
      "visitor": 2378,
      "padd": 2379,
      "##warning": 2380,
      "##_target": 2381,
      "##_vfp": 2382,
      "nb_sectors": 2383,
      "drv": 2384,
      "##arser": 2385,
      "):": 2386,
      "bl": 2387,
      "##_physical": 2388,
      "close": 2389,
      "free": 2390,
      "##_send": 2391,
      "av_log_warning": 2392,
      "av_pix_fmt_yuv": 2393,
      "##gin": 2394,
      "async": 2395,
      "ident": 2396,
      "sa": 2397,
      "##ias": 2398,
      "graph": 2399,
      "##yv": 2400,
      "valid": 2401,
      "movd": 2402,
      "flo": 2403,
      "stor": 2404,
      "handle": 2405,
      "gen_op_mov": 2406,
      "dv": 2407,
      "##max": 2408,
      "##sor": 2409,
      "##seg": 2410,
      "##ache_": 2411,
      "rtas": 2412,
      "##_perm": 2413,
      "done": 2414,
      "##34": 2415,
      "##_over": 2416,
      "conf": 2417,
      "##_idct": 2418,
      "##reen": 2419,
      "prefix": 2420,
      "##decode": 2421,
      "gen_load": 2422,
      "element": 2423,
      "ig": 2424,
      "timestamp": 2425,
      "##_socket": 2426,
      "codeccontext": 2427,
      "##ached": 2428,
      "##_initial": 2429,
      "##move": 2430,
      "full": 2431,
      "mr": 2432,
      "pc_start": 2433,
      "##ified": 2434,
      "av_dict": 2435,
      "##_command": 2436,
      "mb_height": 2437,
      "##_queue_": 2438,
      "prid64": 2439,
      "##ces": 2440,
      "##_non": 2441,
      "##maining": 2442,
      "##_vp8": 2443,
      "vt": 2444,
      "flag": 2445,
      "##sv": 2446,
      "##oth": 2447,
      "##accel": 2448,
      "##aster": 2449,
      "pad": 2450,
      "##_it": 2451,
      "##ression": 2452,
      "##essage": 2453,
      "encoder": 2454,
      "##_sample_fmt": 2455,
      "##_file_": 2456,
      "task": 2457,
      "##vt": 2458,
      "sectors": 2459,
      "##ped": 2460,
      "##_ts": 2461,
      "tb_ptr": 2462,
      "##_be16": 2463,
      "sf": 2464,
      "byte_": 2465,
      "g_malloc0": 2466,
      "qlist": 2467,
      "##ich": 2468,
      "##ision": 2469,
      "~(": 2470,
      "##cul": 2471,
      "there": 2472,
      "##_x86": 2473,
      "##_image_": 2474,
      "round": 2475,
      "##irror": 2476,
      "##fore": 2477,
      "##_msa": 2478,
      "rl": 2479,
      "0x80": 2480,
      "##lback": 2481,
      "target_sig": 2482,
      "##_exit": 2483,
      "drive": 2484,
      "hard": 2485,
      "##dsp": 2486,
      "##_sync": 2487,
      "##_float": 2488,
      "##ute_": 2489,
      "##ansp": 2490,
      "##_clip": 2491,
      "sector_num": 2492,
      "##se_": 2493,
      "##atal": 2494,
      "reslevel": 2495,
      "acpi": 2496,
      "##title": 2497,
      "##mc": 2498,
      "##src": 2499,
      "block_size": 2500,
      "##ffffff": 2501,
      "condition": 2502,
      "##ick": 2503,
      "codecpar": 2504,
      "aac": 2505,
      "##base": 2506,
      "##hand": 2507,
      "())": 2508,
      "##16x16": 2509,
      "decoded": 2510,
      "queue": 2511,
      "spe": 2512,
      "##attr": 2513,
      "common": 2514,
      "##eight": 2515,
      "rec": 2516,
      "pci_dev": 2517,
      "program": 2518,
      "##_size_": 2519,
      "##cmp": 2520,
      "##_parse_": 2521,
      "##_motion": 2522,
      "##packet": 2523,
      "vhost": 2524,
      "##aspect_ratio": 2525,
      "##_lum": 2526,
      "devicestate": 2527,
      "##ressed": 2528,
      "##x4": 2529,
      "information": 2530,
      "##ailq": 2531,
      "mapping": 2532,
      "ram_size": 2533,
      "##time": 2534,
      "nc": 2535,
      "sin": 2536,
      "##_chr": 2537,
      "component": 2538,
      "contain": 2539,
      "18": 2540,
      "##ages": 2541,
      "##_low": 2542,
      "##_neon": 2543,
      "tile": 2544,
      "iter": 2545,
      "##ank": 2546,
      "bit_context": 2547,
      "func": 2548,
      "##ingle": 2549,
      "cannot": 2550,
      "##ame_": 2551,
      "##ice": 2552,
      "##_mips": 2553,
      "second": 2554,
      "##_connect": 2555,
      "may": 2556,
      "cpu_dst": 2557,
      "register_name": 2558,
      "vp8": 2559,
      "elf": 2560,
      "##_has": 2561,
      "##oriz": 2562,
      "##order": 2563,
      "##rib": 2564,
      "eio": 2565,
      "target_fmt": 2566,
      "##shift": 2567,
      "##_asm": 2568,
      "##inish": 2569,
      "allocate": 2570,
      "##i_i32": 2571,
      "col": 2572,
      "##unp": 2573,
      "pte": 2574,
      "pxa2xx": 2575,
      "##flow": 2576,
      "19": 2577,
      "work": 2578,
      "##_pri": 2579,
      "##_priv": 2580,
      "##_args": 2581,
      "##ways": 2582,
      "##_gpio": 2583,
      "##_ppc": 2584,
      "disk": 2585,
      "255": 2586,
      "##_present": 2587,
      "proxy": 2588,
      "--)": 2589,
      "here": 2590,
      "##_clusters": 2591,
      "##crement": 2592,
      "jpeg": 2593,
      "rw": 2594,
      "##implemented": 2595,
      "qemu_irq": 2596,
      "object_property": 2597,
      "cs_base": 2598,
      "me": 2599,
      "##cap": 2600,
      "##rection": 2601,
      "##_update": 2602,
      "nr": 2603,
      "##_bitmap": 2604,
      "av_frame_": 2605,
      "rdma": 2606,
      "##pix": 2607,
      "coord": 2608,
      "##_fp": 2609,
      "##_mc": 2610,
      "##reshold": 2611,
      "imm": 2612,
      "##imum": 2613,
      "##32_to_cpu": 2614,
      "##_fifo": 2615,
      "##_reg_": 2616,
      "head": 2617,
      "prob": 2618,
      "40": 2619,
      "cpu_gpr": 2620,
      "##unpck": 2621,
      "mb_stride": 2622,
      "when": 2623,
      "which": 2624,
      "##tab": 2625,
      "##_tmp": 2626,
      "##_qemu": 2627,
      "##ses": 2628,
      "##otocol": 2629,
      "entries": 2630,
      "perform": 2631,
      "file_descriptor": 2632,
      "##back": 2633,
      "avg": 2634,
      "abs": 2635,
      "mxf": 2636,
      "vfio": 2637,
      "punpck": 2638,
      "##ccontext": 2639,
      "memory_region_init": 2640,
      "##_entries": 2641,
      "pp": 2642,
      "reserved": 2643,
      "elem": 2644,
      "##ting": 2645,
      "##_tell": 2646,
      "stop": 2647,
      "handle_": 2648,
      "##ames": 2649,
      "bdrv_sector": 2650,
      "##_jmp": 2651,
      "ffmax": 2652,
      "qiov": 2653,
      "##ty": 2654,
      "##_le32": 2655,
      "sample_aspect_ratio": 2656,
      "mb_width": 2657,
      "('": 2658,
      "\\\\": 2659,
      "]+": 2660,
      "match": 2661,
      "av_sample_fmt": 2662,
      "##_vm": 2663,
      "b1": 2664,
      "rece": 2665,
      "##asl": 2666,
      "class": 2667,
      "cache": 2668,
      "##_close": 2669,
      "size_": 2670,
      "##_window": 2671,
      "##pre": 2672,
      "##_exception": 2673,
      "##ba": 2674,
      "##i_tl": 2675,
      "##sty": 2676,
      "tcg_temp_free_i32": 2677,
      "##eed": 2678,
      "enum": 2679,
      "##_pal": 2680,
      "##_physical_memory": 2681,
      "##cd": 2682,
      "##se2": 2683,
      "tcg_cond": 2684,
      "##420": 2685,
      "##_mul": 2686,
      "##ertical": 2687,
      "##acter": 2688,
      "##ranch": 2689,
      "bit_rate": 2690,
      "##_cle": 2691,
      "##_ctrl": 2692,
      "c4": 2693,
      "02x": 2694,
      "##mit": 2695,
      "##key": 2696,
      "convert": 2697,
      "clip": 2698,
      "prix": 2699,
      "arg4": 2700,
      "fram": 2701,
      "lpc": 2702,
      "##lease": 2703,
      "##uto": 2704,
      "##_dts": 2705,
      "##_prec": 2706,
      "mb_xy": 2707,
      "bytestream_get": 2708,
      "g_new": 2709,
      "##ikely": 2710,
      "tp": 2711,
      "##pci": 2712,
      "##ottom": 2713,
      "dim": 2714,
      "div": 2715,
      "##abs": 2716,
      "##_ue_golomb": 2717,
      "create": 2718,
      "migration": 2719,
      "##path": 2720,
      "##ended": 2721,
      "0x01": 2722,
      "media": 2723,
      "tcg_target": 2724,
      "##_space_": 2725,
      "b2": 2726,
      "surf": 2727,
      "loop": 2728,
      "palette": 2729,
      "a1": 2730,
      "isc": 2731,
      "##_structure": 2732,
      "other": 2733,
      "]))": 2734,
      "##bml": 2735,
      "rect": 2736,
      "volatile": 2737,
      "pdu": 2738,
      "sel": 2739,
      "core": 2740,
      "gen_store": 2741,
      "rtp": 2742,
      "##_linesize": 2743,
      "tm": 2744,
      "codec_tag": 2745,
      "##aved": 2746,
      "ioc": 2747,
      "cpu_src1": 2748,
      "y1": 2749,
      "##_values": 2750,
      "##prop": 2751,
      "##access": 2752,
      "response": 2753,
      "##erate": 2754,
      "##_pad": 2755,
      "##_fpr": 2756,
      "##_color": 2757,
      "sec": 2758,
      "##_unit": 2759,
      "prec": 2760,
      "hdr": 2761,
      "0xe": 2762,
      "array": 2763,
      "bin": 2764,
      "##actor": 2765,
      "##_do": 2766,
      "bd": 2767,
      "codec_flag": 2768,
      "abort": 2769,
      "##_encode": 2770,
      "aml": 2771,
      "mirror": 2772,
      "devic": 2773,
      "##_dma": 2774,
      "magic": 2775,
      "cpuid": 2776,
      "\"),": 2777,
      "xhci": 2778,
      "##pack": 2779,
      "##_first": 2780,
      "##128": 2781,
      "qdev_get": 2782,
      "##down": 2783,
      "qemu_log": 2784,
      "i2c": 2785,
      "slot": 2786,
      "text": 2787,
      "neon": 2788,
      "##_cor": 2789,
      "##_fore": 2790,
      "##_cpus": 2791,
      "##ose": 2792,
      "*)(": 2793,
      "##_predict": 2794,
      "g_strdup": 2795,
      "##_test": 2796,
      "##arc": 2797,
      "##alpha": 2798,
      "##_dest": 2799,
      "error_abort": 2800,
      "time_": 2801,
      "##fe": 2802,
      "##alf": 2803,
      "child": 2804,
      "cluster_size": 2805,
      "##_last": 2806,
      "internal": 2807,
      ").": 2808,
      "unsupported": 2809,
      "##ready": 2810,
      "##_seek": 2811,
      "##r0": 2812,
      "base_": 2813,
      "##arm": 2814,
      "requi": 2815,
      "##_direct": 2816,
      "##_luma": 2817,
      "mkt": 2818,
      "tcg_temp_free": 2819,
      "##_job": 2820,
      "g_assert_cmpint": 2821,
      "b3": 2822,
      "fr": 2823,
      "##x86": 2824,
      "##row": 2825,
      "differ": 2826,
      "##_slice": 2827,
      "gic": 2828,
      "##_client": 2829,
      "##422": 2830,
      "rate": 2831,
      "single": 2832,
      "##_bgr": 2833,
      "##_nb": 2834,
      "try": 2835,
      "##socket": 2836,
      "##oft": 2837,
      "atom": 2838,
      "bar": 2839,
      "av_clip": 2840,
      "##open": 2841,
      "op1": 2842,
      "bdrv_get": 2843,
      "fp0": 2844,
      "lib": 2845,
      "##plic": 2846,
      "##outine_": 2847,
      "extra": 2848,
      "##endor": 2849,
      "payload": 2850,
      "tw": 2851,
      "##input": 2852,
      "##otpl": 2853,
      "##_subregion": 2854,
      "##ward": 2855,
      "##_mo": 2856,
      "0x0000": 2857,
      "##_rt": 2858,
      "unit": 2859,
      "rrr": 2860,
      "##_8": 2861,
      "##rate_": 2862,
      "##rott": 2863,
      "##e_f": 2864,
      "order": 2865,
      "mktag": 2866,
      "hevc": 2867,
      "avio_rl32": 2868,
      "mark": 2869,
      "s1": 2870,
      "##control": 2871,
      "cpu_model": 2872,
      ")){": 2873,
      "block_index": 2874,
      "rs2": 2875,
      "##_foreach": 2876,
      ")->": 2877,
      "bpp": 2878,
      "##dct": 2879,
      "##fc": 2880,
      "##_s16": 2881,
      "##_mmio": 2882,
      "##bitcontext": 2883,
      "partition": 2884,
      "iscsi": 2885,
      "tcg_gen_ext": 2886,
      "##_edge": 2887,
      "##dest": 2888,
      "##_stop": 2889,
      "##_rx": 2890,
      "##_conf": 2891,
      "*)&": 2892,
      "hardware": 2893,
      "dict": 2894,
      "##_cf": 2895,
      "##apped": 2896,
      "##_mmu": 2897,
      "__asm": 2898,
      "wait": 2899,
      "##_ri": 2900,
      "pi": 2901,
      "##_queue": 2902,
      "predictor": 2903,
      "td": 2904,
      "##40": 2905,
      "##sock": 2906,
      "##_function": 2907,
      "sv": 2908,
      "av_log_info": 2909,
      "##fds": 2910,
      "##cache": 2911,
      "mpegen": 2912,
      "##_hdr": 2913,
      "transfer": 2914,
      "tiff": 2915,
      "token": 2916,
      "\"\\\"": 2917,
      "##cept": 2918,
      "##orizont": 2919,
      "##opts": 2920,
      "##erial": 2921,
      "avpriv": 2922,
      "##509": 2923,
      "##rough": 2924,
      "##acy": 2925,
      "pd": 2926,
      "##30": 2927,
      "##sel": 2928,
      "cpux86": 2929,
      "stri": 2930,
      "luma": 2931,
      "##_cal": 2932,
      "tcg_ctx": 2933,
      "temp1": 2934,
      "abi": 2935,
      "cpux86state": 2936,
      "ctrl": 2937,
      "qio": 2938,
      "##anup": 2939,
      "tls": 2940,
      "##ime": 2941,
      "';": 2942,
      "##_sn": 2943,
      "nd": 2944,
      "##_point": 2945,
      "##_quant": 2946,
      "##orizontal": 2947,
      "dirty": 2948,
      "src1": 2949,
      "##_unref": 2950,
      "diff": 2951,
      "##den": 2952,
      "identifier": 2953,
      "eax": 2954,
      "##store": 2955,
      "0x1f": 2956,
      "clear": 2957,
      ")>>": 2958,
      "drive_": 2959,
      "x4": 2960,
      "tcg_const": 2961,
      "iommu": 2962,
      "call": 2963,
      "c1": 2964,
      "##virt": 2965,
      "edge": 2966,
      "pe": 2967,
      "##mary": 2968,
      "##jpeg": 2969,
      "##inance": 2970,
      "17": 2971,
      "##_part": 2972,
      "##_page": 2973,
      "##_mt": 2974,
      "##roy": 2975,
      "tcg_gen_and": 2976,
      "##444": 2977,
      "some": 2978,
      "s390": 2979,
      "##1000": 2980,
      "##_program": 2981,
      "qtailq": 2982,
      "am": 2983,
      "##_el": 2984,
      "ast": 2985,
      "##ency": 2986,
      "mis": 2987,
      "create_": 2988,
      "##ount": 2989,
      "channel_layout": 2990,
      "##_scan": 2991,
      "just": 2992,
      "##_setup": 2993,
      "ev": 2994,
      "##son": 2995,
      "##_row": 2996,
      "limit": 2997,
      "##_16": 2998,
      "##yuv": 2999,
      "##==": 3000,
      "##exception": 3001,
      "using": 3002,
      "file_index": 3003,
      "xbf": 3004,
      "(-": 3005,
      "bp": 3006,
      "encoding": 3007,
      "reg_b": 3008,
      "msix": 3009,
      "ter": 3010,
      "gen_opc": 3011,
      "registers": 3012,
      "fdt_property": 3013,
      "igno": 3014,
      "##alt": 3015,
      "##_limit": 3016,
      "##ise_": 3017,
      "ff_m": 3018,
      "disascontext": 3019,
      "cpl": 3020,
      "qc": 3021,
      "##ren": 3022,
      "mpegenccontext": 3023,
      "tt": 3024,
      "##_a0": 3025,
      "##vid": 3026,
      "##_top": 3027,
      "remaining": 3028,
      "connection": 3029,
      "function": 3030,
      "##sid": 3031,
      "ehci": 3032,
      "than": 3033,
      "]));": 3034,
      "filter_mb": 3035,
      "dist": 3036,
      "right": 3037,
      "##_cr": 3038,
      "##_signal": 3039,
      "cpu_tmp0": 3040,
      "controller": 3041,
      "##_ops": 3042,
      "src2": 3043,
      "backup": 3044,
      "memory_region_add": 3045,
      "##frame_": 3046,
      "##_cell": 3047,
      "counter": 3048,
      "fixed": 3049,
      "##ng": 3050,
      "##usb": 3051,
      "memory_region_add_subregion": 3052,
      "auth": 3053,
      "ics": 3054,
      "qmp": 3055,
      "##aio": 3056,
      "##_real": 3057,
      "##_insert": 3058,
      "##simple": 3059,
      "##420p": 3060,
      "g2": 3061,
      "msi": 3062,
      "##_sr": 3063,
      "##ie": 3064,
      "##_unlock": 3065,
      "__msa": 3066,
      "note": 3067,
      "##gid": 3068,
      "##ution": 3069,
      "a2": 3070,
      "##float": 3071,
      "cpu_r": 3072,
      ">>=": 3073,
      "gen_helper_f": 3074,
      "a0": 3075,
      "mk": 3076,
      "##_msr": 3077,
      "blocksize": 3078,
      "always": 3079,
      "cmp": 3080,
      "emul": 3081,
      "##fc0": 3082,
      "##_get_bits": 3083,
      "##ible": 3084,
      "##ansport": 3085,
      "##ynam": 3086,
      "avmedia_type_video": 3087,
      "features": 3088,
      "cm": 3089,
      "##mux": 3090,
      "0x6": 3091,
      "scsw": 3092,
      "##rypto": 3093,
      "##rou": 3094,
      "attr": 3095,
      "man": 3096,
      "##request": 3097,
      "##_scale": 3098,
      "p2": 3099,
      "##lt": 3100,
      "nb_samples": 3101,
      "##_coded": 3102,
      "##uality": 3103,
      "feed": 3104,
      "##desc": 3105,
      "inet": 3106,
      "##_ns": 3107,
      "values": 3108,
      "qemu_put": 3109,
      "##queue": 3110,
      "character": 3111,
      "priu": 3112,
      "##_poc": 3113,
      "##filtersize": 3114,
      "pid": 3115,
      "present": 3116,
      "tv": 3117,
      "##fff": 3118,
      "target_nr_get": 3119,
      "]*": 3120,
      "bytestream2_get_byte": 3121,
      "##pend": 3122,
      "##_dec": 3123,
      "##_delta": 3124,
      "##diff": 3125,
      "##memory": 3126,
      "av_opt": 3127,
      "available": 3128,
      "##_sw": 3129,
      "decoding": 3130,
      "##isitor": 3131,
      "allow": 3132,
      "b0": 3133,
      "##_sour": 3134,
      "##_ver": 3135,
      "setup": 3136,
      "rtc": 3137,
      "##config": 3138,
      "cy": 3139,
      "##_mach": 3140,
      "already": 3141,
      "profile": 3142,
      "##_all": 3143,
      "!!": 3144,
      "##pected": 3145,
      "msg": 3146,
      "lock_user_string": 3147,
      "tap": 3148,
      "##cast": 3149,
      "##attern": 3150,
      "##_operation": 3151,
      "##ynamic": 3152,
      "pand": 3153,
      "rv": 3154,
      "pcidevice": 3155,
      "jpeg2000": 3156,
      "before": 3157,
      "**)": 3158,
      "local_error": 3159,
      "coefficient": 3160,
      "##te_": 3161,
      "\",\"": 3162,
      "##imm": 3163,
      "##_space": 3164,
      "db": 3165,
      "same": 3166,
      "rem": 3167,
      "total_sectors": 3168,
      "avs": 3169,
      "##abac": 3170,
      "v16": 3171,
      "##head": 3172,
      "##_options": 3173,
      "chrom": 3174,
      "strnc": 3175,
      "##_ir": 3176,
      "begin": 3177,
      "##anged": 3178,
      "initialize": 3179,
      "08x": 3180,
      "fb": 3181,
      "##aces": 3182,
      "##_qpel": 3183,
      "avio_rb32": 3184,
      "calcul": 3185,
      "cpu_src2": 3186,
      "##ionary": 3187,
      "interlaced": 3188,
      "##_scsi": 3189,
      "##free": 3190,
      "ff_h264": 3191,
      "##okup": 3192,
      "##_iovec": 3193,
      "*=": 3194,
      "__func": 3195,
      "##uccess": 3196,
      "##_raw": 3197,
      "\"\\\"\\": 3198,
      "point": 3199,
      "select": 3200,
      "temp2": 3201,
      "##_mb_type": 3202,
      "21": 3203,
      "##_head": 3204,
      "handler": 3205,
      "/%": 3206,
      "##rgb": 3207,
      "##mpeg": 3208,
      "##----": 3209,
      "##ytes": 3210,
      "spr_no": 3211,
      "##_track": 3212,
      "##pixel": 3213,
      "__func__": 3214,
      "spr_noaccess": 3215,
      "fragment": 3216,
      "##_brid": 3217,
      "arch": 3218,
      "perm": 3219,
      "##_plane": 3220,
      "22": 3221,
      "i8": 3222,
      "##ule": 3223,
      "tcp": 3224,
      "property": 3225,
      "ib": 3226,
      "##_em": 3227,
      "##_par": 3228,
      "##_encoder": 3229,
      "0x0f": 3230,
      "##_bands": 3231,
      "vp56": 3232,
      "seek_set": 3233,
      "x80": 3234,
      "##ret": 3235,
      "needed": 3236,
      "##step": 3237,
      "##_fpu": 3238,
      "##_round": 3239,
      "##_by": 3240,
      "unimplemented": 3241,
      "was": 3242,
      "##ared": 3243,
      "##_system": 3244,
      "##4x4": 3245,
      "cursor": 3246,
      ")];": 3247,
      "##frames": 3248,
      "##_handle_": 3249,
      "bc": 3250,
      "ic": 3251,
      "##ring": 3252,
      "cpus": 3253,
      "##_timestamp": 3254,
      "[-": 3255,
      "clock": 3256,
      "##_8x8": 3257,
      "##dt": 3258,
      "##_var": 3259,
      "fid": 3260,
      "##_am": 3261,
      "getbitcontext": 3262,
      "av_dlog": 3263,
      "go": 3264,
      "smb": 3265,
      "##_mod": 3266,
      "inst": 3267,
      "get_ue_golomb": 3268,
      "pci_bus": 3269,
      "av_assert": 3270,
      "##_pa": 3271,
      "block_align": 3272,
      "post": 3273,
      "##_mult": 3274,
      "##_option": 3275,
      "##_ip": 3276,
      "mv_cache": 3277,
      "0xffffffff": 3278,
      "physical": 3279,
      "##_coeffs": 3280,
      "int_max": 3281,
      "##_print": 3282,
      "##_bil": 3283,
      "overl": 3284,
      "!\\": 3285,
      "four": 3286,
      "##_metadata": 3287,
      "loc": 3288,
      "30": 3289,
      "##sig": 3290,
      "(%%": 3291,
      "##sole": 3292,
      "##exp": 3293,
      "bdrv_o": 3294,
      "tcg_gen_sh": 3295,
      "aviocontext": 3296,
      "::": 3297,
      "pending": 3298,
      "tcg_gen_add": 3299,
      "pcm": 3300,
      "cfi": 3301,
      "icodec": 3302,
      "##ole": 3303,
      "more": 3304,
      "##fil": 3305,
      "##_lx": 3306,
      "sub_mb_type": 3307,
      "dt": 3308,
      "##ous": 3309,
      "esc": 3310,
      "hd": 3311,
      "make": 3312,
      "##mar": 3313,
      "##ctrl": 3314,
      "av_cpu": 3315,
      "into": 3316,
      "##agate": 3317,
      "##space": 3318,
      "line_": 3319,
      "container": 3320,
      "ri": 3321,
      "##plit": 3322,
      "vms": 3323,
      "##_notifier": 3324,
      "bgr": 3325,
      "implemented": 3326,
      "##ating": 3327,
      "##_method": 3328,
      "search": 3329,
      "prix64": 3330,
      "finish": 3331,
      "parser": 3332,
      "sequence": 3333,
      "input_stream": 3334,
      "vlan": 3335,
      "__put": 3336,
      "##fr": 3337,
      "av_tim": 3338,
      "buf1": 3339,
      "kernel_filename": 3340,
      "##pectr": 3341,
      "poc": 3342,
      "__put_user": 3343,
      "helper": 3344,
      "wr": 3345,
      "transform": 3346,
      "ll": 3347,
      "##ities": 3348,
      "##_h263": 3349,
      "##_tlb": 3350,
      "##ification": 3351,
      "##ling": 3352,
      "##_fast": 3353,
      "tcgv_i32": 3354,
      "av_cpu_flag": 3355,
      "##_div": 3356,
      "##_vc1": 3357,
      "sasl": 3358,
      "##nz": 3359,
      "bound": 3360,
      "fw_cfg": 3361,
      "##gy": 3362,
      "target_st": 3363,
      ")\",": 3364,
      "##scale_": 3365,
      "after": 3366,
      "fifo": 3367,
      "##aff": 3368,
      "sprit": 3369,
      "tcg_const_i32": 3370,
      "##_app": 3371,
      "##sector": 3372,
      "avo": 3373,
      "acc": 3374,
      "discard": 3375,
      "##_exec": 3376,
      "aio_context": 3377,
      "quantization": 3378,
      "dflag": 3379,
      "##sb": 3380,
      "##_virt": 3381,
      "curr": 3382,
      "]),": 3383,
      "extent": 3384,
      "extended": 3385,
      "##ping": 3386,
      "ffs": 3387,
      "##_edg": 3388,
      "##_ap": 3389,
      "##mips": 3390,
      "##inc": 3391,
      "##_cold": 3392,
      "mmx": 3393,
      "##cial": 3394,
      "##_bool": 3395,
      "##ensions": 3396,
      "floor": 3397,
      "bec": 3398,
      "dump": 3399,
      "save": 3400,
      "tile_": 3401,
      "##ced": 3402,
      "##hi": 3403,
      "##139": 3404,
      "reply": 3405,
      "##_ok": 3406,
      "##_freq": 3407,
      "flv": 3408,
      "url_f": 3409,
      "because": 3410,
      "drc": 3411,
      "norm": 3412,
      "ref_cache": 3413,
      "pitch": 3414,
      "##her": 3415,
      "av_cold": 3416,
      "stl": 3417,
      "##_mac": 3418,
      "thrott": 3419,
      "sce": 3420,
      "##file_": 3421,
      "##hdr": 3422,
      "temp_block": 3423,
      "pix_fmt_rgb": 3424,
      "pool": 3425,
      "##_generic": 3426,
      "23": 3427,
      "##vers": 3428,
      "io_context": 3429,
      "##eger": 3430,
      "draw": 3431,
      "openpic": 3432,
      "encoded": 3433,
      "poll": 3434,
      "##run": 3435,
      "##ject": 3436,
      "##_global": 3437,
      "28": 3438,
      "##7m": 3439,
      "##3d": 3440,
      "##_token": 3441,
      "avio_skip": 3442,
      "##_used": 3443,
      "actual": 3444,
      "##_transfer": 3445,
      "global": 3446,
      "picture_structure": 3447,
      "prefetch": 3448,
      "##ability": 3449,
      "ctb": 3450,
      "##_mon": 3451,
      "##_dct": 3452,
      "hash": 3453,
      "0x20": 3454,
      "##_display": 3455,
      "parse": 3456,
      "av_st": 3457,
      "##_l1": 3458,
      "is_intra": 3459,
      "matrix": 3460,
      "pmadd": 3461,
      "##action": 3462,
      "header_size": 3463,
      "motion_val": 3464,
      "(;;": 3465,
      "pthread": 3466,
      "##i64": 3467,
      "##_buffers": 3468,
      "##_valid": 3469,
      "configuration": 3470,
      "correct": 3471,
      ",%": 3472,
      "each": 3473,
      "seq": 3474,
      "pci_device": 3475,
      "##_process": 3476,
      "avio_tell": 3477,
      "free_": 3478,
      "##_slice_": 3479,
      "0x000": 3480,
      "##ixed": 3481,
      "get_vlc": 3482,
      "complet": 3483,
      "##_snapshot": 3484,
      "dinfo": 3485,
      "lp": 3486,
      "##_instruction": 3487,
      "##irp": 3488,
      "##_vlc_bits": 3489,
      "##_common": 3490,
      "http": 3491,
      "##yv12": 3492,
      "bm": 3493,
      "##_pack": 3494,
      "##_base_": 3495,
      "##coeff": 3496,
      "##_dump": 3497,
      "##_right": 3498,
      "formatcontext": 3499,
      "qdev_prop": 3500,
      "1000": 3501,
      "error_prop": 3502,
      "progress": 3503,
      "##ived": 3504,
      "error_propagate": 3505,
      "##_rece": 3506,
      "##_range": 3507,
      "log_": 3508,
      "failure": 3509,
      "##quency": 3510,
      "cfi_table": 3511,
      "##ide_data": 3512,
      "h264context": 3513,
      "(;;)": 3514,
      "gdb": 3515,
      "av_str": 3516,
      "##_ss": 3517,
      "0xc": 3518,
      "bit_depth": 3519,
      "cir": 3520,
      "gran": 3521,
      "##man": 3522,
      "ind": 3523,
      "then": 3524,
      "check_fpu": 3525,
      "##e_packet": 3526,
      "##_access": 3527,
      "check_fpu_feature": 3528,
      "ot_word": 3529,
      "##bug_": 3530,
      "fn": 3531,
      "##')": 3532,
      "##_cs": 3533,
      "##_pt": 3534,
      "##_descriptor": 3535,
      "ke": 3536,
      "sup": 3537,
      "dststride": 3538,
      "##rational": 3539,
      "unl": 3540,
      "visit": 3541,
      "pmaddwd": 3542,
      "##_6": 3543,
      "##bl": 3544,
      "##22": 3545,
      "##_char": 3546,
      "##_packet_size": 3547,
      "__asm__": 3548,
      "bps": 3549,
      "##sy": 3550,
      "coding": 3551,
      "srcstride": 3552,
      "##_rectangle": 3553,
      "target_e": 3554,
      "address_space_": 3555,
      "##_async": 3556,
      "##now": 3557,
      "##copy": 3558,
      "##_old": 3559,
      "##_imm": 3560,
      "##dd": 3561,
      "##asecmp": 3562,
      "weight": 3563,
      "]];": 3564,
      "dirac": 3565,
      "##_mtc0": 3566,
      "cpu_f": 3567,
      "output_buffer": 3568,
      "avmedia_type_audio": 3569,
      "tcg_temp_new_i32": 3570,
      "gt": 3571,
      "##less": 3572,
      "iscs": 3573,
      "##_segment": 3574,
      "save_": 3575,
      "##ble": 3576,
      "##_sse2": 3577,
      "qemu_opts": 3578,
      "##ayer": 3579,
      "\\\"\",": 3580,
      "qemu_chr": 3581,
      "<<=": 3582,
      "load_reg": 3583,
      "total_size": 3584,
      "device_class": 3585,
      "exponent": 3586,
      "word": 3587,
      "##2_i32": 3588,
      "##irk": 3589,
      "##ener": 3590,
      "##_nof": 3591,
      "compression": 3592,
      "v4": 3593,
      "##_driver": 3594,
      "##_complete": 3595,
      "##_create_simple": 3596,
      "##lit": 3597,
      "##99": 3598,
      "bios_size": 3599,
      "##_partition": 3600,
      "gp": 3601,
      "##sample": 3602,
      "##_brc": 3603,
      "##endian": 3604,
      "disp": 3605,
      "##_parameter": 3606,
      "l1_size": 3607,
      "##mmx2": 3608,
      "##_cache_": 3609,
      "cpu_register": 3610,
      "temp0": 3611,
      "##_temp": 3612,
      "avrational": 3613,
      "##ilun": 3614,
      "adpcm": 3615,
      "init_get_bits": 3616,
      "##_image": 3617,
      "##_pass": 3618,
      "avio_wb": 3619,
      "##_cfg_": 3620,
      "##my": 3621,
      "##ne": 3622,
      "##01": 3623,
      "##_master": 3624,
      "##_high": 3625,
      "##client": 3626,
      "hwaccel": 3627,
      "overflow": 3628,
      "cpu_to_be32": 3629,
      "##display": 3630,
      "##_surf": 3631,
      "##_wait": 3632,
      "srcformat": 3633,
      "ls": 3634,
      "##cur": 3635,
      "##zero": 3636,
      "aiocb": 3637,
      "eno": 3638,
      "##bose": 3639,
      "multi": 3640,
      "strncmp": 3641,
      "48": 3642,
      "br": 3643,
      "qpc": 3644,
      "##_eq": 3645,
      "pix_fmt_yuv": 3646,
      "qdev_prop_set": 3647,
      "h263": 3648,
      "##_es": 3649,
      "##gacy": 3650,
      "dstw": 3651,
      "rs1": 3652,
      "get_vlc2": 3653,
      "##_blk": 3654,
      "enabled": 3655,
      "##enter": 3656,
      "op2": 3657,
      "sei": 3658,
      "##call": 3659,
      "##title_": 3660,
      "attrib": 3661,
      "huff": 3662,
      "want": 3663,
      "##68": 3664,
      "build": 3665,
      "gen_set": 3666,
      "opp": 3667,
      "down": 3668,
      "##dw": 3669,
      "##_std": 3670,
      "##_def": 3671,
      "endpoint": 3672,
      "num_sectors": 3673,
      "##_guid": 3674,
      "##errno": 3675,
      "target_fmt_lx": 3676,
      "tab": 3677,
      "vram": 3678,
      "##fi": 3679,
      "##_ide": 3680,
      "##_counter": 3681,
      "compat": 3682,
      "##abilities": 3683,
      "uffff": 3684,
      "xc": 3685,
      "##hc": 3686,
      "stereo": 3687,
      "##ular": 3688,
      "return_value": 3689,
      "##_trunc": 3690,
      "##_cmdline": 3691,
      "##_padding": 3692,
      "100": 3693,
      "ge": 3694,
      "lit": 3695,
      "pv": 3696,
      "##pass": 3697,
      "0x5": 3698,
      "structure": 3699,
      "vari": 3700,
      "##_server": 3701,
      "##_with": 3702,
      "last_picture": 3703,
      "());": 3704,
      "iscsilun": 3705,
      "signed": 3706,
      "##_tx": 3707,
      "##_gray": 3708,
      "##_alpha": 3709,
      "apply": 3710,
      "##_avail": 3711,
      "mips32": 3712,
      "vmd": 3713,
      "mem_index": 3714,
      "maximum": 3715,
      "ref_count": 3716,
      "##_rl16": 3717,
      "##25": 3718,
      "##onf": 3719,
      "dstformat": 3720,
      "register_enc": 3721,
      "protocol": 3722,
      "##_insns": 3723,
      "register_encdec": 3724,
      "mkv": 3725,
      "##_append": 3726,
      "smp": 3727,
      "##gg": 3728,
      "##_msi": 3729,
      "##_wr": 3730,
      "##ptr_t": 3731,
      "cluster_offset": 3732,
      "0x40": 3733,
      "##opt": 3734,
      "qdict_get": 3735,
      "prediction": 3736,
      "bdrv_sector_size": 3737,
      "xvid": 3738,
      "y2": 3739,
      "##r2": 3740,
      "##ority": 3741,
      "##seek": 3742,
      "##bp": 3743,
      "##ake_": 3744,
      "##_goto": 3745,
      "vtd": 3746,
      "##_gpio_in": 3747,
      "remot": 3748,
      "##alle": 3749,
      "illegal_op": 3750,
      "fo": 3751,
      "message": 3752,
      "##ui": 3753,
      "##ym": 3754,
      "tcg_reg_": 3755,
      "##_destroy": 3756,
      "fps": 3757,
      "0xd": 3758,
      "##_writ": 3759,
      "##blocks": 3760,
      "cblk": 3761,
      "iov_len": 3762,
      "psrl": 3763,
      "cx": 3764,
      "cnt": 3765,
      "hp": 3766,
      "mul": 3767,
      "nvm": 3768,
      "##r1": 3769,
      "##only": 3770,
      "##_save": 3771,
      "##_mig": 3772,
      "cpu_physical_memory": 3773,
      "##_auth": 3774,
      "##wmmx": 3775,
      "0x1000": 3776,
      "space": 3777,
      "timeout": 3778,
      "abi_ulong": 3779,
      "##wmmxt": 3780,
      "##ume": 3781,
      "##_lp": 3782,
      "##rcasecmp": 3783,
      "##_hash": 3784,
      "##inear": 3785,
      "last_mv": 3786,
      "##output": 3787,
      "##_be64": 3788,
      "storage": 3789,
      "av_strcasecmp": 3790,
      "fault": 3791,
      "final": 3792,
      "main": 3793,
      "line_size": 3794,
      "slirp": 3795,
      "implement": 3796,
      "##options": 3797,
      "##oter": 3798,
      "##_wrap": 3799,
      "xmm0": 3800,
      "##_can": 3801,
      "##_brcon": 3802,
      "qerr": 3803,
      "##ape": 3804,
      "##((": 3805,
      "##_sum": 3806,
      "error_code": 3807,
      "sele": 3808,
      "current_frame": 3809,
      "get_bits_count": 3810,
      "hls": 3811,
      "##mod": 3812,
      "##del": 3813,
      "0x02": 3814,
      "##_buf_size": 3815,
      "devices": 3816,
      "r1": 3817,
      "##_dr": 3818,
      "is_error": 3819,
      "##_att": 3820,
      "##slic": 3821,
      "##_nal": 3822,
      "##_build": 3823,
      "le32_to_cpu": 3824,
      "linux": 3825,
      "##position": 3826,
      "##args": 3827,
      "esp": 3828,
      "stack": 3829,
      "##iod": 3830,
      "##_weight": 3831,
      "strerror": 3832,
      "pixel_shift": 3833,
      "##_arm": 3834,
      "target_page_size": 3835,
      "unlikely": 3836,
      "x509": 3837,
      "##21": 3838,
      "##ery": 3839,
      "get_buffer": 3840,
      "gen_mov": 3841,
      "ff_put": 3842,
      "uc": 3843,
      "udp": 3844,
      "##comm": 3845,
      "##_idc": 3846,
      "ct": 3847,
      "gain": 3848,
      "por": 3849,
      "quality": 3850,
      "rename": 3851,
      "##efs": 3852,
      "cpu_v": 3853,
      "##_kind": 3854,
      "target_page_mask": 3855,
      "uff": 3856,
      "##_cnt": 3857,
      "vmstate_": 3858,
      "##issing": 3859,
      "ifn": 3860,
      "##64_to_cpu": 3861,
      "direction": 3862,
      "ram_addr_t": 3863,
      "allocated": 3864,
      "##otplug": 3865,
      "vertical": 3866,
      "##dir": 3867,
      "##table": 3868,
      "##_local": 3869,
      "##face": 3870,
      "##ative_": 3871,
      "##set_t": 3872,
      "buf_ptr": 3873,
      "setting": 3874,
      "kernel_cmdline": 3875,
      "apic": 3876,
      "##_msg": 3877,
      "##_table_offset": 3878,
      "avoid": 3879,
      "ac3": 3880,
      "##version": 3881,
      "c2": 3882,
      "##mi": 3883,
      "buf_end": 3884,
      "##_prob": 3885,
      "##_diff": 3886,
      "exception_index": 3887,
      "ai": 3888,
      "a3": 3889,
      "##cle": 3890,
      "##_done": 3891,
      "##_to_target": 3892,
      "##lation": 3893,
      "##qrt": 3894,
      "##_bar": 3895,
      "##_step": 3896,
      "reg_d": 3897,
      "tpm": 3898,
      "ufffd": 3899,
      "bmd": 3900,
      "mux": 3901,
      "##vi": 3902,
      "fill_rectangle": 3903,
      "##env": 3904,
      "##operation": 3905,
      "start_time": 3906,
      "asm": 3907,
      "bands": 3908,
      "active": 3909,
      "63": 3910,
      "qvirt": 3911,
      "##_mfc0": 3912,
      "connect": 3913,
      "scaling": 3914,
      "object_property_set": 3915,
      "qdev_get_gpio_in": 3916,
      "two": 3917,
      "hflags": 3918,
      "##ner": 3919,
      "##ette": 3920,
      "(),": 3921,
      "##e_pos": 3922,
      "iovec": 3923,
      "##_fields": 3924,
      "0f": 3925,
      "##rus": 3926,
      "##hw": 3927,
      "##orb": 3928,
      "##array": 3929,
      "##_pred_mode": 3930,
      "initrd_filename": 3931,
      "##********": 3932,
      "gtk": 3933,
      "get_be32": 3934,
      "##70": 3935,
      "++);": 3936,
      "trk": 3937,
      "##yph": 3938,
      "##_uns": 3939,
      "target_nr_set": 3940,
      "number_of": 3941,
      "##_an": 3942,
      "##u8": 3943,
      "##sec": 3944,
      "##pcr": 3945,
      "packet_size": 3946,
      "##mbol": 3947,
      "vncstate": 3948,
      "fw_cfg_": 3949,
      "##_controller": 3950,
      "ifndef": 3951,
      "det": 3952,
      "sess": 3953,
      "##ined": 3954,
      "ssd": 3955,
      "session": 3956,
      "##_s32": 3957,
      "##ily": 3958,
      "ioctl": 3959,
      "lj": 3960,
      "ob": 3961,
      "##_mer": 3962,
      "##_rec": 3963,
      "bug": 3964,
      "##_guest": 3965,
      "##_vectors": 3966,
      "uart": 3967,
      "##_7": 3968,
      "##ten": 3969,
      "ffabs": 3970,
      "##_adpcm": 3971,
      "num_samples": 3972,
      "##e_type_": 3973,
      "callback": 3974,
      "##toyv12": 3975,
      "bank": 3976,
      "##new": 3977,
      "##gain": 3978,
      "##ink": 3979,
      "##ement": 3980,
      "##ummy": 3981,
      "unable": 3982,
      "saved": 3983,
      "##pty": 3984,
      "is_user": 3985,
      "cp15": 3986,
      "##_tick": 3987,
      "##_sf": 3988,
      "##_pref": 3989,
      "config_user": 3990,
      "checksum": 3991,
      "config_user_only": 3992,
      "eof": 3993,
      "pg": 3994,
      "tre": 3995,
      "##96": 3996,
      "##eros": 3997,
      "##_slot": 3998,
      "term": 3999,
      "hyp": 4000,
      "oformat": 4001,
      "sens": 4002,
      "gen_vfp": 4003,
      "cur_pic": 4004,
      "compressed": 4005,
      "##_short": 4006,
      "##_initialize": 4007,
      "##_mapping": 4008,
      "consum": 4009,
      "##_section": 4010,
      "subtitle": 4011,
      "motion_x": 4012,
      "palette_": 4013,
      "##_obj": 4014,
      "##_rac": 4015,
      "tmp64": 4016,
      "svq": 4017,
      "eth": 4018,
      "avi": 4019,
      "pic_param": 4020,
      "##_needed": 4021,
      "av_picture_type_i": 4022,
      "vhd": 4023,
      "##s_per": 4024,
      "avail": 4025,
      "##erties": 4026,
      "arm_cp": 4027,
      "##_neg": 4028,
      "paddd": 4029,
      "##_coroutine_": 4030,
      "qio_channel": 4031,
      "rex": 4032,
      "##url": 4033,
      "##_sizes": 4034,
      "##_vendor": 4035,
      "tcg_gen_qemu": 4036,
      "++];": 4037,
      "special": 4038,
      "gen_store_gpr": 4039,
      ":\"": 4040,
      "bet": 4041,
      "big": 4042,
      "score": 4043,
      "##ppy": 4044,
      "##cnt": 4045,
      "##_watch": 4046,
      "undef": 4047,
      "##_sec": 4048,
      "alt": 4049,
      "virtio_net": 4050,
      "cert": 4051,
      "##bx": 4052,
      "##we": 4053,
      "##ambd": 4054,
      "##ioc": 4055,
      "##_iwmmxt": 4056,
      "##ediate": 4057,
      "abov": 4058,
      "gr": 4059,
      "##_bh": 4060,
      "xmm2": 4061,
      "##_item": 4062,
      "##_coded_sample": 4063,
      "sprite_": 4064,
      "fast": 4065,
      "##v2": 4066,
      "##_sch": 4067,
      "ff_alloc": 4068,
      "##_conn": 4069,
      "##_plan": 4070,
      "rects": 4071,
      "##_sys": 4072,
      "##_ps": 4073,
      "##_aac": 4074,
      "bits_per_coded_sample": 4075,
      "##aiocb": 4076,
      "##33": 4077,
      "##ater": 4078,
      ")&": 4079,
      "beta": 4080,
      "hpt": 4081,
      "##_object": 4082,
      "##aps": 4083,
      "input_buffer": 4084,
      "factor": 4085,
      "##_threads": 4086,
      "y0": 4087,
      "##i_i64": 4088,
      "change": 4089,
      "cpumips": 4090,
      "##char": 4091,
      "dca": 4092,
      "bdrv_p": 4093,
      "subband": 4094,
      "subtitle_": 4095,
      "iov_base": 4096,
      "qpci": 4097,
      "directory": 4098,
      "mpu": 4099,
      ");\\": 4100,
      "##outine": 4101,
      "0x3f": 4102,
      "motion_y": 4103,
      "##_table_size": 4104,
      "##timer": 4105,
      "x86_cpu": 4106,
      "##field": 4107,
      "##_rep": 4108,
      "export": 4109,
      "ssize_t": 4110,
      "##direct": 4111,
      "##handler": 4112,
      "marker": 4113,
      "cpumipsstate": 4114,
      "crc": 4115,
      "##scsi": 4116,
      "##ypes": 4117,
      "key_frame": 4118,
      "]][": 4119,
      "2048": 4120,
      "0x00000000": 4121,
      "##_ioport": 4122,
      "bh": 4123,
      "hf": 4124,
      "##func": 4125,
      "current_picture_ptr": 4126,
      "cfg": 4127,
      "how": 4128,
      "sg": 4129,
      "##weight": 4130,
      "##_fragment": 4131,
      "do_up": 4132,
      "sector_number": 4133,
      "##onents": 4134,
      "##_condition": 4135,
      "vfp": 4136,
      "##_bilinear": 4137,
      "do_upcast": 4138,
      "s2": 4139,
      "warning": 4140,
      "##l2": 4141,
      "them": 4142,
      "##ivec": 4143,
      "##scription": 4144,
      "filter_mb_edge": 4145,
      "ahci": 4146,
      "mot": 4147,
      "nic": 4148,
      "##_mapped": 4149,
      "inc": 4150,
      "elif": 4151,
      "mmap": 4152,
      "sample_fmt": 4153,
      "root": 4154,
      "##_modrm": 4155,
      "ops": 4156,
      "slice_type": 4157,
      "##ambda": 4158,
      "##_poll": 4159,
      "bitrate": 4160,
      "##_ebml": 4161,
      "compute": 4162,
      "##_configuration": 4163,
      "cirrus": 4164,
      "xy": 4165,
      "##_spec": 4166,
      "##_power": 4167,
      "##com": 4168,
      "iso": 4169,
      "get_s": 4170,
      "logfile": 4171,
      "backend": 4172,
      "chroma_qp": 4173,
      "##_sparc": 4174,
      "av_rescale_": 4175,
      "received": 4176,
      "bottom": 4177,
      "nut": 4178,
      "##nth": 4179,
      "##_fault": 4180,
      "files": 4181,
      "##system": 4182,
      "ohci": 4183,
      "watch": 4184,
      "##_tc": 4185,
      "cpu_ir": 4186,
      "0x04": 4187,
      "storage_": 4188,
      "memory_region_init_io": 4189,
      "##va": 4190,
      "cpu_abort": 4191,
      "##imer": 4192,
      "##anges": 4193,
      "frame_rate": 4194,
      "sample_size": 4195,
      "dither": 4196,
      "##check": 4197,
      "##_spe": 4198,
      "cpu_cc": 4199,
      "##plane": 4200,
      "board": 4201,
      "kernel_size": 4202,
      "unlock_user_struct": 4203,
      "psrad": 4204,
      "doesn": 4205,
      ".%": 4206,
      "v2": 4207,
      "##_sg": 4208,
      "##_rs": 4209,
      "scale_": 4210,
      "operand1": 4211,
      "uval": 4212,
      "##qp": 4213,
      "av_rl32": 4214,
      "##lease_": 4215,
      "##32s": 4216,
      "qemuopts": 4217,
      "extract32": 4218,
      "action": 4219,
      "lun": 4220,
      "ogg": 4221,
      "qscal": 4222,
      "##_col": 4223,
      "##_vol": 4224,
      "##_data_size": 4225,
      "aligned": 4226,
      "##_kernel": 4227,
      "##lbw": 4228,
      "##_write_reg": 4229,
      "##apter": 4230,
      "crop": 4231,
      "##_fail": 4232,
      "enable": 4233,
      "tci_write_reg": 4234,
      "av_picture_type_b": 4235,
      "punpcklbw": 4236,
      "coefficients": 4237,
      "##_ic": 4238,
      "##_sm": 4239,
      "##lems": 4240,
      "tcg_type_": 4241,
      "##_select": 4242,
      "bytestream_put": 4243,
      "av_pix_fmt_rgb": 4244,
      "reference_": 4245,
      "poss": 4246,
      "half": 4247,
      "##_full": 4248,
      "expected": 4249,
      "arg5": 4250,
      "pixel_ptr": 4251,
      "av_assert0": 4252,
      "r0": 4253,
      "##bg": 4254,
      "##wr": 4255,
      "##_eof": 4256,
      "initrd_size": 4257,
      "matroska_id": 4258,
      "dummy": 4259,
      "kl": 4260,
      "##_if": 4261,
      "qemu_iovec": 4262,
      "##spon": 4263,
      "##_tls": 4264,
      "pix_fmt_bgr": 4265,
      "private_": 4266,
      "vmx": 4267,
      "psub": 4268,
      "coeffs": 4269,
      "sysbus_create_simple": 4270,
      "specified": 4271,
      "sockaddr": 4272,
      "##_verbose": 4273,
      "##ative": 4274,
      "##_duration": 4275,
      "##isor": 4276,
      "transport": 4277,
      "pcibus": 4278,
      "##antable": 4279,
      "venc": 4280,
      "compare": 4281,
      "##_rb16": 4282,
      "hpet": 4283,
      "cu": 4284,
      "##_rc": 4285,
      "##wait": 4286,
      "##_b_frames": 4287,
      "qemu_malloc": 4288,
      "##print": 4289,
      "tracks": 4290,
      "##422p": 4291,
      "e1000": 4292,
      "##18": 4293,
      "##sth": 4294,
      "##_serial": 4295,
      "film": 4296,
      "##_gain": 4297,
      "codec_id_pcm": 4298,
      "target_page_bits": 4299,
      "surface": 4300,
      "av_rescale_q": 4301,
      "gid": 4302,
      "##off": 4303,
      "##write_": 4304,
      "av_w": 4305,
      "chardev": 4306,
      "see": 4307,
      "ipv": 4308,
      "machine_": 4309,
      "##_available": 4310,
      "is_write": 4311,
      "0x08": 4312,
      "excp0": 4313,
      "##_clear": 4314,
      "##_predictor": 4315,
      "##_macroblock": 4316,
      "##skip": 4317,
      "##psr": 4318,
      "##_ident": 4319,
      "avpicture": 4320,
      "definition": 4321,
      "##_slices": 4322,
      "##_backing": 4323,
      "##_mpeg4": 4324,
      "dmv": 4325,
      "##sol": 4326,
      "##l8": 4327,
      "coef": 4328,
      "##_soft": 4329,
      "##_gr": 4330,
      "##_bus_device": 4331,
      "non_zero": 4332,
      ",\"": 4333,
      "branch": 4334,
      "qstring": 4335,
      "##peat": 4336,
      "resid": 4337,
      "ff_": 4338,
      "##_child": 4339,
      "##_disk": 4340,
      "yuv2": 4341,
      "horizontal": 4342,
      "red": 4343,
      "chan": 4344,
      "threshold": 4345,
      "av_log_verbose": 4346,
      "##discard": 4347,
      "mt": 4348,
      "##_second": 4349,
      "##_to_host": 4350,
      "0x100": 4351,
      "##_irqs": 4352,
      "qtest": 4353,
      "\"));": 4354,
      "edge_": 4355,
      "##ront": 4356,
      "cpu_addr": 4357,
      "gen_s": 4358,
      "ff_get": 4359,
      "powerpc_mmu": 4360,
      "##arge": 4361,
      "##_hds": 4362,
      "qemu_coroutine_": 4363,
      "through": 4364,
      "ec": 4365,
      "layout": 4366,
      "std": 4367,
      "argv": 4368,
      "0xfff": 4369,
      "##_parameters": 4370,
      "##_msix": 4371,
      "av_dict_set": 4372,
      "##ularity": 4373,
      "clo": 4374,
      "##ev": 4375,
      "intr": 4376,
      "##_stereo": 4377,
      "rtmp": 4378,
      "##_extra": 4379,
      "##_hwaccel": 4380,
      "\"/": 4381,
      "yet": 4382,
      "##_ct": 4383,
      "exter": 4384,
      "##olden": 4385,
      "mv_dir": 4386,
      "external": 4387,
      ")/": 4388,
      "##ance_": 4389,
      "##again": 4390,
      "qemufile": 4391,
      "##_gp": 4392,
      "0x03": 4393,
      "parameter": 4394,
      "##_handle": 4395,
      "strip": 4396,
      "bro": 4397,
      "p1": 4398,
      "##_branch": 4399,
      "##_ds": 4400,
      "snow": 4401,
      "frequency": 4402,
      "tcgv_i64": 4403,
      "ov": 4404,
      "##cfg": 4405,
      "remov": 4406,
      "slices": 4407,
      "qdev_init": 4408,
      "events": 4409,
      "##chron": 4410,
      "##ton": 4411,
      "##amily": 4412,
      "##exit": 4413,
      "##scan": 4414,
      "chunk_size": 4415,
      "g_new0": 4416,
      "selector": 4417,
      "ns": 4418,
      "pattern": 4419,
      "##vide": 4420,
      "##au": 4421,
      "##_big": 4422,
      "0xa": 4423,
      "blockdev": 4424,
      "##scall": 4425,
      "cpu_tmp2_i32": 4426,
      "pfx": 4427,
      "##high": 4428,
      "##_found": 4429,
      "blockstate": 4430,
      "qemu_clock": 4431,
      "put_vp8": 4432,
      "range_": 4433,
      "xf": 4434,
      "##lib": 4435,
      "##peg_": 4436,
      "requested": 4437,
      "quirk": 4438,
      "avio_wl": 4439,
      "##_active": 4440,
      "ignore": 4441,
      "tail": 4442,
      "##dst": 4443,
      "##_mux": 4444,
      "gen_ld": 4445,
      "target_to_host": 4446,
      "##very": 4447,
      "xmm_regs": 4448,
      "isa_bus": 4449,
      "tick": 4450,
      "##pectrum": 4451,
      "gpio": 4452,
      "##2d": 4453,
      "integer": 4454,
      "##_convert": 4455,
      "shared": 4456,
      "##qual": 4457,
      "sys_bus_device": 4458,
      "sysbus_mmio": 4459,
      "coded_frame": 4460,
      "gen_load_gpr": 4461,
      "qdev_prop_set_uint": 4462,
      "mips32_op": 4463,
      "aud": 4464,
      "gpr": 4465,
      "wi": 4466,
      "##_t1": 4467,
      "##_core": 4468,
      "clut": 4469,
      "slb": 4470,
      "avio_seek": 4471,
      "##quence_": 4472,
      "skipped": 4473,
      "floppy": 4474,
      "ebml": 4475,
      "int8_t": 4476,
      "##_vnc": 4477,
      "buffer_ptr": 4478,
      "##ampling": 4479,
      "##_ioctl": 4480,
      "active_": 4481,
      "translation_block": 4482,
      "qscale_table": 4483,
      "cd": 4484,
      "c3": 4485,
      "pdev": 4486,
      "qapi": 4487,
      "##obj": 4488,
      "##side": 4489,
      "av_rb32": 4490,
      "##_fatal": 4491,
      "##left": 4492,
      "chrd": 4493,
      "##chip": 4494,
      "##_rw": 4495,
      "bitcontext": 4496,
      "##_edge_": 4497,
      "tcg_gen_mov_tl": 4498,
      "qcrypto": 4499,
      "mer": 4500,
      "##mac": 4501,
      "##_success": 4502,
      "##_down": 4503,
      "cpu_flags": 4504,
      "##reds": 4505,
      "target_nr_f": 4506,
      "##_channel_layout": 4507,
      "cluster_bits": 4508,
      "##e_path": 4509,
      "extension": 4510,
      "qxl_io": 4511,
      "decor": 4512,
      "driveinfo": 4513,
      "v1": 4514,
      "##wt": 4515,
      "##_tn": 4516,
      "##_pur": 4517,
      "##utes": 4518,
      "0x9": 4519,
      "##_bytes_left": 4520,
      "##_transform": 4521,
      "store_reg": 4522,
      "0x7f": 4523,
      "footer": 4524,
      "brid": 4525,
      "c5": 4526,
      "##_rom": 4527,
      "##++": 4528,
      "avc": 4529,
      "##msg": 4530,
      "av_codec_id_pcm": 4531,
      "htab": 4532,
      "##_rac_get": 4533,
      "](": 4534,
      "large": 4535,
      "mant": 4536,
      "nop": 4537,
      "##_pending": 4538,
      "srcw": 4539,
      "inputs": 4540,
      "tcg_gen_brcon": 4541,
      "byteio": 4542,
      "missing": 4543,
      "qemu_co": 4544,
      "endian": 4545,
      "##match": 4546,
      "##_frame_rate": 4547,
      "bytestream2_get_bytes_left": 4548,
      "iomem": 4549,
      "pes": 4550,
      "inlink": 4551,
      "uintptr_t": 4552,
      "##_h_loop_filter": 4553,
      "gen_jmp": 4554,
      "trap": 4555,
      "##iple": 4556,
      "rtl8": 4557,
      "##_allocated": 4558,
      "##440": 4559,
      "generate_operation": 4560,
      "original": 4561,
      "##v1": 4562,
      "##qcow": 4563,
      "##intr": 4564,
      "debug_": 4565,
      "##ipher": 4566,
      "ldl": 4567,
      "throttle_": 4568,
      "##<<": 4569,
      "##_frag": 4570,
      "##_lpc": 4571,
      "cpu_ld": 4572,
      "##use_": 4573,
      "##pcstate": 4574,
      "gbc": 4575,
      "##_endian": 4576,
      "die": 4577,
      "##_tbl": 4578,
      "##_plx": 4579,
      "page_size": 4580,
      "nvram": 4581,
      "target_fmt_plx": 4582,
      "cause": 4583,
      "##_release": 4584,
      "##_setprop": 4585,
      "input_data": 4586,
      "start_offset": 4587,
      "pl0": 4588,
      "needs": 4589,
      "##style": 4590,
      "rtl8139": 4591,
      "dy": 4592,
      "reorder": 4593,
      "virtio_scsi": 4594,
      "host_to_target": 4595,
      "##params": 4596,
      "graphic": 4597,
      "s_addr": 4598,
      "##oi": 4599,
      "##sup": 4600,
      "ff_thread": 4601,
      "be32_to_cpu": 4602,
      "sdram": 4603,
      "tcg_temp_new_i64": 4604,
      "consumed": 4605,
      "fir": 4606,
      "me_": 4607,
      "p0": 4608,
      "tex": 4609,
      "v8": 4610,
      "vaddr": 4611,
      "##ops": 4612,
      "##ions": 4613,
      "gen_exception": 4614,
      "resync": 4615,
      "qemu_mutex": 4616,
      "##_tables": 4617,
      "frame_num": 4618,
      "memcmp": 4619,
      "##_overl": 4620,
      "secure": 4621,
      "##444p": 4622,
      "qvirtio": 4623,
      "our": 4624,
      "pop": 4625,
      "unused": 4626,
      "start_code": 4627,
      "lines": 4628,
      "usb_ret": 4629,
      "0x80000000": 4630,
      "##_boot": 4631,
      "byte_run": 4632,
      "normal": 4633,
      "byteiocontext": 4634,
      "card": 4635,
      "push": 4636,
      "##pen": 4637,
      "##just": 4638,
      "avr": 4639,
      "int64": 4640,
      "cpu_ppc": 4641,
      "##_xor": 4642,
      "lock_user_struct": 4643,
      "packss": 4644,
      "show_s": 4645,
      "plane_": 4646,
      "tci_read_r": 4647,
      "gen_load_fpr": 4648,
      "ffserver": 4649,
      "##orbis": 4650,
      "imp": 4651,
      "##))": 4652,
      "##rea": 4653,
      "##ormat": 4654,
      "##increment": 4655,
      "##utation": 4656,
      "##_refer": 4657,
      "padding": 4658,
      "##_palette": 4659,
      "vmdk": 4660,
      "auto": 4661,
      "dynamic": 4662,
      "wp": 4663,
      "##pol": 4664,
      "##gn": 4665,
      "##_ph": 4666,
      "##icast": 4667,
      "##_message": 4668,
      "##generic": 4669,
      "##_complet": 4670,
      "\"\\\"\\\\": 4671,
      "nvme_": 4672,
      "avcol": 4673,
      "vnc_debug": 4674,
      "freq": 4675,
      "##pel_pixels_tab": 4676,
      "##_notify": 4677,
      "speed": 4678,
      "split": 4679,
      "uhci": 4680,
      "##pad": 4681,
      "stuff": 4682,
      "##_bd": 4683,
      "##ice_": 4684,
      "repeat": 4685,
      "##_remove": 4686,
      "##_names": 4687,
      "0xb": 4688,
      "##_vertical": 4689,
      "##_book": 4690,
      "##ise_exception": 4691,
      "##enu": 4692,
      "##ateg": 4693,
      "qemu_set": 4694,
      "##rupts": 4695,
      "##_ima": 4696,
      "uvalpha": 4697,
      "##phys": 4698,
      "##_si": 4699,
      "##elp": 4700,
      "outlink": 4701,
      "alac": 4702,
      "tmp1": 4703,
      "outputs": 4704,
      "##_codebook": 4705,
      "neg": 4706,
      "##board": 4707,
      "]],": 4708,
      "##_aio_context": 4709,
      "different": 4710,
      "rle_": 4711,
      "##_pm": 4712,
      "##_pi": 4713,
      "##_coord": 4714,
      "##_discard": 4715,
      "serial_hds": 4716,
      "alignment": 4717,
      "##_x86_64": 4718,
      "since": 4719,
      "avio_wb32": 4720,
      "gen_set_label": 4721,
      "jmp": 4722,
      "pars": 4723,
      "vi": 4724,
      "##pointer": 4725,
      "##lots": 4726,
      "##_fn": 4727,
      "##_m0": 4728,
      "##_cont": 4729,
      "chardriverstate": 4730,
      "ot_long": 4731,
      "##ource": 4732,
      "rgba": 4733,
      "##prec": 4734,
      "many": 4735,
      "stl_p": 4736,
      "non_zero_count": 4737,
      "mix": 4738,
      "xop": 4739,
      "##fid": 4740,
      "##31": 4741,
      "##win": 4742,
      "##_text": 4743,
      "##ingle_": 4744,
      "##verse": 4745,
      "pcr": 4746,
      "video_stream": 4747,
      "error_setg_": 4748,
      "##_input_buffer": 4749,
      "##ynos": 4750,
      "##rength": 4751,
      "##mpeg4": 4752,
      "lba": 4753,
      "layer": 4754,
      "vring": 4755,
      "##i8": 4756,
      "##ks": 4757,
      "stw": 4758,
      "rel": 4759,
      "codec_type_": 4760,
      "resol": 4761,
      "get_bits_left": 4762,
      "itask": 4763,
      "opc_b": 4764,
      "##_mv_table": 4765,
      "##_attr": 4766,
      "gn": 4767,
      "pages": 4768,
      "##ature": 4769,
      "put_user": 4770,
      "##_fill": 4771,
      "keyframe": 4772,
      "xmm1": 4773,
      "vis1": 4774,
      "activ": 4775,
      "granularity": 4776,
      "36": 4777,
      "bi": 4778,
      "wrap": 4779,
      "##:\"": 4780,
      "##elen": 4781,
      "ff_j": 4782,
      "outputstream": 4783,
      "audio_ctx": 4784,
      "spr_read": 4785,
      "##proc": 4786,
      "vlum": 4787,
      "v16i8": 4788,
      "##_padding_size": 4789,
      "emp": 4790,
      "nnz": 4791,
      "##vision": 4792,
      "##hex": 4793,
      "##utls": 4794,
      "insert": 4795,
      "exynos": 4796,
      "delet": 4797,
      "ibm": 4798,
      "26": 4799,
      "sure": 4800,
      "##ee": 4801,
      "##visitor": 4802,
      "##nx": 4803,
      "##strc": 4804,
      "##_fram": 4805,
      "restore": 4806,
      "##plist": 4807,
      "num_t": 4808,
      "bytestream2_skip": 4809,
      "gen_op_iwmmxt": 4810,
      "h264_context": 4811,
      "access_type": 4812,
      "isa_mips": 4813,
      "##dential": 4814,
      "##_cleanup": 4815,
      "vhdx": 4816,
      "rce": 4817,
      "##ier": 4818,
      "##plan": 4819,
      "buffers": 4820,
      "##_bug": 4821,
      "##_search": 4822,
      "packets": 4823,
      "##e_base_": 4824,
      "general": 4825,
      "verify_read": 4826,
      "vmxnet": 4827,
      "packssdw": 4828,
      "eagain": 4829,
      "hz": 4830,
      "av_pkt": 4831,
      "##_sd": 4832,
      "blockdriver": 4833,
      "pci_set": 4834,
      "bs3": 4835,
      "be64_to_cpu": 4836,
      "complete": 4837,
      "##_progress": 4838,
      "##_interlaced": 4839,
      "##subtitle": 4840,
      "##_prefix": 4841,
      "_s": 4842,
      "ring": 4843,
      "##adv": 4844,
      "##_dim": 4845,
      "##_group": 4846,
      "been": 4847,
      "optind": 4848,
      "##_result": 4849,
      "nodes": 4850,
      "smk": 4851,
      "multiple": 4852,
      "##_current": 4853,
      "fw_cfg_add": 4854,
      "r2": 4855,
      "##sign": 4856,
      "##range": 4857,
      "##ger": 4858,
      "##se3": 4859,
      "##_hv": 4860,
      "frame_number": 4861,
      "##pose_": 4862,
      "\"%\"": 4863,
      "dec_ctx": 4864,
      "framerate": 4865,
      "##rouplist": 4866,
      "##_source_": 4867,
      "##_nofail": 4868,
      "qh": 4869,
      "win": 4870,
      "##ergy": 4871,
      "##_fid": 4872,
      "##_fixed": 4873,
      "mb_intra": 4874,
      "pci_exp": 4875,
      "##_trap": 4876,
      "l2_table": 4877,
      "error_setg_errno": 4878,
      "##dm": 4879,
      "##sync": 4880,
      "##urb": 4881,
      "cpu_s": 4882,
      "they": 4883,
      "##sour": 4884,
      "480": 4885,
      "##lers": 4886,
      "##ffect": 4887,
      "##itional": 4888,
      "busdev": 4889,
      "##4210": 4890,
      "##_40": 4891,
      "bdrv_sector_bits": 4892,
      "##_bridge_": 4893,
      "##_edge_pos": 4894,
      "sysbus_mmio_map": 4895,
      "csr": 4896,
      "w2": 4897,
      "##empl": 4898,
      "##oti": 4899,
      "##_range_": 4900,
      "also": 4901,
      "##_auto": 4902,
      "##dpau": 4903,
      "tcg_target_has": 4904,
      "piix": 4905,
      "boundary": 4906,
      "##_input_buffer_padding_size": 4907,
      "empty": 4908,
      "scr": 4909,
      "##_frame_num": 4910,
      "tables": 4911,
      "##ervisor": 4912,
      "verify_write": 4913,
      "##_callback": 4914,
      "svq3": 4915,
      "ether": 4916,
      "##lp": 4917,
      "##_clk": 4918,
      "##come": 4919,
      "block_data": 4920,
      "mmco": 4921,
      "movie": 4922,
      "interle": 4923,
      "##connect": 4924,
      "password": 4925,
      "4096": 4926,
      "enough": 4927,
      "bds": 4928,
      "gu": 4929,
      "x8": 4930,
      "##ells": 4931,
      "##_lim": 4932,
      "##isk": 4933,
      "src0": 4934,
      "init_vlc": 4935,
      "arm_cpu": 4936,
      "iteration": 4937,
      "cpu_gpr_d": 4938,
      "##roups": 4939,
      "private_data": 4940,
      "gnutls": 4941,
      "exynos4210": 4942,
      "would": 4943,
      "##35": 4944,
      "##erator": 4945,
      "##_try": 4946,
      "##andom": 4947,
      "block_job": 4948,
      "argc": 4949,
      "buffersize": 4950,
      "##_elems": 4951,
      "movnt": 4952,
      "##_new_label": 4953,
      "avpro": 4954,
      "##_or_goto": 4955,
      "##_lines": 4956,
      "##_threshold": 4957,
      "##process": 4958,
      "tci_read_ri": 4959,
      "av_strlc": 4960,
      "visit_type_": 4961,
      "]\"": 4962,
      "r_e": 4963,
      "av_ch": 4964,
      "gen_new_label": 4965,
      "exist": 4966,
      "##queue_": 4967,
      "devfn": 4968,
      "##_allow": 4969,
      "##points": 4970,
      "require": 4971,
      "fat": 4972,
      "green": 4973,
      "##_enable": 4974,
      "starting": 4975,
      "below": 4976,
      "new_block": 4977,
      "filtered": 4978,
      "listen": 4979,
      "vectors": 4980,
      "cleanup": 4981,
      "iterator": 4982,
      "cpu_v0": 4983,
      "vmxnet3": 4984,
      "##save": 4985,
      "##gt": 4986,
      "get_byte": 4987,
      "output_files": 4988,
      "avio_printf": 4989,
      "fs_ctx": 4990,
      "specific": 4991,
      "\"\",": 4992,
      "jump": 4993,
      "pstrc": 4994,
      "q0": 4995,
      "##bpp": 4996,
      "##etype": 4997,
      "##_cabac": 4998,
      "##utdown": 4999,
      "inbuf": 5000,
      "##_area": 5001,
      "video_enc": 5002,
      "spr_write_": 5003,
      "crm": 5004,
      "secondary": 5005,
      "cabac": 5006,
      "##bytes": 5007,
      "##uch": 5008,
      "##onic": 5009,
      "##_total": 5010,
      "dead": 5011,
      "##acity": 5012,
      "these": 5013,
      "##_half": 5014,
      "target_sparc": 5015,
      "##_ge": 5016,
      "translate_": 5017,
      "0x8000": 5018,
      "got_frame": 5019,
      "tcg_temp_free_i64": 5020,
      "##_primary": 5021,
      "array_size": 5022,
      "##pixels": 5023,
      "60": 5024,
      "ebx": 5025,
      "none": 5026,
      "xfer": 5027,
      "##ite": 5028,
      "retval": 5029,
      "##color": 5030,
      "bswap": 5031,
      "gen_helper_neon": 5032,
      "decoder_context": 5033,
      "peer": 5034,
      "vid": 5035,
      "##va2": 5036,
      "cow": 5037,
      "##_pu": 5038,
      "reader": 5039,
      "cpup": 5040,
      "nb_output": 5041,
      "##_af": 5042,
      "##_extension": 5043,
      "sysbus_connect": 5044,
      "tcg_gen_movi_tl": 5045,
      "monitor_printf": 5046,
      "delayed": 5047,
      "dtext": 5048,
      "sysbus_connect_irq": 5049,
      "##ript": 5050,
      "qemu_free": 5051,
      "##_graph": 5052,
      "times": 5053,
      "bdrv_block": 5054,
      "avio_read": 5055,
      "vsrc": 5056,
      "bytes_per": 5057,
      "capabilities": 5058,
      "again": 5059,
      "##elem": 5060,
      "av_rl16": 5061,
      "report": 5062,
      "##_mr": 5063,
      "enot": 5064,
      "##_visitor": 5065,
      "num_blocks": 5066,
      "tcg_gen_trunc": 5067,
      "web": 5068,
      "blkdb": 5069,
      "spr_register": 5070,
      "nvenc": 5071,
      "##_empty": 5072,
      "\".": 5073,
      ")-": 5074,
      "bt": 5075,
      "c7": 5076,
      "##picture": 5077,
      "##cogn": 5078,
      "img_": 5079,
      "##_internal": 5080,
      "gen_op_mov_reg": 5081,
      "##3d11": 5082,
      "mjpeg": 5083,
      "qdec": 5084,
      "vchr": 5085,
      "##ged": 5086,
      "avf": 5087,
      "int128": 5088,
      "##_br": 5089,
      "##asses": 5090,
      "##_lsb": 5091,
      "ff_d": 5092,
      "trace": 5093,
      "next_picture": 5094,
      "##_mbaff": 5095,
      "generate": 5096,
      "\"(*": 5097,
      "var_values": 5098,
      "cpuppcstate": 5099,
      "qdecref": 5100,
      "lc": 5101,
      "pin": 5102,
      "##100": 5103,
      "avfmt": 5104,
      "##_reached": 5105,
      "##_lookup": 5106,
      "tcg_gen_ld": 5107,
      "##_packets": 5108,
      "##_maps": 5109,
      "coroutine_": 5110,
      "##_machine": 5111,
      "psrlq": 5112,
      "##_vendor_id": 5113,
      "spr_read_generic": 5114,
      "b8": 5115,
      "json": 5116,
      "##lum": 5117,
      "##_mark": 5118,
      "##_coef": 5119,
      "get_field": 5120,
      "pci_config": 5121,
      "strt": 5122,
      "0x07": 5123,
      "qdev_create": 5124,
      "low_delay": 5125,
      "small": 5126,
      "planes": 5127,
      "ich": 5128,
      "method": 5129,
      "q1": 5130,
      "##edata": 5131,
      "##_hd": 5132,
      "##uble_": 5133,
      "##_enable_": 5134,
      "input_files": 5135,
      "bdrv_co": 5136,
      "##_abs": 5137,
      "ethernet": 5138,
      "/=": 5139,
      "cg": 5140,
      "tf": 5141,
      "##og": 5142,
      "##mx": 5143,
      "##ted": 5144,
      "##ally": 5145,
      "increment": 5146,
      "##_inval": 5147,
      "##_driv": 5148,
      "stream_ptr": 5149,
      "without": 5150,
      "old_act": 5151,
      "offs": 5152,
      "graphics": 5153,
      "rlim": 5154,
      "indic": 5155,
      "ea": 5156,
      "##names": 5157,
      "##hing": 5158,
      "##sts": 5159,
      "avdiscard": 5160,
      "##andard": 5161,
      "##yte": 5162,
      "##ub_code": 5163,
      "##_protocol": 5164,
      "queue_": 5165,
      "resync_mb": 5166,
      "##inct": 5167,
      "##_nic": 5168,
      "##_v_loop_filter": 5169,
      "##spel": 5170,
      "chroma_format": 5171,
      "##bitmap": 5172,
      "g_strdup_printf": 5173,
      "av_time_base": 5174,
      "enotsup": 5175,
      "bat": 5176,
      "##ude": 5177,
      "##_pict": 5178,
      "##trans": 5179,
      "##_begin": 5180,
      "operand2": 5181,
      "##_virtual": 5182,
      "\":": 5183,
      "hist": 5184,
      "nand": 5185,
      "##//": 5186,
      "returnvalue": 5187,
      "##_vcpu": 5188,
      "swap": 5189,
      "##ibble": 5190,
      "g_assert_cmphex": 5191,
      "ignored": 5192,
      "tcg_gen_brcondi": 5193,
      "gen_jmp_im": 5194,
      "bmv": 5195,
      "##ense": 5196,
      "inv": 5197,
      "mbn": 5198,
      "nothing": 5199,
      "start_addr": 5200,
      "new_l1": 5201,
      "allocation": 5202,
      "movntq": 5203,
      "04": 5204,
      "likely": 5205,
      "saddr": 5206,
      "sregs": 5207,
      "vendor": 5208,
      "##tens": 5209,
      "##r4": 5210,
      ")),": 5211,
      "ff_vc1": 5212,
      "l1_table": 5213,
      "mpeg4": 5214,
      "log2_prec": 5215,
      "##_prediction": 5216,
      "v16u8": 5217,
      "possible": 5218,
      ":\",": 5219,
      "cand": 5220,
      "happ": 5221,
      "iss": 5222,
      "vio": 5223,
      "##_factor": 5224,
      "get_system": 5225,
      "num_channels": 5226,
      "virtio_pci": 5227,
      "opc2": 5228,
      "pict_frame": 5229,
      "mpeg2": 5230,
      "'):": 5231,
      "pte_": 5232,
      "##_multi": 5233,
      "bmds": 5234,
      "1ull": 5235,
      "gd": 5236,
      "##pa": 5237,
      "##_il": 5238,
      "##ntax": 5239,
      "##ender": 5240,
      "##_pid": 5241,
      "remove": 5242,
      "exc": 5243,
      "ff_pred": 5244,
      "videostate": 5245,
      "##_alias": 5246,
      "qtd": 5247,
      "g_io": 5248,
      "##_sar": 5249,
      "notify": 5250,
      "memory_size": 5251,
      "content": 5252,
      "pxor": 5253,
      "ivi": 5254,
      "av_realloc": 5255,
      "##decodecontext": 5256,
      "##77": 5257,
      "##mware": 5258,
      "##aded": 5259,
      "##chroma": 5260,
      "disabled": 5261,
      "io_mem": 5262,
      "refcount_block": 5263,
      "mpeg_": 5264,
      "vp56_frame_": 5265,
      "##e_base_q": 5266,
      "bas": 5267,
      "nip": 5268,
      "##\\\"": 5269,
      "##izer": 5270,
      "##_bottom": 5271,
      "##istate": 5272,
      "ff_h263": 5273,
      "##achine": 5274,
      "##_u8": 5275,
      "file_name": 5276,
      "##_chunks": 5277,
      "##_return": 5278,
      "mch": 5279,
      "##h264": 5280,
      "##-+": 5281,
      "##itle": 5282,
      "##_bl": 5283,
      "dequant": 5284,
      "mem_idx": 5285,
      "##ollow": 5286,
      "screen": 5287,
      "move": 5288,
      "tcg_gen_or": 5289,
      "##_new_stream": 5290,
      "requests": 5291,
      "opc1": 5292,
      "xmm4": 5293,
      "tswap32": 5294,
      "immediate": 5295,
      "##return": 5296,
      "fidp": 5297,
      "cpu_register_physical_memory": 5298,
      "##allel": 5299,
      "##slice": 5300,
      ";\\": 5301,
      "sz": 5302,
      "uvm": 5303,
      "##fb": 5304,
      "##image": 5305,
      "codecctx": 5306,
      "notifier": 5307,
      "pcms": 5308,
      "audio_samples": 5309,
      "##_codes": 5310,
      "config_vnc": 5311,
      "##_aligned": 5312,
      "mangle": 5313,
      "soft": 5314,
      "##nr": 5315,
      "##_vq": 5316,
      "##_wh": 5317,
      "profile_": 5318,
      "##_intr": 5319,
      "##_element": 5320,
      "book": 5321,
      "0xffffff": 5322,
      "vnc_auth": 5323,
      "reslevelno": 5324,
      "/(": 5325,
      "vps": 5326,
      "##wb": 5327,
      "##decoder": 5328,
      "##encode": 5329,
      "console": 5330,
      "##amplerate": 5331,
      "audio_stream": 5332,
      "##_unmap": 5333,
      "pixel_count": 5334,
      "##counts": 5335,
      "rgb2": 5336,
      "##iovector": 5337,
      ")+": 5338,
      "zstream": 5339,
      "##orrect": 5340,
      "##_spl": 5341,
      "elbg": 5342,
      "target_ppc": 5343,
      "qemuiovector": 5344,
      "##over": 5345,
      "target_nr_m": 5346,
      "ptrdiff": 5347,
      "##_put_bits": 5348,
      "##_components": 5349,
      "syn": 5350,
      "device_name": 5351,
      "cpu_to_le32": 5352,
      "##_parse": 5353,
      "##_base_address": 5354,
      "'\",": 5355,
      "##graph": 5356,
      "outbuf": 5357,
      "buffer1": 5358,
      "offset_addr": 5359,
      "mv_type_": 5360,
      "##brid": 5361,
      "optim": 5362,
      "avfilterlink": 5363,
      "migrate_": 5364,
      "singlestep": 5365,
      "##plication": 5366,
      "obt": 5367,
      "42": 5368,
      "fi": 5369,
      "lu": 5370,
      "mid": 5371,
      "rp": 5372,
      "##vlc": 5373,
      "##rm": 5374,
      "##exec": 5375,
      "##cont": 5376,
      "##_stack": 5377,
      "##_strength": 5378,
      "register_hwaccel": 5379,
      "put_be32": 5380,
      "mp3": 5381,
      "idct_put": 5382,
      "qdev_init_nofail": 5383,
      "hz_out": 5384,
      "^=": 5385,
      "##pal": 5386,
      "##ock": 5387,
      "##_fa": 5388,
      "##_magic": 5389,
      "##ates": 5390,
      "##_ne_": 5391,
      "code_gen": 5392,
      "l2_offset": 5393,
      "execute": 5394,
      "##_permutation": 5395,
      "heads": 5396,
      "##armstate": 5397,
      "smbios": 5398,
      "##_5": 5399,
      "##4000": 5400,
      "##23": 5401,
      "##elcome": 5402,
      "deblock": 5403,
      "##otag": 5404,
      "##umb": 5405,
      "sdhc": 5406,
      "mpegcontext": 5407,
      ")],": 5408,
      "##parameter": 5409,
      "##_mmx2": 5410,
      "av_opt_type_": 5411,
      "tcg_gen_shl": 5412,
      "##tensa": 5413,
      "case_": 5414,
      "pf": 5415,
      "unt": 5416,
      "##_10": 5417,
      "##_cpl": 5418,
      "av_q": 5419,
      "##_push": 5420,
      "##_remov": 5421,
      "##_dist": 5422,
      "##umn": 5423,
      "##apic": 5424,
      "##_hi": 5425,
      "num_bands": 5426,
      "##_frame_size": 5427,
      "##_jump": 5428,
      "thread_count": 5429,
      "have_mmx": 5430,
      "##_rdwr": 5431,
      "tcg_gen_andi_tl": 5432,
      "!!(": 5433,
      "##_bridge": 5434,
      "##259": 5435,
      "est": 5436,
      "xor": 5437,
      "##qemu": 5438,
      "##wise": 5439,
      "##one_": 5440,
      "##aligned": 5441,
      "##_pop": 5442,
      "##ility": 5443,
      "cpu_x86": 5444,
      "##dexec": 5445,
      "opn": 5446,
      "##aves": 5447,
      "##_opcode": 5448,
      "swr": 5449,
      "##_hevc": 5450,
      "##_listen": 5451,
      "##_allocate_": 5452,
      "av_time_base_q": 5453,
      "klass": 5454,
      "##pendent": 5455,
      "master": 5456,
      "slow": 5457,
      "##e0": 5458,
      "##eps": 5459,
      "incl": 5460,
      "chip": 5461,
      "##_huff": 5462,
      "##ache_size": 5463,
      "##bufsize": 5464,
      "##_extr": 5465,
      "atomic": 5466,
      "get_se_golomb": 5467,
      "avprob": 5468,
      "dpp": 5469,
      "giv": 5470,
      "gsi": 5471,
      "nf": 5472,
      "uri": 5473,
      "##surf": 5474,
      "##section": 5475,
      "##elist": 5476,
      "##_dv": 5477,
      "##matrix": 5478,
      "##_ready": 5479,
      "##_delet": 5480,
      "v9fs_string": 5481,
      "##_pool": 5482,
      "##channels": 5483,
      "paddw": 5484,
      "av_pix_fmt_yuv420p": 5485,
      "ptrdiff_t": 5486,
      "ft": 5487,
      "sco": 5488,
      "sense": 5489,
      "##800": 5490,
      "##a64": 5491,
      "##_ce": 5492,
      "loss": 5493,
      "##16_to": 5494,
      "qemu_aio": 5495,
      "##_set_pts": 5496,
      "output_context": 5497,
      "nb_input": 5498,
      "proto": 5499,
      "##raction": 5500,
      "##dictionary": 5501,
      "enc_ctx": 5502,
      "coroutine": 5503,
      "'))": 5504,
      "nd_table": 5505,
      "qtailq_foreach": 5506,
      "##coming": 5507,
      "pstrcpy": 5508,
      "av_q2d": 5509,
      "##_set_pts_info": 5510,
      "meta": 5511,
      "mdct": 5512,
      "ori": 5513,
      "vdi": 5514,
      "##ness": 5515,
      "##_bin": 5516,
      "##_main": 5517,
      "cpuarmstate": 5518,
      "##_hflag": 5519,
      "##mms": 5520,
      "output_frame": 5521,
      "strchr": 5522,
      "##vmc": 5523,
      "mips_hflag": 5524,
      "##_signo": 5525,
      "fdt_property_cell": 5526,
      "**)&": 5527,
      "overlay": 5528,
      "tcg_gen_qemu_ld": 5529,
      "qemu_mallocz": 5530,
      "##ategory": 5531,
      "feat": 5532,
      "mpc": 5533,
      "render": 5534,
      "##demux": 5535,
      "##ason": 5536,
      "ffalign": 5537,
      "##sconf": 5538,
      "##_offsets": 5539,
      "objectclass": 5540,
      "##_alt": 5541,
      "##_cbp": 5542,
      "dictionary": 5543,
      "hpte": 5544,
      "##76": 5545,
      "##node": 5546,
      "##_sb": 5547,
      "##_dsp": 5548,
      "resample_": 5549,
      "index1": 5550,
      "endptr": 5551,
      "##_ep": 5552,
      "pred_count": 5553,
      "av_sample_fmt_fl": 5554,
      "##e_factor": 5555,
      "ecx": 5556,
      "dbd": 5557,
      "es": 5558,
      "gs": 5559,
      "hid": 5560,
      "tl": 5561,
      "uid": 5562,
      "##sz": 5563,
      "##_r8": 5564,
      "gen_f": 5565,
      "mmio": 5566,
      "legacy": 5567,
      "reading": 5568,
      "source1": 5569,
      "colorspace": 5570,
      "protection": 5571,
      "frag": 5572,
      "##xattr": 5573,
      "av_buffer": 5574,
      "##_det": 5575,
      "##_vec": 5576,
      "##_encoding": 5577,
      "bdrvqcow": 5578,
      "ioreq": 5579,
      "##_uv": 5580,
      "virtiodevice": 5581,
      "chrtoyv12": 5582,
      "primary": 5583,
      "target_stfs": 5584,
      "target_sparc64": 5585,
      "fetch": 5586,
      "h_context": 5587,
      "kv": 5588,
      "xx": 5589,
      "##dirty": 5590,
      "##table_": 5591,
      "data_length": 5592,
      "stats": 5593,
      "lookup": 5594,
      "buf0": 5595,
      "output_data": 5596,
      "##rain": 5597,
      "level1": 5598,
      "priority": 5599,
      "avfiltercontext": 5600,
      "cpu_to_be64": 5601,
      "##_mpeg2": 5602,
      "required": 5603,
      "drive_get": 5604,
      "qemu_put_be32": 5605,
      "calculate_": 5606,
      "eval": 5607,
      "lx": 5608,
      "sem": 5609,
      "##r3": 5610,
      "##send": 5611,
      "av_rb16": 5612,
      "file_path": 5613,
      "##_use_": 5614,
      "gen_op_movl": 5615,
      "sectors_per": 5616,
      "##_present_flag": 5617,
      "surface_": 5618,
      "##--------": 5619,
      "firmware": 5620,
      "##dentials": 5621,
      "pixel_countdown": 5622,
      "qpel": 5623,
      "##zag": 5624,
      "##jpeg_": 5625,
      "##??": 5626,
      "##_task": 5627,
      "repl": 5628,
      "##igzag": 5629,
      "##_inst": 5630,
      "interface": 5631,
      "##_static": 5632,
      "generic": 5633,
      "mpeg_context": 5634,
      "bytestream2_get_le16": 5635,
      "##ike": 5636,
      "##_calc": 5637,
      "spr_write_generic": 5638,
      "#%": 5639,
      "cid": 5640,
      "xa": 5641,
      "##d_gp": 5642,
      "avdictionary": 5643,
      "##_mpu": 5644,
      "islit": 5645,
      "tcg_gen_movi_i32": 5646,
      "##apture": 5647,
      "label1": 5648,
      "byte_context": 5649,
      "##ween": 5650,
      "##_speed": 5651,
      "excp0d_gp": 5652,
      "excp0d_gpf": 5653,
      "1000000": 5654,
      "dh": 5655,
      "##c3": 5656,
      "##_pb": 5657,
      "##_patch": 5658,
      "##leep": 5659,
      "##_ls": 5660,
      "alias": 5661,
      "ref_list": 5662,
      "startcode": 5663,
      "dest_y": 5664,
      "spi": 5665,
      "fp1": 5666,
      "##_logic": 5667,
      "##_fdt": 5668,
      "##_words": 5669,
      "##handle": 5670,
      "##backend": 5671,
      "##_machine_": 5672,
      "fourcc": 5673,
      "vmstate_register": 5674,
      "emms": 5675,
      "##aw": 5676,
      "release": 5677,
      "##_dprintf": 5678,
      "##umul": 5679,
      "##_log_": 5680,
      "##_ring": 5681,
      "buffer_end": 5682,
      "##ckets": 5683,
      "minimum": 5684,
      "##_fd_handler": 5685,
      "uses": 5686,
      "img_cb": 5687,
      "img_cr": 5688,
      "##_network": 5689,
      "##_after": 5690,
      "04x": 5691,
      "]>>": 5692,
      "lambda": 5693,
      "ok": 5694,
      "side": 5695,
      "vst": 5696,
      "colo": 5697,
      "context_pointer": 5698,
      "##_dict": 5699,
      "pci_class": 5700,
      "audio_codec": 5701,
      "0x06": 5702,
      "##line_": 5703,
      "##_disas": 5704,
      "##_than": 5705,
      "open_flags": 5706,
      "##_page_size": 5707,
      "lower": 5708,
      "##uffix": 5709,
      "mismatch": 5710,
      "coroutine_fn": 5711,
      "bstate": 5712,
      "md": 5713,
      "rot": 5714,
      "wm": 5715,
      "##vp": 5716,
      "##vr": 5717,
      "##_tm": 5718,
      "##_side_data": 5719,
      "##conv": 5720,
      "##buf0": 5721,
      "##_argument": 5722,
      "\"#": 5723,
      "fpu": 5724,
      "follow": 5725,
      "##rack": 5726,
      "##welcome": 5727,
      "##x2": 5728,
      "##92": 5729,
      "##reset": 5730,
      "##mpe": 5731,
      "##_nv": 5732,
      "##user": 5733,
      "##_devic": 5734,
      "##_get_class": 5735,
      "prom": 5736,
      "averror_patch": 5737,
      "##_to_q": 5738,
      "ioh": 5739,
      "format_ctx": 5740,
      "##_io_memory": 5741,
      "##_arith": 5742,
      "##parameters": 5743,
      "sched": 5744,
      "av_clip_uint": 5745,
      "##_realize": 5746,
      "priu32": 5747,
      "chrominance": 5748,
      "extended_data": 5749,
      "averror_patchwelcome": 5750,
      "$\"": 5751,
      "33": 5752,
      "fpcr": 5753,
      "its": 5754,
      "##limit": 5755,
      "##guest": 5756,
      "##enabled": 5757,
      "rest": 5758,
      "decomp": 5759,
      "##hent": 5760,
      "cpu_log": 5761,
      "look": 5762,
      "inputstream": 5763,
      "##ustom": 5764,
      "framep": 5765,
      "compil": 5766,
      "##_lea": 5767,
      "##uvid": 5768,
      "##bufferref": 5769,
      "fall": 5770,
      "period": 5771,
      "qdict_put": 5772,
      "tcg_cond_eq": 5773,
      "clip_table": 5774,
      "between": 5775,
      "cpu_ldub_code": 5776,
      "200": 5777,
      "css": 5778,
      "medi": 5779,
      "pde": 5780,
      "##_post": 5781,
      "##icy": 5782,
      "##ropp": 5783,
      "mm_end": 5784,
      "fft": 5785,
      "avio_r8": 5786,
      "##ording": 5787,
      "##_transport": 5788,
      "float64": 5789,
      "\"(%": 5790,
      "bytecontext": 5791,
      "reg_addr": 5792,
      "##_events": 5793,
      "qemu_opt_get_bool": 5794,
      "bits_per_pixel": 5795,
      "rgb2yuv": 5796,
      "dpy": 5797,
      "hotplug": 5798,
      "iq": 5799,
      "wav": 5800,
      "##i16": 5801,
      "##ernal": 5802,
      "##ora": 5803,
      "av_packet": 5804,
      "##_save_": 5805,
      "release_": 5806,
      "##assth": 5807,
      "arith": 5808,
      "##fop": 5809,
      "numa": 5810,
      "##local": 5811,
      "deviceclass": 5812,
      "clk": 5813,
      "least": 5814,
      "##_header_size": 5815,
      "0x30": 5816,
      "##_syscall": 5817,
      "performance": 5818,
      "##====": 5819,
      "##_extradata": 5820,
      "dbdma": 5821,
      "%#": 5822,
      "##pv": 5823,
      "##dimm": 5824,
      "##sure": 5825,
      "##uyv": 5826,
      "##thing": 5827,
      "##16s": 5828,
      "acl": 5829,
      "new_msr": 5830,
      "##_subband": 5831,
      "##_queues": 5832,
      "scsi_req": 5833,
      "##create": 5834,
      "mb_type_16x16": 5835,
      "##othread": 5836,
      "i8259": 5837,
      "did": 5838,
      "ow": 5839,
      "##14": 5840,
      "##depth": 5841,
      "cod": 5842,
      "##_reply": 5843,
      "changed": 5844,
      "is_jmp": 5845,
      "##olicy": 5846,
      "domain": 5847,
      "##_unpack": 5848,
      "##_interval": 5849,
      "rcc": 5850,
      "raise_exception": 5851,
      "##555": 5852,
      "reg_bp": 5853,
      "ich9": 5854,
      "until": 5855,
      "##igger": 5856,
      "##us1": 5857,
      "ff_aac": 5858,
      "##_stats": 5859,
      "armv": 5860,
      "bytestream2_tell": 5861,
      "get_system_memory": 5862,
      "##att": 5863,
      "description": 5864,
      "gen_ne_": 5865,
      "error_pointer": 5866,
      "##_i2c": 5867,
      "av_log_fatal": 5868,
      "register_filter": 5869,
      "register_ioport": 5870,
      "##_bitstream": 5871,
      "##_flight": 5872,
      "glyph": 5873,
      "cpuid_ext": 5874,
      "priu64": 5875,
      "##_source": 5876,
      "geotag": 5877,
      "remote_": 5878,
      "##pectrum_context": 5879,
      "qdev_prop_set_uint32": 5880,
      "show_spectrum_context": 5881,
      "isa_mips32": 5882,
      "gen_ne_fop": 5883,
      "h4": 5884,
      "know": 5885,
      "lsi": 5886,
      "yalpha": 5887,
      "##uf": 5888,
      "##eral": 5889,
      "##semb": 5890,
      "##_sl": 5891,
      "##_finish": 5892,
      "##_inline": 5893,
      "##uspend": 5894,
      "ff_vp": 5895,
      "error_ptr": 5896,
      "even": 5897,
      "gen_op_mov_reg_t0": 5898,
      "27": 5899,
      "[%": 5900,
      "side_data": 5901,
      "##full": 5902,
      "##_cm": 5903,
      "##_bt": 5904,
      "##intra": 5905,
      "##_stri": 5906,
      "##mple_": 5907,
      "##32u": 5908,
      "##_demux": 5909,
      "gen_lea": 5910,
      "##_flag_key": 5911,
      "##conf": 5912,
      "##_nodes": 5913,
      "keep": 5914,
      "29": 5915,
      "cflags": 5916,
      "lf": 5917,
      "rsp": 5918,
      "##_ub": 5919,
      "##face_": 5920,
      "##_sts": 5921,
      "enos": 5922,
      "##_dynamic": 5923,
      "isn": 5924,
      "ff_array": 5925,
      "(\"\\": 5926,
      "nb_clusters": 5927,
      "##_u32": 5928,
      "pl1": 5929,
      "##_compos": 5930,
      "signature": 5931,
      "misc": 5932,
      "##maries": 5933,
      "bdrv_pread": 5934,
      "decorr": 5935,
      "##_overlap": 5936,
      "non_zero_count_cache": 5937,
      "##source": 5938,
      "r_eax": 5939,
      "##incts": 5940,
      "gen_lea_modrm": 5941,
      "ff_array_elems": 5942,
      "npc": 5943,
      "tight": 5944,
      "xtensa": 5945,
      "##upl": 5946,
      "##long": 5947,
      "##52": 5948,
      "##inity": 5949,
      "##_rnd": 5950,
      "outpic": 5951,
      "##filtercode": 5952,
      "##_compare": 5953,
      "psy": 5954,
      "##mv6": 5955,
      "motion_vector": 5956,
      "optarg": 5957,
      "phase_": 5958,
      "##_32_64": 5959,
      "##other": 5960,
      "column": 5961,
      "c4r0": 5962,
      "c4r4": 5963,
      "tcg_gen_shri": 5964,
      "##_purpose_": 5965,
      "???": 5966,
      "like": 5967,
      "pq": 5968,
      "##xm": 5969,
      "##_call": 5970,
      "cook": 5971,
      "##_mp": 5972,
      "src_y": 5973,
      "##_seq": 5974,
      "double_": 5975,
      "##flash": 5976,
      "##_decode_frame": 5977,
      "##_quad": 5978,
      "written": 5979,
      "finished": 5980,
      "##sole_": 5981,
      ")<<": 5982,
      "mfx": 5983,
      "qem": 5984,
      "##mult": 5985,
      "##_td": 5986,
      "stfs": 5987,
      "##_supported": 5988,
      "restart": 5989,
      "##round": 5990,
      "data_offset": 5991,
      "averror_eof": 5992,
      "last_non": 5993,
      "psll": 5994,
      "segs": 5995,
      "[((": 5996,
      "snapshots": 5997,
      "##self": 5998,
      "wrong": 5999,
      "##_tn_reg": 6000,
      "v8i16": 6001,
      "active_t": 6002,
      "##-+-+": 6003,
      "\"-": 6004,
      "fmov": 6005,
      "png": 6006,
      "rnd": 6007,
      "##_ut": 6008,
      "##ead": 6009,
      "##samples": 6010,
      "##97": 6011,
      "##_break": 6012,
      "##_menu": 6013,
      "##ulk": 6014,
      "##_unix": 6015,
      "put_le16": 6016,
      "##buf1": 6017,
      "kvm_enabled": 6018,
      "powerpccpu": 6019,
      "crn": 6020,
      "bios_name": 6021,
      "##cessed": 6022,
      "presentation": 6023,
      "cpu_fprintf": 6024,
      "r_const": 6025,
      "##qa": 6026,
      "##q_phys": 6027,
      "##inition": 6028,
      "##_trc": 6029,
      "##emps": 6030,
      "##_we": 6031,
      "prep": 6032,
      "scsid": 6033,
      "input_frame": 6034,
      "xmm6": 6035,
      "vec_ld": 6036,
      "v9f": 6037,
      "prefixes": 6038,
      "##68k": 6039,
      "smp_cpus": 6040,
      "implementation": 6041,
      "detect": 6042,
      "scsidisk": 6043,
      "every": 6044,
      "rice": 6045,
      "vide": 6046,
      "##po": 6047,
      "##88": 6048,
      "##atial": 6049,
      "##_cy": 6050,
      "av_fifo": 6051,
      "is_le": 6052,
      "input_streams": 6053,
      "mpegts": 6054,
      "\")));": 6055,
      "##_symbol": 6056,
      "##segv": 6057,
      "emulated": 6058,
      "##_processor": 6059,
      "##_savevm": 6060,
      "b8_stride": 6061,
      "codsty": 6062,
      "eintr": 6063,
      "later": 6064,
      "ur": 6065,
      "##_mix": 6066,
      "unix": 6067,
      "num_insns": 6068,
      "##_reg_bits": 6069,
      "pci_device_": 6070,
      "bs_stop": 6071,
      "##_epc": 6072,
      "compno": 6073,
      "hw_error": 6074,
      "##_address_space": 6075,
      "vnc_write_": 6076,
      "socketaddress": 6077,
      "si_signo": 6078,
      "idct_permutation": 6079,
      "macroblock_type": 6080,
      "object_property_add": 6081,
      "tcg_gen_addi_i32": 6082,
      "incorrect": 6083,
      "avio_wl32": 6084,
      "target_ppc64": 6085,
      "*,": 6086,
      "qsv": 6087,
      "v7m": 6088,
      "##');": 6089,
      "##ito": 6090,
      "##_refs": 6091,
      "state_": 6092,
      "##16u": 6093,
      "separ": 6094,
      "##shal": 6095,
      "si_code": 6096,
      "connector": 6097,
      "mmu_idx": 6098,
      "instead": 6099,
      "##filename": 6100,
      "##assthrough": 6101,
      "effect": 6102,
      "fg": 6103,
      "i2": 6104,
      "qbus": 6105,
      "##bsock": 6106,
      "##r5": 6107,
      "##group": 6108,
      "##_stctl": 6109,
      "0xc0": 6110,
      "##ac3": 6111,
      "##ssion": 6112,
      "##_horizontal": 6113,
      "pci_base_address": 6114,
      "]){": 6115,
      "put_ebml": 6116,
      "pixel_format": 6117,
      "has_b_frames": 6118,
      "additional": 6119,
      "encrypt": 6120,
      "##_scantable": 6121,
      "gen_op_mov_tn_reg": 6122,
      "dirac_std": 6123,
      "bmap": 6124,
      "c6": 6125,
      "e2": 6126,
      "way": 6127,
      "zeros": 6128,
      "##duration": 6129,
      "##ve": 6130,
      "coder": 6131,
      "##_mspel": 6132,
      "ensure": 6133,
      "##_inet": 6134,
      "##_vreg": 6135,
      "sizes": 6136,
      "data_len": 6137,
      "##_hist": 6138,
      "##destination": 6139,
      "ff_allocz": 6140,
      "##_purpose_register": 6141,
      "title": 6142,
      "vorbis": 6143,
      "##pred": 6144,
      "##byte": 6145,
      "##ug_": 6146,
      "##inan": 6147,
      "##_sequence": 6148,
      "##avio": 6149,
      "input_size": 6150,
      "vm_clock": 6151,
      "bytestream2_put": 6152,
      "area": 6153,
      "l1_table_offset": 6154,
      "##ynq": 6155,
      "##dog": 6156,
      "##_4x4": 6157,
      "##_private": 6158,
      "difference": 6159,
      "##_wrn": 6160,
      "niov": 6161,
      "sof": 6162,
      "ut": 6163,
      "##_tail": 6164,
      "##_score": 6165,
      "##_pe": 6166,
      "mb_size": 6167,
      "##_qiov": 6168,
      "##_ef": 6169,
      "tcg_gen_xor": 6170,
      "disable": 6171,
      "codes": 6172,
      "0x0c": 6173,
      "127": 6174,
      "tags": 6175,
      "running": 6176,
      "uvsrc": 6177,
      "##565": 6178,
      "validate_": 6179,
      "target_sigset_t": 6180,
      "av_sample_fmt_s16": 6181,
      "tcg_cond_ne": 6182,
      "tcg_target_reg_bits": 6183,
      "emulation": 6184,
      "##delta": 6185,
      "dw": 6186,
      "##_ec": 6187,
      "##vf": 6188,
      "##vec": 6189,
      "##allo": 6190,
      "##_blt": 6191,
      "redu": 6192,
      "##_stor": 6193,
      "ff_input_buffer_padding_size": 6194,
      "offsets": 6195,
      "frame_data": 6196,
      "substream": 6197,
      "video_frame": 6198,
      "vmcb": 6199,
      "invalid_opc": 6200,
      "sigset_t": 6201,
      "dctelem": 6202,
      "illegal_insn": 6203,
      "##_mpeg1": 6204,
      "rounding": 6205,
      "##_connector": 6206,
      "##scanf": 6207,
      "cred": 6208,
      "svm": 6209,
      "xl": 6210,
      "##ss_than": 6211,
      "ffio": 6212,
      "constant": 6213,
      "##_gb": 6214,
      "nb_channels": 6215,
      "tcg_gen_st": 6216,
      "mvd": 6217,
      "##filterpos": 6218,
      "ot_byte": 6219,
      "neon_load": 6220,
      "##_migration": 6221,
      "lut": 6222,
      "name_": 6223,
      "perror": 6224,
      "intel": 6225,
      "##_bias": 6226,
      "context_data": 6227,
      "##_va": 6228,
      "subpacket": 6229,
      "##_legacy": 6230,
      "interrupts": 6231,
      "##clusters": 6232,
      "vsid": 6233,
      "assume": 6234,
      "##_external": 6235,
      "##1010": 6236,
      "exit_program": 6237,
      "coded_height": 6238,
      "tcg_out32": 6239,
      "execution": 6240,
      "otherwise": 6241,
      "qemu_log_mask": 6242,
      "##_allowed": 6243,
      "80": 6244,
      "##oice": 6245,
      "##lan": 6246,
      "##ahead": 6247,
      "##helper": 6248,
      "##amelen": 6249,
      "id3": 6250,
      "configure": 6251,
      "picref": 6252,
      "initialized": 6253,
      "vp9": 6254,
      "##_flash": 6255,
      "##flush": 6256,
      "##_sigset": 6257,
      "spapr_dr": 6258,
      "##ynchron": 6259,
      "initrd_base": 6260,
      "source_index": 6261,
      "qemu_get_be32": 6262,
      "pflash": 6263,
      "##4x4_pred_mode": 6264,
      "pthread_mutex": 6265,
      "sense_": 6266,
      "strtol": 6267,
      "kvmp": 6268,
      "outpicref": 6269,
      "is_less_than": 6270,
      "655": 6271,
      "lm": 6272,
      "let": 6273,
      "success": 6274,
      "t3": 6275,
      "##tell": 6276,
      "##erate_": 6277,
      "##encoder": 6278,
      "ff_init": 6279,
      "##spapr": 6280,
      "##_armv6": 6281,
      "sdp": 6282,
      "samples_per": 6283,
      "dvb": 6284,
      "##alloon": 6285,
      "nvic": 6286,
      "pag": 6287,
      "tree": 6288,
      "##nse": 6289,
      "iformat": 6290,
      "##uthent": 6291,
      "energy": 6292,
      "ff_i": 6293,
      "##upd": 6294,
      "##_changed": 6295,
      "bdrv_is": 6296,
      "0x18": 6297,
      "check_insn": 6298,
      "##clus": 6299,
      "macaddr": 6300,
      "segments": 6301,
      "##_mmxext": 6302,
      "0x101": 6303,
      "rrr_s": 6304,
      "broken": 6305,
      "ff_allocz_or_goto": 6306,
      "##uthentic": 6307,
      "h1": 6308,
      "xpos": 6309,
      "##_clo": 6310,
      "av_strdup": 6311,
      "##ints": 6312,
      "condexec": 6313,
      "##_get_user": 6314,
      "offset_with": 6315,
      "##_opaque": 6316,
      "secs": 6317,
      "iops": 6318,
      "mv_type": 6319,
      "##_use": 6320,
      "##_mb_type_": 6321,
      "sector_count": 6322,
      "source2": 6323,
      "msmpeg4": 6324,
      "##complet": 6325,
      "##initial": 6326,
      "execute_": 6327,
      "container_of": 6328,
      "above_": 6329,
      "##_bigendian": 6330,
      "qemu_co_mutex": 6331,
      "##processor": 6332,
      "cpu_log_tb": 6333,
      "offset_within": 6334,
      "00": 6335,
      ":\\": 6336,
      "=\"": 6337,
      "mutex": 6338,
      "enable_": 6339,
      "##_loc": 6340,
      "pcie_": 6341,
      "dsth": 6342,
      "place": 6343,
      "flat": 6344,
      "##result": 6345,
      "scaler": 6346,
      "##segment": 6347,
      "##_primaries": 6348,
      "edge_emu": 6349,
      "chrdst": 6350,
      "kvmppc": 6351,
      "qs": 6352,
      "sim": 6353,
      "sscanf": 6354,
      "##lace": 6355,
      "##_tt": 6356,
      "##_sz": 6357,
      "get_be16": 6358,
      "ff_as": 6359,
      "tmp3": 6360,
      "sequence_": 6361,
      "##_int16": 6362,
      "0x14": 6363,
      "##8x8l": 6364,
      "##_t0_a0": 6365,
      "##_backend": 6366,
      "##_overflow": 6367,
      "recv": 6368,
      "tci_read_ri32": 6369,
      "##cognition": 6370,
      "singlestep_enabled": 6371,
      "drop": 6372,
      "##var": 6373,
      "##_tile": 6374,
      "av_image_": 6375,
      "##_sse": 6376,
      "##_binfo": 6377,
      "revision": 6378,
      "block_offset": 6379,
      "vop": 6380,
      "exact": 6381,
      "picture_number": 6382,
      "##pied": 6383,
      "generate_exception": 6384,
      "##_keyframe": 6385,
      "tlb_flush": 6386,
      "memory_region_init_ram": 6387,
      "location": 6388,
      "candid": 6389,
      "asc": 6390,
      "fop": 6391,
      "random": 6392,
      "vui": 6393,
      "xer": 6394,
      "##clk": 6395,
      "##t0": 6396,
      "##_vga": 6397,
      "target_x86_64": 6398,
      "##ysym": 6399,
      "compress": 6400,
      "imag": 6401,
      "0xfffc": 6402,
      "xmm3": 6403,
      "##_root": 6404,
      "*((": 6405,
      "threads": 6406,
      "coded_width": 6407,
      "swscontext": 6408,
      "##_precincts": 6409,
      "rex_b": 6410,
      "stw_p": 6411,
      "');": 6412,
      "__get_user": 6413,
      "dyn": 6414,
      "nl": 6415,
      "##_eth": 6416,
      "##_payload": 6417,
      "##g_r": 6418,
      "mb_index": 6419,
      "src_x": 6420,
      "fdctrl": 6421,
      "0x11": 6422,
      "0x10000": 6423,
      "##_mem_size": 6424,
      "play": 6425,
      "##_extend": 6426,
      "rrr_t": 6427,
      "bnd": 6428,
      "pnum": 6429,
      "ud": 6430,
      "##respon": 6431,
      "comb": 6432,
      "##_recognition": 6433,
      "theora": 6434,
      "tok": 6435,
      "qemu_register": 6436,
      "som": 6437,
      "loglevel": 6438,
      "floating": 6439,
      "fdt_setprop": 6440,
      "query": 6441,
      "updated": 6442,
      "step_index": 6443,
      "##otplug_": 6444,
      "##_by_name": 6445,
      "target_efault": 6446,
      "cpu_f0": 6447,
      "last_picture_ptr": 6448,
      "##_cancel": 6449,
      "pgm": 6450,
      "qapi_free_": 6451,
      "scratch": 6452,
      "ape": 6453,
      "aux": 6454,
      "pfd": 6455,
      "ssp": 6456,
      "##v3": 6457,
      "##freq": 6458,
      "##_match": 6459,
      "##otect": 6460,
      "##available": 6461,
      "nb_o": 6462,
      "provide": 6463,
      "idsp": 6464,
      "##_qscale": 6465,
      "frame_mb": 6466,
      "##_unimplemented": 6467,
      "videoctx": 6468,
      "avpix": 6469,
      "##_chroma_qp": 6470,
      "qemu_opt_get_number": 6471,
      "##_raw_sample": 6472,
      "##mmx2filtercode": 6473,
      "bridge": 6474,
      "\"+": 6475,
      "__vol": 6476,
      "##_s390": 6477,
      "##_pp": 6478,
      "##_medi": 6479,
      "##_norm": 6480,
      "##riev": 6481,
      "##avs": 6482,
      "swf": 6483,
      "##allocated": 6484,
      "##linder": 6485,
      "##ediate_": 6486,
      "##duct": 6487,
      "##subsample": 6488,
      "qobject_to_q": 6489,
      "##_cursor": 6490,
      "ttbr": 6491,
      "fbdev": 6492,
      "super": 6493,
      "tci_write_reg32": 6494,
      "num_tile_": 6495,
      "__function": 6496,
      "front": 6497,
      "help": 6498,
      "##ored": 6499,
      "##sist": 6500,
      "##_pages": 6501,
      "index2": 6502,
      "##_action": 6503,
      "frame_addr": 6504,
      "##e_to": 6505,
      "item": 6506,
      "minor": 6507,
      "cancel": 6508,
      "##_line_": 6509,
      "chrsrc": 6510,
      "##_script": 6511,
      "##_cc_op": 6512,
      "asf_st": 6513,
      "##_alignment": 6514,
      "translationblock": 6515,
      "system_memory": 6516,
      "##16x8": 6517,
      "##_nonblock": 6518,
      "calculate": 6519,
      "__function__": 6520,
      "sram": 6521,
      "vert": 6522,
      "##_tex": 6523,
      "##idual": 6524,
      "##_nibble": 6525,
      "##_inc": 6526,
      "##ris": 6527,
      "##istics": 6528,
      "unes": 6529,
      "##_x509": 6530,
      "##uda": 6531,
      "fds": 6532,
      "##_listener": 6533,
      "##_tags": 6534,
      "##erve": 6535,
      "modified": 6536,
      "pte1": 6537,
      "##_available_": 6538,
      "##_failed": 6539,
      "\"<": 6540,
      "gop": 6541,
      "tprintf": 6542,
      "ws": 6543,
      "coefs": 6544,
      "standard": 6545,
      "##uring": 6546,
      "##_bad": 6547,
      "##_inv": 6548,
      "errors": 6549,
      "src4": 6550,
      "output_link": 6551,
      "nb_frames": 6552,
      "##op_32_64": 6553,
      "formatconv": 6554,
      "filters": 6555,
      "##_registers": 6556,
      "##e_pre": 6557,
      "##_no_rnd": 6558,
      "##_prev": 6559,
      "##argphys": 6560,
      "encode_config": 6561,
      "refcount_table": 6562,
      "case_op_32_64": 6563,
      "formatconvbuffer": 6564,
      "bmp": 6565,
      "cells": 6566,
      "h12": 6567,
      "h11": 6568,
      "h22": 6569,
      "h21": 6570,
      "mapped": 6571,
      "oss": 6572,
      "sx": 6573,
      "wv": 6574,
      "##ued": 6575,
      "##li": 6576,
      "##2m": 6577,
      "##*/": 6578,
      "av_b": 6579,
      "##aris": 6580,
      "buckets": 6581,
      "##_change_": 6582,
      "swb": 6583,
      "##arams": 6584,
      "start_y": 6585,
      "##ences": 6586,
      "0xf0": 6587,
      "cpu_to_le16": 6588,
      "qcow2_cache_": 6589,
      "phb": 6590,
      "tswapl": 6591,
      "allowed": 6592,
      "good": 6593,
      "##_surfaces": 6594,
      "neon_load_reg": 6595,
      "1b": 6596,
      "##next": 6597,
      "##zr": 6598,
      "##yle": 6599,
      "##job": 6600,
      "av_ef": 6601,
      "adv": 6602,
      "props": 6603,
      "what": 6604,
      "##ible_": 6605,
      "image_width": 6606,
      "attach": 6607,
      "ncq": 6608,
      "##property": 6609,
      "abi_long": 6610,
      "ff_mpv": 6611,
      "save_state": 6612,
      "happen": 6613,
      "l4": 6614,
      "yc": 6615,
      "##hb": 6616,
      "ifa": 6617,
      "##around": 6618,
      "##izing": 6619,
      "##_st0": 6620,
      "force_": 6621,
      "cpu_interrupt": 6622,
      "data_buffer": 6623,
      "block_width": 6624,
      "expect": 6625,
      "value1": 6626,
      "do_fault": 6627,
      "frame_rate_": 6628,
      "last_frame": 6629,
      "0x0e": 6630,
      "monkey": 6631,
      "luminance": 6632,
      "drive_info": 6633,
      "tap_count": 6634,
      "variable": 6635,
      "##_dimensions": 6636,
      "##16_to_cpu": 6637,
      "rps": 6638,
      "raddr": 6639,
      "##feature": 6640,
      "##_me": 6641,
      "##_realloc": 6642,
      "##_unknown": 6643,
      "##_max_size": 6644,
      "##resses": 6645,
      "##_compat": 6646,
      "##_orig": 6647,
      "pps_id": 6648,
      "based": 6649,
      "nv_enc": 6650,
      "av_picture_type_p": 6651,
      "##atalen": 6652,
      "##1394": 6653,
      "merge": 6654,
      "##440fx": 6655,
      "##emplate_": 6656,
      "av_clip_uint8": 6657,
      "armv7m": 6658,
      "edge_emu_buffer": 6659,
      "1ll": 6660,
      "qint": 6661,
      "##_p1": 6662,
      "##adcast": 6663,
      "retry": 6664,
      "inf": 6665,
      "##setsize": 6666,
      "gen_io": 6667,
      "##sparc": 6668,
      "])*": 6669,
      "mv_f": 6670,
      "pls": 6671,
      "arm_vfp": 6672,
      "csock": 6673,
      "##_intra_matrix": 6674,
      "page_write": 6675,
      "rtsp_st": 6676,
      "paddusb": 6677,
      "mean": 6678,
      "gidsetsize": 6679,
      "##_altivec": 6680,
      "vmstate_register_ram": 6681,
      "custom": 6682,
      "pn": 6683,
      "##b0": 6684,
      "##lex": 6685,
      "cost": 6686,
      "##aged": 6687,
      "##_lun": 6688,
      "src3": 6689,
      "address_space": 6690,
      "atoi": 6691,
      "##_arch": 6692,
      "##const": 6693,
      "usbdevice": 6694,
      "parallel": 6695,
      "roun": 6696,
      "partition_count": 6697,
      "accumul": 6698,
      "##_merge_": 6699,
      "above": 6700,
      "##signal": 6701,
      "both": 6702,
      "ptimer": 6703,
      "u0": 6704,
      "vr": 6705,
      "##clock": 6706,
      "##aly": 6707,
      "##expected": 6708,
      "##_dm": 6709,
      "##chs": 6710,
      "##_rv": 6711,
      "qemu_new": 6712,
      "##_go": 6713,
      "##omet": 6714,
      "##ifiers": 6715,
      "xmm7": 6716,
      "##_devs": 6717,
      "mpeg1": 6718,
      "avformat_new_stream": 6719,
      "##_table_index": 6720,
      "##compressed": 6721,
      "##_ram_ptr": 6722,
      "isa_in": 6723,
      "xendev": 6724,
      "backing_file": 6725,
      "linear": 6726,
      "bits_per_raw_sample": 6727,
      "##_override": 6728,
      "probe_": 6729,
      "vmsd": 6730,
      "##coeffs": 6731,
      "adpcm_ima": 6732,
      "##current": 6733,
      "##_bilinear_pixels_tab": 6734,
      "e1000e_": 6735,
      "##upling": 6736,
      "f_code": 6737,
      "nto": 6738,
      "s_index": 6739,
      "##vector": 6740,
      "##_ctb": 6741,
      "##_f0": 6742,
      "##ices": 6743,
      "##asc": 6744,
      "output_streams": 6745,
      "accept": 6746,
      "frame_address": 6747,
      "##streams": 6748,
      "cluster_sectors": 6749,
      "##_filters": 6750,
      "hton": 6751,
      "rtas_st": 6752,
      "##_initialized": 6753,
      "means": 6754,
      "gen_store_fpr": 6755,
      "##_directory": 6756,
      "##_sched": 6757,
      "##_identifier": 6758,
      "img_y": 6759,
      "ntoh": 6760,
      "+\"": 6761,
      "dsh": 6762,
      "oact": 6763,
      "##p1": 6764,
      "##8s": 6765,
      "##last": 6766,
      "reject": 6767,
      "force": 6768,
      "##chan": 6769,
      "target_g": 6770,
      "transp": 6771,
      "pci_get": 6772,
      "current_time": 6773,
      "whole": 6774,
      "strto": 6775,
      "put_pixels_tab": 6776,
      "##irqs": 6777,
      "##_field_first": 6778,
      "fields": 6779,
      "top_field_first": 6780,
      "vbv": 6781,
      "##interrupt": 6782,
      "qlist_foreach": 6783,
      "tcg_gen_ext32s": 6784,
      "vp56_rac_get": 6785,
      "url_ftell": 6786,
      "##_mono": 6787,
      "cpu_single_": 6788,
      "##ometry": 6789,
      "b4": 6790,
      "evt": 6791,
      "r3": 6792,
      "##a0": 6793,
      "##device_": 6794,
      "##e_end": 6795,
      "##adt": 6796,
      "replay": 6797,
      "##_gl": 6798,
      "flags2": 6799,
      "tempblock": 6800,
      "io_vector": 6801,
      "posix": 6802,
      "pic_conf": 6803,
      "decode_cabac": 6804,
      "##_json": 6805,
      "avfilterbufferref": 6806,
      "##_insert_head": 6807,
      "(%%\"": 6808,
      "##_instructions": 6809,
      "##_mb_type_info": 6810,
      "=\\\"": 6811,
      "either": 6812,
      "##36": 6813,
      "##atform": 6814,
      "##_pars": 6815,
      "block_opt": 6816,
      "dstblock": 6817,
      "slavio": 6818,
      "tcg_gen_sub": 6819,
      "frame_type": 6820,
      "video_codec": 6821,
      "##bool": 6822,
      "symbol": 6823,
      "slice_ctx": 6824,
      "ipd": 6825,
      "##_dc_add": 6826,
      "##_64bit": 6827,
      "bootsector": 6828,
      "multicast": 6829,
      "##apters": 6830,
      "skip_bits1": 6831,
      "tswap16": 6832,
      "##_pal8": 6833,
      "resolution": 6834,
      "filtered_frame": 6835,
      "rad": 6836,
      "##method": 6837,
      "##auth": 6838,
      "##_ca": 6839,
      "##entr": 6840,
      "data_value": 6841,
      "##_get_arg": 6842,
      "altern": 6843,
      "##default": 6844,
      "##conn": 6845,
      "virtio_queue_": 6846,
      "usb_packet": 6847,
      "ccid": 6848,
      "field_poc": 6849,
      "##_edx": 6850,
      "partial": 6851,
      "properties": 6852,
      "object_property_set_bool": 6853,
      "##_marker": 6854,
      "-(": 6855,
      "##r7": 6856,
      "##hz": 6857,
      "##window": 6858,
      "##xva2": 6859,
      "##_fs": 6860,
      "##_bios": 6861,
      "cases": 6862,
      "##_lt": 6863,
      "##usage": 6864,
      "buffer_length": 6865,
      "max_insns": 6866,
      "currently": 6867,
      "##definition": 6868,
      "dirent": 6869,
      "cbpc": 6870,
      "l1mv": 6871,
      "avmedia_type_subtitle": 6872,
      "yuvtab": 6873,
      "avpriv_set_pts_info": 6874,
      "distance": 6875,
      "##zeroes": 6876,
      "attributes": 6877,
      "##_delete": 6878,
      "capture": 6879,
      "kind": 6880,
      "tak": 6881,
      "x0": 6882,
      "##dc": 6883,
      "##day": 6884,
      "##machine": 6885,
      "##l1": 6886,
      "##_work": 6887,
      "output_format": 6888,
      "refs": 6889,
      "start_x": 6890,
      "new_size": 6891,
      "##_frame_ptr": 6892,
      "##_properties": 6893,
      "processing": 6894,
      "temporary2": 6895,
      "##_expand": 6896,
      "dimensions": 6897,
      "divx": 6898,
      "qiochannel": 6899,
      "permiss": 6900,
      "overlap": 6901,
      "close_": 6902,
      "stuffing": 6903,
      "pci_config_set": 6904,
      "v9fsp": 6905,
      "dquant": 6906,
      "golden": 6907,
      "qmat": 6908,
      "rbd": 6909,
      "##slot": 6910,
      "##right": 6911,
      "##_scr": 6912,
      "reason": 6913,
      "##ably": 6914,
      "##_rate_": 6915,
      "##_wmv": 6916,
      "buffer_index": 6917,
      "bsf": 6918,
      "accel": 6919,
      "code64": 6920,
      "substr": 6921,
      "video_context": 6922,
      "pixelformat": 6923,
      "##_tl_i32": 6924,
      "##ically": 6925,
      "sourceformat": 6926,
      "psw": 6927,
      "handled": 6928,
      "interrupt_request": 6929,
      "##_avg": 6930,
      "event_notifier": 6931,
      "button": 6932,
      "vbi": 6933,
      "av_pix_fmt_yuva": 6934,
      "##_image_t": 6935,
      "components": 6936,
      "av_frame_free": 6937,
      "av_sample_fmt_s32": 6938,
      "0xe0": 6939,
      "##_attach": 6940,
      "##_framesize": 6941,
      "tcg_gen_trunc_tl_i32": 6942,
      "gdk": 6943,
      "enosys": 6944,
      "\"\"": 6945,
      "cvt": 6946,
      "ii": 6947,
      "icc": 6948,
      "pio": 6949,
      "vdp": 6950,
      "##bs": 6951,
      "##top": 6952,
      "##onito": 6953,
      "##_pin": 6954,
      "##otlb": 6955,
      "##_retr": 6956,
      "##_incr": 6957,
      "##_in_cluster": 6958,
      "##_vdpau": 6959,
      "ff_vp8": 6960,
      "mb_skip": 6961,
      "num_precincts": 6962,
      "src_size": 6963,
      "##essage_": 6964,
      "clusters": 6965,
      "##_time_": 6966,
      "##_times": 6967,
      "ready": 6968,
      "aiocontext": 6969,
      "##_avx": 6970,
      "~((": 6971,
      "##_pair": 6972,
      "##_connection": 6973,
      "skipped_bytes": 6974,
      "websocket": 6975,
      "\"'": 6976,
      "em": 6977,
      "i1": 6978,
      "##vl": 6979,
      "##zw": 6980,
      "##ybrid": 6981,
      "##_spr": 6982,
      "return_val": 6983,
      "##_get_cpu": 6984,
      "##_get_ue_golomb": 6985,
      "dst2": 6986,
      "ase_": 6987,
      "slice_type_": 6988,
      "never": 6989,
      "##e_bits": 6990,
      "nal_unit": 6991,
      "intra4x4_pred_mode": 6992,
      "bytestream_get_byte": 6993,
      "##_elf": 6994,
      "cpu_cc_src": 6995,
      "geotags": 6996,
      "isa_mips32r2": 6997,
      "##_vaapi": 6998,
      "__volatile": 6999,
      "##linders": 7000,
      "10000": 7001,
      "=>": 7002,
      "cpsr": 7003,
      "##a1": 7004,
      "##gl": 7005,
      "##g_mem_size": 7006,
      "##_ter": 7007,
      "##_final": 7008,
      "##ing_filter": 7009,
      "data_end": 7010,
      "loader": 7011,
      "max_ide": 7012,
      "##_readb": 7013,
      "movi": 7014,
      "code_ptr": 7015,
      "##_ke": 7016,
      "##_timeout": 7017,
      "strcpy": 7018,
      "##_requests": 7019,
      "##_on_error": 7020,
      "nvdimm": 7021,
      "got_packet": 7022,
      "actually": 7023,
      "##clientstate": 7024,
      "pvr": 7025,
      "ff_put_vp8": 7026,
      "yuv2rgb": 7027,
      "##3d11va": 7028,
      "g_string": 7029,
      "malloc": 7030,
      "sort": 7031,
      "t4": 7032,
      "##_ud": 7033,
      "##_types": 7034,
      "##_sup": 7035,
      "##ases": 7036,
      "##_coding": 7037,
      "##_draw": 7038,
      "mb_num": 7039,
      "##_value_": 7040,
      "mv_x": 7041,
      "mv_y": 7042,
      "optional": 7043,
      "##scaler": 7044,
      "##_kvm": 7045,
      "av_pix_fmt_bgr": 7046,
      "##_allocation": 7047,
      "file_size": 7048,
      "irqs": 7049,
      "generate_helper": 7050,
      "##_caps": 7051,
      "flash_size": 7052,
      "clean": 7053,
      "rrr_r": 7054,
      "variant": 7055,
      "##_unsigned": 7056,
      "qemu_set_fd_handler": 7057,
      "psllq": 7058,
      "##_expand_nibble": 7059,
      "lr": 7060,
      "##8u": 7061,
      "##cat": 7062,
      "##idir": 7063,
      "##plug": 7064,
      "analy": 7065,
      "0x1b": 7066,
      "##_u16": 7067,
      "##_byte_": 7068,
      "kvm_cap": 7069,
      "app": 7070,
      "\\\"%": 7071,
      "##_bswap": 7072,
      "av_dict_get": 7073,
      "funcc": 7074,
      "##_receive": 7075,
      "huffman": 7076,
      "orient": 7077,
      "fh": 7078,
      "lw": 7079,
      "q2": 7080,
      "tailq": 7081,
      "##_ata": 7082,
      "##nk": 7083,
      "##itation": 7084,
      "##_parser": 7085,
      "dependent": 7086,
      "cpu_class": 7087,
      "##_win": 7088,
      "##_hid": 7089,
      "block_device_": 7090,
      "block_wrap": 7091,
      "adjust": 7092,
      "ff_c": 7093,
      "value_": 7094,
      "##_gu": 7095,
      "err_recognition": 7096,
      "##_change": 7097,
      "maxval": 7098,
      "bdrv_set": 7099,
      "where": 7100,
      "avio_rl16": 7101,
      "mv_predictor": 7102,
      "##_picture_header": 7103,
      "codec_id_adpcm": 7104,
      "sysmem": 7105,
      "##ensation": 7106,
      "slice_count": 7107,
      "visitor_input": 7108,
      "sin_addr": 7109,
      "bdrvqcowstate": 7110,
      "rgb2yuv_shift": 7111,
      "##inances": 7112,
      "cache_": 7113,
      "##bet": 7114,
      "##sl": 7115,
      "##late": 7116,
      "##ki": 7117,
      "##dend": 7118,
      "##track": 7119,
      "##_dequant": 7120,
      "gen_neon": 7121,
      "target_mips": 7122,
      "output_size": 7123,
      "idstr": 7124,
      "start_sector": 7125,
      "##_unused": 7126,
      "##_uuid": 7127,
      "sample_count": 7128,
      "##eprom": 7129,
      "##_regions": 7130,
      "rc_max": 7131,
      "##_timeval": 7132,
      "av_malloc_array": 7133,
      "##_offs": 7134,
      "aml_append": 7135,
      "##_rt_sig": 7136,
      "get_ue_golomb_long": 7137,
      "pix_fmt_yuv420p": 7138,
      "dmv_y": 7139,
      "ffserver_get_arg": 7140,
      "ff_jpeg": 7141,
      "##_40x": 7142,
      "svq3_get_ue_golomb": 7143,
      "(++": 7144,
      "r_tick": 7145,
      "sdr": 7146,
      "##2high": 7147,
      "in_buffer": 7148,
      "get_chroma_qp": 7149,
      "mm_flags": 7150,
      "stream_context": 7151,
      "##32_tl": 7152,
      "##angu": 7153,
      "tb_data": 7154,
      "##console": 7155,
      "blk_perm": 7156,
      "comment": 7157,
      "host_addr": 7158,
      "##_headers": 7159,
      "vcard": 7160,
      "ps_max": 7161,
      "low2high": 7162,
      "av_pix_fmt_yuv422p": 7163,
      "##_planes": 7164,
      "##fields": 7165,
      "reordered": 7166,
      "int64_max": 7167,
      "##_limits": 7168,
      "raise_exception_err": 7169,
      "r_tickptr": 7170,
      "50": 7171,
      "_pixels": 7172,
      "##_pwrite": 7173,
      "##icount": 7174,
      "##_l2": 7175,
      "##_sets": 7176,
      "tcg_op": 7177,
      "list_count": 7178,
      "##atalog": 7179,
      "##_packed": 7180,
      "##common": 7181,
      "cur_pic_ptr": 7182,
      "tcg_type_i32": 7183,
      "via": 7184,
      "bind": 7185,
      "gv": 7186,
      "r_ts": 7187,
      "sar": 7188,
      "x9": 7189,
      "##dither": 7190,
      "##nos": 7191,
      "##jmp": 7192,
      "##amps": 7193,
      "retriev": 7194,
      "##asedev": 7195,
      "##_respon": 7196,
      "##setup": 7197,
      "##_den": 7198,
      "opreg": 7199,
      "##_block_size": 7200,
      "destinationwidth": 7201,
      "generated": 7202,
      "sps_id": 7203,
      "mpa": 7204,
      "vbasedev": 7205,
      "##_idct_add": 7206,
      "encoder_context": 7207,
      "##_virtio": 7208,
      "##_edgec": 7209,
      "##_ssse3": 7210,
      "eof_reached": 7211,
      "dmv_x": 7212,
      "##_instance": 7213,
      "ff_asf": 7214,
      "cpu_single_env": 7215,
      "r_tsptr": 7216,
      "cipher": 7217,
      "during": 7218,
      "icp": 7219,
      "lsock": 7220,
      "##page": 7221,
      "##div": 7222,
      "##cf": 7223,
      "##_inner": 7224,
      "cpuarch": 7225,
      "block_x": 7226,
      "dc_val": 7227,
      "##_quality": 7228,
      "next_pts": 7229,
      "flac": 7230,
      "flip": 7231,
      "##line_size": 7232,
      "gen_op_ld": 7233,
      "##_ref_list": 7234,
      "##_handlers": 7235,
      "##_ac3": 7236,
      "##_acct": 7237,
      "socket_address": 7238,
      "##net_hdr": 7239,
      "qemu_opt_set": 7240,
      "vaapi": 7241,
      "]++": 7242,
      "physical_address": 7243,
      ":::\"": 7244,
      "av_pkt_flag_key": 7245,
      "nal_unit_type": 7246,
      "b_type": 7247,
      "farg": 7248,
      "family": 7249,
      "sqrt": 7250,
      "te": 7251,
      "xinc": 7252,
      "##t5": 7253,
      "##rary": 7254,
      "still": 7255,
      "((*": 7256,
      "##_before": 7257,
      "gen_op_mtc0": 7258,
      "memory_region_get": 7259,
      "##_log2": 7260,
      "instructions": 7261,
      "simple": 7262,
      "##issa": 7263,
      "attached": 7264,
      "dirty_bitmap": 7265,
      "fdt_property_string": 7266,
      "scsw_stctl": 7267,
      "cpu_register_io_memory": 7268,
      "psrlw": 7269,
      "##win32": 7270,
      "log2_prec_width": 7271,
      "vmstate_register_ram_global": 7272,
      "'/": 7273,
      "bonito": 7274,
      "hack": 7275,
      "pit": 7276,
      "prc": 7277,
      "uuid": 7278,
      "##function": 7279,
      "##_center": 7280,
      "av_fre": 7281,
      "##coef": 7282,
      "##agement": 7283,
      "##heep": 7284,
      "##_drc": 7285,
      "buff": 7286,
      "cpusparc": 7287,
      "data_count": 7288,
      "##16to": 7289,
      "qemu_ram": 7290,
      "pbdev": 7291,
      "##_gic": 7292,
      "pci_conf": 7293,
      "##_eob": 7294,
      "spatial": 7295,
      "filtersize": 7296,
      "virtio_blk": 7297,
      "hostname": 7298,
      "cp_rx": 7299,
      "##_zeros": 7300,
      "bytestream2_get_be32": 7301,
      "realize": 7302,
      "writing": 7303,
      "attrs": 7304,
      "##_receive_": 7305,
      "include": 7306,
      "av_free_packet": 7307,
      "cpusparcstate": 7308,
      "m4": 7309,
      "oe_": 7310,
      "ssi": 7311,
      "samplerate": 7312,
      "x2": 7313,
      "##2rgb": 7314,
      "##enum": 7315,
      "##_fps": 7316,
      "cpu_a0": 7317,
      "is_interlaced": 7318,
      "##plier": 7319,
      "thumb": 7320,
      "curl": 7321,
      "##_sel": 7322,
      "pci_status": 7323,
      "##_perform": 7324,
      "tb_pointer": 7325,
      "##vents": 7326,
      "opc0": 7327,
      "xmm5": 7328,
      "))))": 7329,
      "log2_chroma": 7330,
      "prix32": 7331,
      "secur": 7332,
      "##_bilin": 7333,
      "gen_spr": 7334,
      "##_reference": 7335,
      "pci_set_word": 7336,
      "delayed_pic": 7337,
      "xlnx": 7338,
      "mvd_cache": 7339,
      "chrdstw": 7340,
      "oe_rr": 7341,
      "might": 7342,
      "zlib": 7343,
      "##_pend": 7344,
      "inode": 7345,
      "datasize": 7346,
      "blockbackend": 7347,
      "),\"": 7348,
      "num_args": 7349,
      "##estamps": 7350,
      "##ivity": 7351,
      "interpol": 7352,
      "video_state": 7353,
      "##buffers": 7354,
      "first_cpu": 7355,
      "ports": 7356,
      "##_line_size": 7357,
      "allocate_": 7358,
      "##ccur": 7359,
      "sysbusdevice": 7360,
      "cp0_unimplemented": 7361,
      "##261": 7362,
      "edx": 7363,
      "msr_hv": 7364,
      "show_bits": 7365,
      "##plicit": 7366,
      "svga": 7367,
      "termin": 7368,
      "progressive_": 7369,
      "tcg_gen_brcondi_tl": 7370,
      "qemu_register_reset": 7371,
      "eip": 7372,
      "fabs": 7373,
      "##option": 7374,
      "##ire": 7375,
      "##_sps": 7376,
      "##ffs": 7377,
      "##utton": 7378,
      "##ime_": 7379,
      "adapt": 7380,
      "##ow2": 7381,
      "tcg_reg": 7382,
      "pci_register": 7383,
      "pci_vendor_id": 7384,
      "bdrv_find": 7385,
      "##_expr": 7386,
      "##shake": 7387,
      "private": 7388,
      "hwdef": 7389,
      "fpstatus": 7390,
      "quant_matrix": 7391,
      "realized": 7392,
      "resetvalue": 7393,
      "operations": 7394,
      "decoded_frame": 7395,
      "probably": 7396,
      "bdrv_getlength": 7397,
      "tcg_gen_andi_i32": 7398,
      "##frm": 7399,
      "##view": 7400,
      "##_splat": 7401,
      "##_demuxer": 7402,
      "target_grouplist": 7403,
      "ase_mt": 7404,
      "'-": 7405,
      "08": 7406,
      "52": 7407,
      "deter": 7408,
      "##ered": 7409,
      "star": 7410,
      "rets": 7411,
      "##locks": 7412,
      "##ri8": 7413,
      "conversion": 7414,
      "##_idr": 7415,
      "trail": 7416,
      "tmp0": 7417,
      "##_uart": 7418,
      "insn_flags": 7419,
      "fprintf_func": 7420,
      "machinestate": 7421,
      "##_atom": 7422,
      "response_": 7423,
      "av_pix_fmt_yuv444p": 7424,
      "##pcidevice": 7425,
      "fourxm": 7426,
      "translation_block_ptr": 7427,
      "##_arguments": 7428,
      ";\"": 7429,
      "ma": 7430,
      "pch": 7431,
      "simm": 7432,
      "##cmd": 7433,
      "##ouv": 7434,
      "##afe": 7435,
      "##500": 7436,
      "av_new": 7437,
      "##_bat": 7438,
      "##_bank": 7439,
      "##_lib": 7440,
      "resample": 7441,
      "error_free": 7442,
      "qemu_fdt": 7443,
      "constra": 7444,
      "value2": 7445,
      "sector_size": 7446,
      "hwctx": 7447,
      "load_image_t": 7448,
      "synth": 7449,
      "lowpass": 7450,
      "av_codec_id_none": 7451,
      "##_2rm": 7452,
      "page_read": 7453,
      "cp0st": 7454,
      "srch": 7455,
      "linker": 7456,
      "[])": 7457,
      "blue": 7458,
      "receive_": 7459,
      "neon_2rm": 7460,
      "qerr_invalid": 7461,
      "##_words_bigendian": 7462,
      "##_devices": 7463,
      "&(": 7464,
      "56": 7465,
      "bn": 7466,
      "hav": 7467,
      "san": 7468,
      "x264": 7469,
      "##sampling": 7470,
      "##exact": 7471,
      "##_pitch": 7472,
      "##_flo": 7473,
      "ff_guid": 7474,
      "trigger": 7475,
      "##_props": 7476,
      "##ields": 7477,
      "##_forward": 7478,
      "hw_frames": 7479,
      "##_load32": 7480,
      "##encrypt": 7481,
      "##pecified": 7482,
      "l2_size": 7483,
      "##touv": 7484,
      "0x40000000": 7485,
      "##vertical": 7486,
      "store_next": 7487,
      "##quire": 7488,
      "##olean": 7489,
      "##_descriptors": 7490,
      "put_vp8_bilinear_pixels_tab": 7491,
      "##_simple_": 7492,
      "##otiate_": 7493,
      "given": 7494,
      "dvbsub": 7495,
      "##uthentication": 7496,
      "load_image_targphys": 7497,
      "l3": 7498,
      "taddr": 7499,
      "x_pos": 7500,
      "##cy": 7501,
      "##mix": 7502,
      "##3000": 7503,
      "##inator": 7504,
      "##_crt": 7505,
      "##_split": 7506,
      "##_fr": 7507,
      "##_front": 7508,
      "target_set": 7509,
      "target_ab": 7510,
      "target_rl": 7511,
      "ff_debug": 7512,
      "mb_pos": 7513,
      "buflen": 7514,
      "memtx": 7515,
      "dstwidth": 7516,
      "##_q0": 7517,
      "##_blockalign": 7518,
      "##_epel": 7519,
      "##_epel_pixels_tab": 7520,
      "##ominator": 7521,
      "audio_frame_": 7522,
      "##_profile_": 7523,
      "videocontext": 7524,
      "##_writev": 7525,
      "destinationformat": 7526,
      "skip_frame": 7527,
      "commit": 7528,
      "0x200": 7529,
      "illegal_request": 7530,
      "av_rescale": 7531,
      "sf_idx": 7532,
      "##_vari": 7533,
      "##_recv": 7534,
      "psubd": 7535,
      "##_softmmu": 7536,
      "##procmask": 7537,
      "m4ac": 7538,
      "catalog": 7539,
      "suffix": 7540,
      "tlen": 7541,
      "xmv": 7542,
      "##p2": 7543,
      "##87": 7544,
      "##qt": 7545,
      "##alk": 7546,
      "unpack": 7547,
      "buf_index": 7548,
      "buffer2": 7549,
      "##verse_": 7550,
      "##ryption": 7551,
      "##_blocker": 7552,
      "##_stream_index": 7553,
      "0x0b": 7554,
      "box": 7555,
      "##_always": 7556,
      "##_accept": 7557,
      "##_ports": 7558,
      "##_update_irq": 7559,
      "movdqa": 7560,
      "v4i32": 7561,
      "arm_cp_const": 7562,
      "mantissa": 7563,
      "compile_t": 7564,
      "av_new_packet": 7565,
      "__nr": 7566,
      "ax": 7567,
      "aurb": 7568,
      "fctx": 7569,
      "kbd": 7570,
      "lcd": 7571,
      "rle": 7572,
      "v_edge_pos": 7573,
      "xattr": 7574,
      "##element": 7575,
      "##r6": 7576,
      "##rx": 7577,
      "##a32": 7578,
      "##_tis": 7579,
      "##_family": 7580,
      "##_beta": 7581,
      "decl": 7582,
      "##_null": 7583,
      "##unref": 7584,
      "##_hotplug": 7585,
      "memmove": 7586,
      "index_entries": 7587,
      "stream_id": 7588,
      "0x12": 7589,
      "##_refcount": 7590,
      "left_type": 7591,
      "rxbuf": 7592,
      "cp0_status": 7593,
      "userdef": 7594,
      "got_frame_ptr": 7595,
      "source_register": 7596,
      "lpc_order": 7597,
      "binary": 7598,
      "requires": 7599,
      "frm": 7600,
      "##sockopt": 7601,
      "__msa_il": 7602,
      "cmos": 7603,
      "cirrus_blt": 7604,
      "##_m0_wrn": 7605,
      "44": 7606,
      "pat": 7607,
      "til": 7608,
      "##_ack": 7609,
      "##da": 7610,
      "##bgr": 7611,
      "##l0": 7612,
      "##label": 7613,
      "##_ser": 7614,
      "##_fis": 7615,
      "##_bm": 7616,
      "incre": 7617,
      "##_nan": 7618,
      "##_ind": 7619,
      "target_long": 7620,
      "qemu_find": 7621,
      "qemu_bh": 7622,
      "buf2": 7623,
      "reg_c": 7624,
      "regbp": 7625,
      "streamcontext": 7626,
      "sol": 7627,
      "movcontext": 7628,
      "dest_cb": 7629,
      "##eyuv": 7630,
      "0x1c": 7631,
      "assign": 7632,
      "##scaleyuv": 7633,
      "armcpu": 7634,
      "##_compressed": 7635,
      "##_asi": 7636,
      "##8x16": 7637,
      "log2_max": 7638,
      "planar": 7639,
      "workaround": 7640,
      "size_in": 7641,
      "frac": 7642,
      "bdrv_o_rdwr": 7643,
      "##_ctl": 7644,
      "ff_guidcmp": 7645,
      "mquant": 7646,
      "types": 7647,
      "wj": 7648,
      "##csr": 7649,
      "##met": 7650,
      "##tc": 7651,
      "##kb": 7652,
      "##95": 7653,
      "##etable": 7654,
      "##_dat": 7655,
      "##_l4": 7656,
      "##ifields": 7657,
      "data_ptr": 7658,
      "##plet": 7659,
      "tcgcontext": 7660,
      "##ertas": 7661,
      "##_sens": 7662,
      "##ested": 7663,
      "swcr": 7664,
      "bdrv_open": 7665,
      "0xff00": 7666,
      "##_shutdown": 7667,
      "##mb_type_": 7668,
      "vc9": 7669,
      "##_ldl": 7670,
      "##_reserved": 7671,
      "index_op_ld": 7672,
      "bitstream_size": 7673,
      "qemu_get_clock": 7674,
      "##icients": 7675,
      "object_property_set_int": 7676,
      "ipv6": 7677,
      "_sifields": 7678,
      "mpeg_decode": 7679,
      "luks": 7680,
      "orientation": 7681,
      "ff_jpeg2000": 7682,
      "38": 7683,
      "take": 7684,
      "##ross": 7685,
      "##_cost": 7686,
      "cho": 7687,
      "##unit": 7688,
      "opd": 7689,
      "unre": 7690,
      "##_sense": 7691,
      "##ecess": 7692,
      "dest_cr": 7693,
      "log_ctx": 7694,
      "snd": 7695,
      "##reslevel": 7696,
      "initializing": 7697,
      "=%\"": 7698,
      "lumtoyv12": 7699,
      "##_20": 7700,
      "nbd_opt": 7701,
      "mpv": 7702,
      "##ificate": 7703,
      "modify": 7704,
      "arm_feature_v": 7705,
      "##_running": 7706,
      "codec_flag_pass": 7707,
      "bmdma": 7708,
      "av_wn": 7709,
      "last_non_zero": 7710,
      "encrypted": 7711,
      "rc_max_rate": 7712,
      "_pixels_tab": 7713,
      "compile_template_": 7714,
      ".\");": 7715,
      "96": 7716,
      "au": 7717,
      "aes": 7718,
      "bulk": 7719,
      "ci": 7720,
      "fadt": 7721,
      "lag": 7722,
      "names": 7723,
      "rout": 7724,
      "sun": 7725,
      "typ": 7726,
      "##_9": 7727,
      "##oc": 7728,
      "##size_": 7729,
      "##386": 7730,
      "##golden": 7731,
      "##stri": 7732,
      "##_rem": 7733,
      "chain": 7734,
      "cpu_val": 7735,
      "##_vfree": 7736,
      "block_num": 7737,
      "##pright": 7738,
      "units": 7739,
      "stream_info": 7740,
      "dolog": 7741,
      "temp3": 7742,
      "read_only": 7743,
      "##_exclus": 7744,
      "##_algo": 7745,
      "pts_wrap": 7746,
      "av_pix_fmt_gray": 7747,
      "dirp": 7748,
      "##_dirent": 7749,
      "image_height": 7750,
      "##interlace": 7751,
      "avio_w8": 7752,
      "reclen": 7753,
      "##_priority": 7754,
      "##_insert_tail": 7755,
      "bytestream2_get_byteu": 7756,
      "cylinders": 7757,
      "escape": 7758,
      "remote": 7759,
      "settings": 7760,
      "tpm_tis": 7761,
      "parsing": 7762,
      "id3v2": 7763,
      "vp56_rac_get_prob": 7764,
      "##_edgecv": 7765,
      "sioc": 7766,
      "tally": 7767,
      "zigzag": 7768,
      "##pri": 7769,
      "##f8": 7770,
      "##xstate": 7771,
      "##xinc": 7772,
      "##':": 7773,
      "##ree_": 7774,
      "##_remaining": 7775,
      "##_warning": 7776,
      "added": 7777,
      "loaded": 7778,
      "ff_audio": 7779,
      "qemu_vfree": 7780,
      "##_xfer": 7781,
      "scantable": 7782,
      "##_int32": 7783,
      "pcnet": 7784,
      "##ldq": 7785,
      "##_invalidate_": 7786,
      "##active": 7787,
      "ost_table": 7788,
      "0x2a": 7789,
      "tcgv_ptr": 7790,
      "version_id": 7791,
      "simp": 7792,
      "predicted": 7793,
      "ppc_hash": 7794,
      "gen_opc_ptr": 7795,
      "##sectors": 7796,
      "completed": 7797,
      "##_common_init": 7798,
      "supervisor": 7799,
      "##_failure": 7800,
      "ff_api": 7801,
      "security": 7802,
      "_win32": 7803,
      "hi": 7804,
      "sse": 7805,
      "tuc": 7806,
      "v0": 7807,
      "wmv": 7808,
      "##vious": 7809,
      "##az": 7810,
      "##ercall": 7811,
      "##reader": 7812,
      "##_te": 7813,
      "##_c0": 7814,
      "##elet": 7815,
      "##32_max": 7816,
      "target_value": 7817,
      "##_bits_per": 7818,
      "##ate_mb_type_": 7819,
      "cur_frame": 7820,
      "src5": 7821,
      "tcgreg": 7822,
      "##_numa": 7823,
      "##_unless": 7824,
      "get_bits_long": 7825,
      "sources": 7826,
      "ne2000": 7827,
      "blk_bs": 7828,
      "slice_header": 7829,
      "sm_state": 7830,
      "dct_linesize": 7831,
      "pmc": 7832,
      "vp8_rac_get": 7833,
      "##_rounding": 7834,
      "instance_": 7835,
      "##_vc1_mspel": 7836,
      "be32_to_cpus": 7837,
      "av_strlcat": 7838,
      "av_ch_layout": 7839,
      "candidate_mb_type_": 7840,
      "unescap": 7841,
      "qerr_invalid_parameter": 7842,
      ",&": 7843,
      "ca": 7844,
      "esi": 7845,
      "##pose": 7846,
      "##oci": 7847,
      "##bor": 7848,
      "##serial": 7849,
      "##amaged": 7850,
      "##arn": 7851,
      "##idr": 7852,
      "remain": 7853,
      "##_l0": 7854,
      "ffurl": 7855,
      "##verify": 7856,
      "])->": 7857,
      "aspect_ratio": 7858,
      "avio_flag": 7859,
      "0x05": 7860,
      "##_iommu": 7861,
      "##_codecid": 7862,
      "##_bitmask": 7863,
      "))));": 7864,
      "##_request_sample": 7865,
      "qtype_": 7866,
      "very": 7867,
      "##_query": 7868,
      "##_active_": 7869,
      "extractfloat": 7870,
      "absol": 7871,
      "##_precision": 7872,
      "hardwaredefinition": 7873,
      "avpriv_request_sample": 7874,
      "dead_tmp": 7875,
      "##completion": 7876,
      "hdev": 7877,
      "qmul": 7878,
      "yo": 7879,
      "##mark": 7880,
      "##uplic": 7881,
      "##=&": 7882,
      "##sequence": 7883,
      "steps": 7884,
      "##_sqrt": 7885,
      "##idct": 7886,
      "##_be_": 7887,
      "##any": 7888,
      "infl": 7889,
      "##_instr": 7890,
      "##istream": 7891,
      "uint8": 7892,
      "##_decoding": 7893,
      "buffer0": 7894,
      "##ypass": 7895,
      "##_gbr": 7896,
      "bdrv_aio": 7897,
      "tcg_gen_sar": 7898,
      "set_epc": 7899,
      "0x0a": 7900,
      "logic": 7901,
      "bandno": 7902,
      "vec_mer": 7903,
      "##_resol": 7904,
      "put_bits_count": 7905,
      "0x7ff": 7906,
      "##_3r": 7907,
      "##_cp1": 7908,
      "sa_mask": 7909,
      "sa_flags": 7910,
      "fpscr": 7911,
      "##demuxcontext": 7912,
      "ff_ivi": 7913,
      "you": 7914,
      "dpl": 7915,
      "fsize": 7916,
      "icount": 7917,
      "larg": 7918,
      "pg_": 7919,
      "##mig": 7920,
      "##wo": 7921,
      "##_be_p": 7922,
      "returns": 7923,
      "##_rot": 7924,
      "##codes": 7925,
      "max_b_frames": 7926,
      "register_savevm": 7927,
      "headers": 7928,
      "formats": 7929,
      "rd1": 7930,
      "assigned": 7931,
      "associ": 7932,
      "skipping": 7933,
      "transmit": 7934,
      "##_interle": 7935,
      ")((": 7936,
      "##compat": 7937,
      "pair": 7938,
      "##_translation": 7939,
      "tcg_temp_free_ptr": 7940,
      "amount": 7941,
      "##e_packets": 7942,
      "##_surface": 7943,
      "##_fragments": 7944,
      "qemu_mutex_unlock": 7945,
      "piix4": 7946,
      "av_strlcpy": 7947,
      "resync_mb_y": 7948,
      "##anguage": 7949,
      "cpuarchstate": 7950,
      "##_performance": 7951,
      "startx": 7952,
      "'.": 7953,
      "gem": 7954,
      "qed": 7955,
      "rk": 7956,
      "ifr": 7957,
      "##_crc": 7958,
      "##lev": 7959,
      "##icc": 7960,
      "##_hybrid": 7961,
      "out_size": 7962,
      "qemu_allocate_": 7963,
      "##_iid": 7964,
      "busy": 7965,
      "##_interface_": 7966,
      "vm_vm": 7967,
      "avcodec_get": 7968,
      "##arest": 7969,
      "service": 7970,
      "0x34": 7971,
      "##_prepend": 7972,
      "##telem": 7973,
      "sign_extend": 7974,
      "couldn": 7975,
      "##e_score": 7976,
      "##dsp_init": 7977,
      "conditional": 7978,
      "dict1": 7979,
      "##_qpel_pixels_tab": 7980,
      "##_parent": 7981,
      "##_attrib": 7982,
      "##****************": 7983,
      "tcg_gen_qemu_st": 7984,
      "codec_type_audio": 7985,
      "interleaved": 7986,
      "##_compose_": 7987,
      "active_tc": 7988,
      "##_glyph": 7989,
      "vm_vmcb": 7990,
      "81": 7991,
      "bx": 7992,
      "tget": 7993,
      "##_16x16": 7994,
      "##13": 7995,
      "##stor": 7996,
      "##isc": 7997,
      "dataplane": 7998,
      "##_rtp": 7999,
      "gen_st": 8000,
      "target_m": 8001,
      "current_buffer": 8002,
      "iocb": 8003,
      "##_clamp": 8004,
      "opc_l": 8005,
      "handling": 8006,
      "av_pix_fmt_descriptors": 8007,
      "##_updated": 8008,
      "virtual_address": 8009,
      "program_counter": 8010,
      "bytestream_get_le16": 8011,
      "##_double": 8012,
      "postcopy": 8013,
      "address_space_memory": 8014,
      "esp_offset": 8015,
      "filter_mb_edgeh": 8016,
      "deblocking_filter": 8017,
      "qtype_q": 8018,
      "eob": 8019,
      "fsr": 8020,
      "hv": 8021,
      "necess": 8022,
      "wrd": 8023,
      "##dma": 8024,
      "##lx": 8025,
      "##guid": 8026,
      "##y_c": 8027,
      "##rec": 8028,
      "##_cause": 8029,
      "##_swap": 8030,
      "##_pread": 8031,
      "##icro": 8032,
      "##otrack": 8033,
      "##pus": 8034,
      "##_vencrypt": 8035,
      "##isr": 8036,
      "##_hyp": 8037,
      "gen_update_": 8038,
      "##ceed": 8039,
      "unaligned": 8040,
      "unexpected": 8041,
      "##_iothread": 8042,
      "fail_unless": 8043,
      "##shake_": 8044,
      "level_code": 8045,
      "tcg_temp_local": 8046,
      "usb_ms": 8047,
      "vp3": 8048,
      "##_plug": 8049,
      "excp_ri": 8050,
      "mcf": 8051,
      "operand0": 8052,
      "##pectral": 8053,
      "floor_setup": 8054,
      "psubw": 8055,
      "av_wl": 8056,
      "blkdbg": 8057,
      "blkdbg_": 8058,
      "excitation": 8059,
      "tcg_temp_local_new": 8060,
      "bw": 8061,
      "crypt": 8062,
      "gpt": 8063,
      "pmv": 8064,
      "##fm": 8065,
      "##hp": 8066,
      "##writ": 8067,
      "##_pattern": 8068,
      "##_fac": 8069,
      "##_media": 8070,
      "##umns": 8071,
      "forced": 8072,
      "qemu_f": 8073,
      "max_cpus": 8074,
      "sub_packet": 8075,
      "imx": 8076,
      "usb_token": 8077,
      "insns": 8078,
      "##box": 8079,
      "l1ref": 8080,
      "colors": 8081,
      "displaystate": 8082,
      "slice_context": 8083,
      "##_enabled_flag": 8084,
      "mp4": 8085,
      "##akeup": 8086,
      "update_cache": 8087,
      "bits_per_sample": 8088,
      "writer": 8089,
      "##_tmp0": 8090,
      "##_amount": 8091,
      "number_of_sectors": 8092,
      "piix3": 8093,
      "nb_output_files": 8094,
      "chroma_format_idc": 8095,
      "bmvtype": 8096,
      "##_term": 8097,
      "determ": 8098,
      "audio_frame_ctx": 8099,
      "che": 8100,
      "crypto": 8101,
      "date": 8102,
      "g_str": 8103,
      "h0": 8104,
      "i_type": 8105,
      "ups": 8106,
      "vk": 8107,
      "##type_": 8108,
      "##ai": 8109,
      "##ges": 8110,
      "##atom": 8111,
      "coupling": 8112,
      "##_f32": 8113,
      "##_f_code": 8114,
      "##_fmul": 8115,
      "##_coefs": 8116,
      "##_nop": 8117,
      "##deccontext": 8118,
      "explicit": 8119,
      "target_fl": 8120,
      "pixman": 8121,
      "##_console_": 8122,
      "starty": 8123,
      "avio_rb": 8124,
      "default_ref_list": 8125,
      "bochs": 8126,
      "fli": 8127,
      "rc_buffer_size": 8128,
      "0x21": 8129,
      "##_formats": 8130,
      "color_primaries": 8131,
      "ist_index": 8132,
      "##_dc_scal": 8133,
      "##_requested": 8134,
      "cp0_check": 8135,
      "##_sym": 8136,
      "phys_ram": 8137,
      "packed": 8138,
      "##llis": 8139,
      "capability": 8140,
      "cpu_src1_64": 8141,
      "device_type": 8142,
      "hevc_nal": 8143,
      "##controller": 8144,
      "##_emul": 8145,
      "target_efl": 8146,
      "##command": 8147,
      "##_ebml_master": 8148,
      "watchpoint": 8149,
      "##_grab": 8150,
      "release_buffer": 8151,
      "prepare": 8152,
      "##_super": 8153,
      "8x": 8154,
      "cuda": 8155,
      "grouplist": 8156,
      "pav": 8157,
      "tco": 8158,
      "vect": 8159,
      "wc3": 8160,
      "##uous": 8161,
      "##find": 8162,
      "##2l": 8163,
      "##_fe_": 8164,
      "##_bpp": 8165,
      "revents": 8166,
      "##_red": 8167,
      "chapter": 8168,
      "##scr": 8169,
      "input_link": 8170,
      "movl": 8171,
      "switched": 8172,
      "strstart": 8173,
      "listener": 8174,
      "##cluster": 8175,
      "float128": 8176,
      "##_load_seg": 8177,
      "##_fds": 8178,
      "l2_index": 8179,
      "index_op_ext": 8180,
      "test_c": 8181,
      "intra_matrix": 8182,
      "xenfb": 8183,
      "##_state_s": 8184,
      "anything": 8185,
      "strict": 8186,
      "address_space_mem": 8187,
      "##_esp": 8188,
      "ctts": 8189,
      "gen_ldst": 8190,
      "ticks": 8191,
      "uvalpha1": 8192,
      "guess": 8193,
      "##_distance": 8194,
      "ff_vp9": 8195,
      "cpu_f0s": 8196,
      "slice_type_nos": 8197,
      "_sig": 8198,
      "fm": 8199,
      "gui": 8200,
      "mjpeg_": 8201,
      "pam": 8202,
      "pas": 8203,
      "rma": 8204,
      "ve": 8205,
      "x_coord": 8206,
      "y_pos": 8207,
      "##pq": 8208,
      "##sf": 8209,
      "##90": 8210,
      "##reg_": 8211,
      "##_creds": 8212,
      "##_meta": 8213,
      "##ched": 8214,
      "arg6": 8215,
      "##mtc0": 8216,
      "pci_cap": 8217,
      "max_order": 8218,
      "compute_": 8219,
      "0x1e": 8220,
      "##_code_size": 8221,
      "spr_40x": 8222,
      "##arenc": 8223,
      "credentials": 8224,
      "##compress": 8225,
      "omap_find": 8226,
      "log2_cb": 8227,
      "high_freq": 8228,
      "##_from_str": 8229,
      "dxva": 8230,
      "av_dict_free": 8231,
      "sfb": 8232,
      "acpi_build": 8233,
      "pte0": 8234,
      "avg_frame_rate": 8235,
      "bytestream_get_le32": 8236,
      "##_round_up": 8237,
      "##_snapshots": 8238,
      "granule": 8239,
      "qdict_get_try": 8240,
      "better": 8241,
      "##mpeg_": 8242,
      "##_retry": 8243,
      "##16to32": 8244,
      "omap_findclk": 8245,
      "\"\");": 8246,
      "fraction": 8247,
      "halt": 8248,
      "ih": 8249,
      "vde": 8250,
      "vas": 8251,
      "y_ptr": 8252,
      "yscaleyuv": 8253,
      "##ni": 8254,
      "##fac": 8255,
      "##gx": 8256,
      "##_fetch": 8257,
      "##leak": 8258,
      "##uswb": 8259,
      "codec_priv": 8260,
      "gen_eob": 8261,
      "mb_info": 8262,
      "##_i386": 8263,
      "the_end": 8264,
      "filt": 8265,
      "prealloc": 8266,
      "do_sig": 8267,
      "dcl": 8268,
      "ref0": 8269,
      "mv_col": 8270,
      "pkt_pts": 8271,
      "float_flag": 8272,
      "##ibit": 8273,
      "ot_quad": 8274,
      "##_pic_num": 8275,
      "socket_fd": 8276,
      "boot_device": 8277,
      "backing_hd": 8278,
      "packuswb": 8279,
      "apic_id": 8280,
      "##_completion": 8281,
      "next_picture_ptr": 8282,
      "new_l1_size": 8283,
      "##features": 8284,
      "##_udp": 8285,
      "hw_frames_ctx": 8286,
      "bfi": 8287,
      "dd": 8288,
      "oi": 8289,
      "pol": 8290,
      "sonic": 8291,
      "vers": 8292,
      "yuyv": 8293,
      "##page_": 8294,
      "##a_handler": 8295,
      "stored": 8296,
      "##arse": 8297,
      "##uting": 8298,
      "##_reader": 8299,
      "##_native_": 8300,
      "##_dither": 8301,
      "block_y": 8302,
      "target_words_bigendian": 8303,
      "ff_codec": 8304,
      "num_entries": 8305,
      "##ectors": 8306,
      "filtergraph": 8307,
      "count1": 8308,
      "destination_register": 8309,
      "##buffer1": 8310,
      "##ibility": 8311,
      "##msav": 8312,
      "##_entry_add": 8313,
      "mpeg_f_code": 8314,
      "##_256": 8315,
      "temporal": 8316,
      "##ether": 8317,
      "##_lower": 8318,
      "##tings": 8319,
      "bytestream_get_be16": 8320,
      "completion": 8321,
      "lp2": 8322,
      "bit_depth_luma": 8323,
      "lsps": 8324,
      "connected": 8325,
      "iomemtype": 8326,
      "codec_type_video": 8327,
      "inserted": 8328,
      "_sa_handler": 8329,
      "]\"=&": 8330,
      "uvmy": 8331,
      "##_cmpu": 8332,
      "credp": 8333,
      "msmpeg4_version": 8334,
      "\"[": 8335,
      "(~": 8336,
      "lif": 8337,
      "most": 8338,
      "m48": 8339,
      "nfds": 8340,
      "sse2": 8341,
      "##metadata": 8342,
      "##02": 8343,
      "##38": 8344,
      "##};": 8345,
      "##select": 8346,
      "statp": 8347,
      "gen_mfc0": 8348,
      "##arter": 8349,
      "input1": 8350,
      "max_size": 8351,
      "##_aff": 8352,
      "ac_val": 8353,
      "put_no_rnd": 8354,
      "##_period": 8355,
      "logical": 8356,
      "or_tmp0": 8357,
      "opc_d": 8358,
      "##_linux": 8359,
      "rxdw": 8360,
      "##_direction": 8361,
      "phys_addr": 8362,
      "##_0_0": 8363,
      "tcg_gen_movi_i64": 8364,
      "short_ref": 8365,
      "writes": 8366,
      "prefix_rep": 8367,
      "qlist_insert_head": 8368,
      "##attrs": 8369,
      "qstring_from_str": 8370,
      "##_booke_": 8371,
      "videoctxt": 8372,
      "]++;": 8373,
      "##t59": 8374,
      "##_instr_start": 8375,
      "m48t59": 8376,
      "lb": 8377,
      "mn": 8378,
      "##pid": 8379,
      "##dnow": 8380,
      "##nor": 8381,
      "##name_": 8382,
      "##_psw": 8383,
      "reopen": 8384,
      "in_num": 8385,
      "##acing": 8386,
      "bdrv_req": 8387,
      "tcg_gen_mul": 8388,
      "avio_write": 8389,
      "0x0d": 8390,
      "put_packet": 8391,
      "checked": 8392,
      "pkt_dts": 8393,
      "about": 8394,
      "xmm_l": 8395,
      "##_accel": 8396,
      "log2_min": 8397,
      "qemu_get_byte": 8398,
      "pack16to32": 8399,
      "iv_frame": 8400,
      "badframe": 8401,
      "log_error": 8402,
      "v4l2": 8403,
      "enoent": 8404,
      "put_vp8_epel_pixels_tab": 8405,
      "ticks_per": 8406,
      "register_ioport_write": 8407,
      "idr": 8408,
      "occur": 8409,
      "pow": 8410,
      "##meta": 8411,
      "##tty": 8412,
      "##2str": 8413,
      "##gra": 8414,
      "##onym": 8415,
      "##idc": 8416,
      "##_release_": 8417,
      "0x24": 8418,
      "cpu_index": 8419,
      "ff_mpeg4": 8420,
      "##_set_irq": 8421,
      "bs1": 8422,
      "##00000000": 8423,
      "##_counts": 8424,
      "ref_index": 8425,
      "##_eflags": 8426,
      "register_mux": 8427,
      "##_proc": 8428,
      "##_be24": 8429,
      "sym": 8430,
      "##_acpi": 8431,
      "##_dc_scale": 8432,
      "top_type": 8433,
      "##_desc_get": 8434,
      "av_get_channel_layout": 8435,
      "punpckldq": 8436,
      "##_srsconf": 8437,
      "attribute_": 8438,
      "##_location": 8439,
      "frame_mbaff": 8440,
      "##_clamped": 8441,
      "##onymous": 8442,
      "da": 8443,
      "iop": 8444,
      "i440fx": 8445,
      "qnt": 8446,
      "qerror": 8447,
      "r_ss": 8448,
      "x1": 8449,
      "##ooth": 8450,
      "##53": 8451,
      "av_fast": 8452,
      "##_px": 8453,
      "##_mjpeg": 8454,
      "inp": 8455,
      "##_ddd": 8456,
      "##acement": 8457,
      "##32a": 8458,
      "##changed": 8459,
      "num_window": 8460,
      "##_setmask": 8461,
      "bsi": 8462,
      "##_intel": 8463,
      "##_integer": 8464,
      "##_actl": 8465,
      "fd_set": 8466,
      "framebuffer": 8467,
      "aspect": 8468,
      "##_cpuid": 8469,
      "##_cpu_field": 8470,
      "prdt": 8471,
      "io_buffer": 8472,
      "has_option": 8473,
      "float32": 8474,
      "##ensity": 8475,
      "##enccontext": 8476,
      "guest_primary": 8477,
      "av_codec_id_adpcm": 8478,
      "##_resample_": 8479,
      "0x4000": 8480,
      "dct_lines": 8481,
      "xen_pt": 8482,
      "zeroes": 8483,
      "##_4mv": 8484,
      "skip_bits_long": 8485,
      "rtsp_stream": 8486,
      "sin_port": 8487,
      "receive": 8488,
      "time_increment": 8489,
      "##inputvisitor": 8490,
      "ipv4": 8491,
      "##_grp": 8492,
      "broadcast": 8493,
      "resync_mb_x": 8494,
      "hpte64": 8495,
      "##_ecx": 8496,
      "##_tex_bits": 8497,
      "htonl": 8498,
      "ntohl": 8499,
      "##entral": 8500,
      "qemu_ram_alloc": 8501,
      "blkdbg_event": 8502,
      "dct_linesize_": 8503,
      "dl": 8504,
      "dxy": 8505,
      "dropp": 8506,
      "hchr": 8507,
      "m68k": 8508,
      "##8000": 8509,
      "##oin": 8510,
      "##by": 8511,
      "##u32": 8512,
      "##stal": 8513,
      "##devic": 8514,
      "##_cert": 8515,
      "##_pps": 8516,
      "in_flight": 8517,
      "out_num": 8518,
      "ffmpeg_": 8519,
      "arg0": 8520,
      "num_coeffs": 8521,
      "##_setcond": 8522,
      "av_log2": 8523,
      "nb_components": 8524,
      "##rystal": 8525,
      "mov_write_": 8526,
      "being": 8527,
      "audio_pkt": 8528,
      "subauth": 8529,
      "##_union": 8530,
      "##perm": 8531,
      "slice_table": 8532,
      "no_packet": 8533,
      "gen_helper_mtc0": 8534,
      "0x22": 8535,
      "##_screen": 8536,
      "field_select": 8537,
      "##_table_cache": 8538,
      "regions": 8539,
      ")]);": 8540,
      "dv_vlc": 8541,
      "##_gpio_out": 8542,
      "rwco": 8543,
      "av_frame_ref": 8544,
      "bink": 8545,
      "gen_opc_instr_start": 8546,
      "hypervisor": 8547,
      "##advise": 8548,
      "mpc8": 8549,
      "spapr_dr_connector": 8550,
      "offset_within_address_space": 8551,
      "##_f0_vreg": 8552,
      "##_guess": 8553,
      "##rystalhd": 8554,
      "bg": 8555,
      "r_frame_rate": 8556,
      "##_tid": 8557,
      "##ategy": 8558,
      "##iommu": 8559,
      "breakpoints": 8560,
      "##_htab": 8561,
      "out_buffer": 8562,
      "cur_lp": 8563,
      "alph": 8564,
      "##_readv": 8565,
      "##_nr_iid": 8566,
      "sparc": 8567,
      "platform": 8568,
      "##codeccontext": 8569,
      "]==": 8570,
      "color_trc": 8571,
      "##ildiv": 8572,
      "vec_splat": 8573,
      "called": 8574,
      "override": 8575,
      "##_ram_size": 8576,
      "nodename": 8577,
      "##_minus1": 8578,
      "mcg": 8579,
      "palett": 8580,
      "##legacy": 8581,
      "glfs": 8582,
      "precision": 8583,
      "##_8s": 8584,
      "pthread_cond": 8585,
      "arm_cp_state_": 8586,
      "ff_er": 8587,
      "stream_ptr_after": 8588,
      "avprobe_score": 8589,
      "qemu_put_be32s": 8590,
      "lm32": 8591,
      "vbv_delay": 8592,
      "##_atapi": 8593,
      "unescaped": 8594,
      "##_dc_scale_table": 8595,
      "##_nr_iidicc": 8596,
      "stream_ptr_after_chunk": 8597,
      "\"=": 8598,
      "_mc": 8599,
      "b5": 8600,
      "dig": 8601,
      "dctx": 8602,
      "glob": 8603,
      "qiv": 8604,
      "ranges": 8605,
      "y_offset": 8606,
      "##blk": 8607,
      "##test": 8608,
      "##y2": 8609,
      "##_sasl": 8610,
      "##izz": 8611,
      "##cker": 8612,
      "##ume_": 8613,
      "is_dir": 8614,
      "((!": 8615,
      "pb2": 8616,
      "##assigned": 8617,
      "##_elem": 8618,
      "move_": 8619,
      "##_picture_number": 8620,
      "format_name": 8621,
      "interval": 8622,
      "##ainer": 8623,
      "##_pixels_clamped": 8624,
      "macio": 8625,
      "##cpus": 8626,
      "disassemb": 8627,
      "xbzr": 8628,
      "):\"": 8629,
      "rtas_ld": 8630,
      "##marshal": 8631,
      "disp16": 8632,
      "##hcistate": 8633,
      "rex_r": 8634,
      "subtitle_header": 8635,
      "central": 8636,
      "dat": 8637,
      "hb": 8638,
      "lseek": 8639,
      "mak": 8640,
      "qdm": 8641,
      "sat": 8642,
      "tms": 8643,
      "##ntl": 8644,
      "##onal": 8645,
      "##_cuvid": 8646,
      "##cty": 8647,
      "##extent": 8648,
      "##_fix": 8649,
      "##anced": 8650,
      "##emonic": 8651,
      "##get_class": 8652,
      "cpu_exec": 8653,
      "##fference": 8654,
      "##chg": 8655,
      "is_direct": 8656,
      "##_session": 8657,
      "##_read_only": 8658,
      "ref_mb": 8659,
      "readonly": 8660,
      "##_uid": 8661,
      "##_start_code": 8662,
      "busstate": 8663,
      "##buffer0": 8664,
      "gen_helper_fp": 8665,
      "initialization": 8666,
      "samplesa": 8667,
      "##101": 8668,
      "fp_status": 8669,
      "':')": 8670,
      "mips_debug": 8671,
      "av_get_packet": 8672,
      "tswapal": 8673,
      "tswap64": 8674,
      "saf": 8675,
      "codec_flag_gray": 8676,
      "trying": 8677,
      "##_decref": 8678,
      "cpu_v1": 8679,
      "sprite_ref": 8680,
      "av_sample_fmt_fltp": 8681,
      "phase_count": 8682,
      "##_breakpoint": 8683,
      "##ynqmp": 8684,
      "rounder": 8685,
      "target_rlim": 8686,
      "last_non_zero_p1": 8687,
      "fit": 8688,
      "nan": 8689,
      "wor": 8690,
      "z2": 8691,
      "##_intf": 8692,
      "##v4": 8693,
      "##bps": 8694,
      "##ior": 8695,
      "##_tcp": 8696,
      "##_cd": 8697,
      "##edded": 8698,
      "##hest": 8699,
      "##_information": 8700,
      "##_wrid": 8701,
      "get_le32": 8702,
      "##_chars": 8703,
      "##_eip": 8704,
      "##_equal": 8705,
      "##_probe": 8706,
      "##_usage": 8707,
      "##_export": 8708,
      "video_encoder": 8709,
      "##ather": 8710,
      "enter": 8711,
      "avcodec_find": 8712,
      "av_pix_fmt_none": 8713,
      "0xf8": 8714,
      "##_sample_rate": 8715,
      "prot_read": 8716,
      "prot_write": 8717,
      "qobject_decref": 8718,
      "##_iter": 8719,
      "s390cpu": 8720,
      "cpu_physical_memory_write": 8721,
      "qemu_mutex_lock": 8722,
      "be64_to_cpus": 8723,
      "synchron": 8724,
      "hcall": 8725,
      "iotlb": 8726,
      "pmsav": 8727,
      "qsimple": 8728,
      "q35": 8729,
      "rval": 8730,
      "sad": 8731,
      "sent": 8732,
      "such": 8733,
      "y_coord": 8734,
      "##nm": 8735,
      "##tok": 8736,
      "##ue_p": 8737,
      "##l_t0": 8738,
      "##inx": 8739,
      "avg_": 8740,
      "reached": 8741,
      "##_oflag": 8742,
      "##_dxva2": 8743,
      "(&(": 8744,
      "##chown": 8745,
      "statistics": 8746,
      "block_device": 8747,
      "gen_add": 8748,
      "qemu_uuid": 8749,
      "packet_frag": 8750,
      "le64_to_cpu": 8751,
      "complex": 8752,
      "header_length": 8753,
      "##_units": 8754,
      "put_h264": 8755,
      "##que_": 8756,
      "##info_t": 8757,
      "##_pic_struct": 8758,
      "lowres": 8759,
      "##compare": 8760,
      "##_check_extension": 8761,
      "rx_fifo": 8762,
      "##_commit": 8763,
      "backing_file_": 8764,
      "##svga": 8765,
      "record": 8766,
      "loop_filter": 8767,
      "partitions": 8768,
      "##_cfi": 8769,
      "pipe": 8770,
      "##_el1": 8771,
      "scsw_actl": 8772,
      "aio_context_release": 8773,
      "stdio": 8774,
      "##_big_endian": 8775,
      "history": 8776,
      "vnc_auth_vencrypt": 8777,
      "##surface": 8778,
      "own": 8779,
      "scsidiskstate": 8780,
      "pci_base_address_space_": 8781,
      "swb_sizes": 8782,
      "##_timespec": 8783,
      "necessary": 8784,
      "qsimpleq": 8785,
      "\"{": 8786,
      "%.": 8787,
      "emb": 8788,
      "font": 8789,
      "hotplug_": 8790,
      "tis": 8791,
      "##ond": 8792,
      "##ename_": 8793,
      "av_find": 8794,
      "##_policy": 8795,
      "reco": 8796,
      "redo": 8797,
      "##ighest": 8798,
      "##_ol": 8799,
      "conver": 8800,
      "##child": 8801,
      "trunc": 8802,
      "##_x1": 8803,
      "##_frequency": 8804,
      "movaps": 8805,
      "next_dts": 8806,
      "frame_len": 8807,
      "bandwidth": 8808,
      "rc_override": 8809,
      "vmsvga": 8810,
      "invalidate": 8811,
      "snap": 8812,
      "gen_op_mfc0": 8813,
      "path_max": 8814,
      "ipmi": 8815,
      "correction": 8816,
      "really": 8817,
      "##265": 8818,
      "##present": 8819,
      "neon_store": 8820,
      "##rows": 8821,
      "gen_opc_buf": 8822,
      "corrected": 8823,
      "attribute": 8824,
      "qemu_iovec_init": 8825,
      "ebml_read": 8826,
      "jmp_insn": 8827,
      "avdiscard_non": 8828,
      "profile_idc": 8829,
      "pl1_r": 8830,
      "xtensa_option": 8831,
      "nb_ostreams": 8832,
      "gop_size": 8833,
      "##_pwritev": 8834,
      "determine": 8835,
      "+(": 8836,
      "-%": 8837,
      "bpc": 8838,
      "dtb": 8839,
      "lbr": 8840,
      "r4": 8841,
      "##8uv": 8842,
      "##_24": 8843,
      "##cand": 8844,
      "##relation": 8845,
      "##_ft0": 8846,
[...]
