{
  "version": "1.0",
  "truncation": null,
  "padding": null,
  "added_tokens": [
    {
      "id": 0,
      "content": "<s>",
      "single_word": false,
      "lstrip": false,
      "rstrip": false,
      "normalized": false,
      "special": true
    },
    {
      "id": 1,
      "content": "<pad>",
      "single_word": false,
      "lstrip": false,
      "rstrip": false,
      "normalized": false,
      "special": true
    },
    {
      "id": 2,
      "content": "</s>",
      "single_word": false,
      "lstrip": false,
      "rstrip": false,
      "normalized": false,
      "special": true
    },
    {
      "id": 3,
      "content": "<unk>",
      "single_word": false,
      "lstrip": false,
      "rstrip": false,
      "normalized": false,
      "special": true
    }
  ],
  "normalizer": {
    "type": "Sequence",
    "normalizers": [
      {
        "type": "Lowercase"
      },
      {
        "type": "NFKD"
      },
      {
        "type": "Strip",
        "strip_left": true,
        "strip_right": true
      },
      {
        "type": "StripAccents"
      }
    ]
  },
  "pre_tokenizer": {
    "type": "Whitespace"
  },
  "post_processor": null,
  "decoder": {
    "type": "WordPiece",
    "prefix": "##",
    "cleanup": true
  },
  "model": {
    "type": "WordPiece",
    "unk_token": "[UNK]",
    "continuing_subword_prefix": "##",
    "max_input_chars_per_word": 100,
    "vocab": {
      "<s>": 0,
      "<pad>": 1,
      "</s>": 2,
      "<unk>": 3,
      "!": 4,
      "\"": 5,
      "#": 6,
      "$": 7,
      "%": 8,
      "&": 9,
      "'": 10,
      "(": 11,
      ")": 12,
      "*": 13,
      "+": 14,
      ",": 15,
      "-": 16,
      ".": 17,
      "/": 18,
      "0": 19,
      "1": 20,
      "2": 21,
      "3": 22,
      "4": 23,
      "5": 24,
      "6": 25,
      "7": 26,
      "8": 27,
      "9": 28,
      ":": 29,
      ";": 30,
      "<": 31,
      "=": 32,
      ">": 33,
      "?": 34,
      "@": 35,
      "[": 36,
      "\\": 37,
      "]": 38,
      "^": 39,
      "_": 40,
      "`": 41,
      "a": 42,
      "b": 43,
      "c": 44,
      "d": 45,
      "e": 46,
      "f": 47,
      "g": 48,
      "h": 49,
      "i": 50,
      "j": 51,
      "k": 52,
      "l": 53,
      "m": 54,
      "n": 55,
      "o": 56,
      "p": 57,
      "q": 58,
      "r": 59,
      "s": 60,
      "t": 61,
      "u": 62,
      "v": 63,
      "w": 64,
      "x": 65,
      "y": 66,
      "z": 67,
      "{": 68,
      "|": 69,
      "}": 70,
      "~": 71,
      "##e": 72,
      "##i": 73,
      "##g": 74,
      "##h": 75,
      "##t": 76,
      "##_": 77,
      "##2": 78,
      "##6": 79,
      "##4": 80,
      "##p": 81,
      "##x": 82,
      "##l": 83,
      "##s": 84,
      "##8": 85,
      "##a": 86,
      "##v": 87,
      "##c": 88,
      "##1": 89,
      "##d": 90,
      "##!": 91,
      "##(": 92,
      "##*": 93,
      "##m": 94,
      "##u": 95,
      "##)": 96,
      "##&": 97,
      "##0": 98,
      "##b": 99,
      "##n": 100,
      "##o": 101,
      "##r": 102,
      "##w": 103,
      "##k": 104,
      "##f": 105,
      "##3": 106,
      "##7": 107,
      "##z": 108,
      "##q": 109,
      "##y": 110,
      "##5": 111,
      "##9": 112,
      "##j": 113,
      "##,": 114,
      "##'": 115,
      "##\\": 116,
      "##+": 117,
      "##;": 118,
      "##-": 119,
      "##>": 120,
      "##%": 121,
      "##\"": 122,
      "##=": 123,
      "##]": 124,
      "##:": 125,
      "##$": 126,
      "##~": 127,
      "##/": 128,
      "##<": 129,
      "##.": 130,
      "##?": 131,
      "##[": 132,
      "##{": 133,
      "##}": 134,
      "##^": 135,
      "##|": 136,
      "###": 137,
      "##@": 138,
      "->": 139,
      "##et": 140,
      "##re": 141,
      "##nt": 142,
      ");": 143,
      "##er": 144,
      "##st": 145,
      "##at": 146,
      "##de": 147,
      "##or": 148,
      "##in": 149,
      "if": 150,
      "##se": 151,
      "##_t": 152,
      "##le": 153,
      "##on": 154,
      "av": 155,
      "##_c": 156,
      "##_s": 157,
      "##am": 158,
      "##ct": 159,
      "##it": 160,
      "##_p": 161,
      "##al": 162,
      "##_f": 163,
      "##lo": 164,
      "##ar": 165,
      "##en": 166,
      "##iz": 167,
      "##ize": 168,
      "st": 169,
      "##_b": 170,
      "ret": 171,
      "##ad": 172,
      "##id": 173,
      "int": 174,
      "##_m": 175,
      "##ck": 176,
      "##ff": 177,
      "##ur": 178,
      "##ode": 179,
      "##an": 180,
      "/*": 181,
      "##ic": 182,
      "*/": 183,
      "re": 184,
      "##ut": 185,
      "##ase": 186,
      "##he": 187,
      "##);": 188,
      "##em": 189,
      "##int": 190,
      "##pe": 191,
      "##ame": 192,
      "##ot": 193,
      "in": 194,
      "##ate": 195,
      "##ul": 196,
      "de": 197,
      "##ig": 198,
      "##op": 199,
      "##ag": 200,
      "##00": 201,
      "case": 202,
      "##ion": 203,
      "##urn": 204,
      "##mp": 205,
      "return": 206,
      "##el": 207,
      "##_re": 208,
      "en": 209,
      "##dr": 210,
      "##pu": 211,
      "##_in": 212,
      "##as": 213,
      "0x": 214,
      "##_n": 215,
      "##ex": 216,
      "##ed": 217,
      "##io": 218,
      "##_g": 219,
      "##_st": 220,
      "##_size": 221,
      "##ak": 222,
      "==": 223,
      "##ata": 224,
      "##ue": 225,
      "##_d": 226,
      "bu": 227,
      "##reak": 228,
      "##32": 229,
      "break": 230,
      "##es": 231,
      "##ab": 232,
      "##_r": 233,
      "##ac": 234,
      "cpu": 235,
      "##ror": 236,
      "##il": 237,
      "el": 238,
      "##ing": 239,
      "ch": 240,
      "size": 241,
      "##lock": 242,
      "##ype": 243,
      "##co": 244,
      "(&": 245,
      "for": 246,
      "##ap": 247,
      "##rame": 248,
      "else": 249,
      "##set": 250,
      "##_lo": 251,
      "##ext": 252,
      "co": 253,
      "##_i": 254,
      "op": 255,
      "\",": 256,
      "##64": 257,
      "##ro": 258,
      "##_v": 259,
      "##um": 260,
      "##ile": 261,
      "##ctx": 262,
      "##rc": 263,
      "##ix": 264,
      "er": 265,
      "))": 266,
      "++": 267,
      "##un": 268,
      "##us": 269,
      "##odec": 270,
      "con": 271,
      "the": 272,
      "tc": 273,
      "avctx": 274,
      "uint": 275,
      "##tr": 276,
      "##_l": 277,
      "##ri": 278,
      "is": 279,
      "##_log": 280,
      "buf": 281,
      "##_de": 282,
      "##ull": 283,
      "##_co": 284,
      "##_o": 285,
      "##arg": 286,
      "##_w": 287,
      "##ack": 288,
      "##if": 289,
      "##lag": 290,
      "##tx": 291,
      "##im": 292,
      "];": 293,
      "##ist": 294,
      "##ent": 295,
      "##is": 296,
      "##ffset": 297,
      "tcg": 298,
      "##th": 299,
      "##ir": 300,
      "ar": 301,
      "stat": 302,
      "##able": 303,
      "av_log": 304,
      "##_type": 305,
      "##its": 306,
      "(!": 307,
      "##ream": 308,
      "&&": 309,
      "null": 310,
      "##ch": 311,
      "gen": 312,
      "##_op": 313,
      "##_id": 314,
      "##dex": 315,
      "##arget": 316,
      "ff": 317,
      "get": 318,
      "##emu": 319,
      "][": 320,
      "codec": 321,
      "##ts": 322,
      "env": 323,
      "##ict": 324,
      "vo": 325,
      "ad": 326,
      "mm": 327,
      "ex": 328,
      "lo": 329,
      "##_get": 330,
      "##16": 331,
      "##error": 332,
      "##_h": 333,
      "%%": 334,
      "data": 335,
      "##up": 336,
      "ctx": 337,
      "##of": 338,
      "],": 339,
      "##_ad": 340,
      "##and": 341,
      "target": 342,
      "##ect": 343,
      "##pr": 344,
      "##ci": 345,
      "##oto": 346,
      "src": 347,
      "##ure": 348,
      "##ax": 349,
      "##amp": 350,
      "static": 351,
      "##ov": 352,
      "mb": 353,
      "qemu": 354,
      "to": 355,
      "((": 356,
      "void": 357,
      "##ntext": 358,
      "##unt": 359,
      "));": 360,
      "arg": 361,
      "##ice": 362,
      "++)": 363,
      "##art": 364,
      "##_en": 365,
      "block": 366,
      "##ss": 367,
      "),": 368,
      "val": 369,
      "un": 370,
      "const": 371,
      "goto": 372,
      "!=": 373,
      "reg": 374,
      "##ort": 375,
      "\");": 376,
      "out": 377,
      "##ample": 378,
      "##ce": 379,
      "tmp": 380,
      "##ign": 381,
      "##fo": 382,
      "##_bits": 383,
      "##ter": 384,
      "##_le": 385,
      "##igh": 386,
      "frame": 387,
      "##_set": 388,
      "##yt": 389,
      "dev": 390,
      "##lags": 391,
      "##ffer": 392,
      "mem": 393,
      "pb": 394,
      ">>": 395,
      "##ub": 396,
      "##ps": 397,
      "##ay": 398,
      "end": 399,
      "he": 400,
      "##ow": 401,
      "##ve": 402,
      "bs": 403,
      "+=": 404,
      "gb": 405,
      "err": 406,
      "<<": 407,
      "##code": 408,
      "error": 409,
      "##_reg": 410,
      "//": 411,
      "##rit": 412,
      "sizeof": 413,
      "##mt": 414,
      "||": 415,
      "##_a": 416,
      "##_bu": 417,
      "].": 418,
      "##context": 419,
      "##val": 420,
      "##state": 421,
      "th": 422,
      "##ask": 423,
      "##nel": 424,
      "dst": 425,
      "##sc": 426,
      "##err": 427,
      "##ult": 428,
      "##ight": 429,
      "##ree": 430,
      "nb": 431,
      "##put": 432,
      "##kt": 433,
      "##_se": 434,
      "##que": 435,
      "##_frame": 436,
      "##ine": 437,
      "##dev": 438,
      "##_he": 439,
      "##mm": 440,
      "tr": 441,
      "##ert": 442,
      "offset": 443,
      "len": 444,
      "##rite": 445,
      "##idth": 446,
      "##_index": 447,
      "al": 448,
      "##mat": 449,
      "##bu": 450,
      "str": 451,
      "cur": 452,
      "(\"": 453,
      "##pc": 454,
      "##loc": 455,
      "##ew": 456,
      "##ilter": 457,
      "sc": 458,
      "##8_t": 459,
      "##_x": 460,
      "def": 461,
      "##ast": 462,
      "##os": 463,
      "##_init": 464,
      "char": 465,
      "##ma": 466,
      "##age": 467,
      "##ip": 468,
      "##acket": 469,
      "##est": 470,
      "16": 471,
      "##_fmt": 472,
      "uint8_t": 473,
      "##ver": 474,
      "##ation": 475,
      "##ader": 476,
      "##_error": 477,
      "##intf": 478,
      "##ail": 479,
      "addr": 480,
      "##_free": 481,
      "##red": 482,
      "##_ch": 483,
      "##_ptr": 484,
      "##ass": 485,
      "dc": 486,
      "##_offset": 487,
      "pix": 488,
      "##_q": 489,
      "pci": 490,
      "##32_t": 491,
      "se": 492,
      "##sp": 493,
      "##_data": 494,
      "##0000": 495,
      "num": 496,
      "##ol": 497,
      "##icture": 498,
      "##_table": 499,
      "##annel": 500,
      "##64_t": 501,
      "fd": 502,
      "##_gen": 503,
      "sw": 504,
      "##_int": 505,
      "##ime": 506,
      "##pl": 507,
      "##_count": 508,
      "do": 509,
      "##nd": 510,
      "##ys": 511,
      "##uct": 512,
      "not": 513,
      "##ory": 514,
      "##ault": 515,
      "##_read": 516,
      "##pt": 517,
      "##_y": 518,
      "##_addr": 519,
      "##_con": 520,
      "id": 521,
      "sh": 522,
      "byt": 523,
      "##name": 524,
      "]);": 525,
      "max": 526,
      "##nc": 527,
      "file": 528,
      "pr": 529,
      "();": 530,
      "##drv": 531,
      "flags": 532,
      "ac": 533,
      "##alloc": 534,
      "##ust": 535,
      "##om": 536,
      "##ge": 537,
      "##emp": 538,
      "##irt": 539,
      "endif": 540,
      "sample": 541,
      "##_len": 542,
      "bdrv": 543,
      "##_str": 544,
      "we": 545,
      "##_e": 546,
      "##md": 547,
      "##ers": 548,
      "##ry": 549,
      "type": 550,
      "stream": 551,
      "be": 552,
      "ref": 553,
      "##ride": 554,
      "##bj": 555,
      "##ide": 556,
      "res": 557,
      "cl": 558,
      "##igned": 559,
      "##sn": 560,
      "##heck": 561,
      "##_base": 562,
      "of": 563,
      "tcg_gen": 564,
      "##000": 565,
      "le": 566,
      "##ines": 567,
      "##_add": 568,
      "##ly": 569,
      "##ost": 570,
      "sl": 571,
      "##rent": 572,
      "##ong": 573,
      "pkt": 574,
      "wh": 575,
      "##ace": 576,
      "##_write": 577,
      "##fig": 578,
      "##ud": 579,
      "##ress": 580,
      "##ector": 581,
      "##printf": 582,
      "index": 583,
      "##der": 584,
      "##ormat": 585,
      "##no": 586,
      "##ister": 587,
      "mov": 588,
      "pc": 589,
      "*)": 590,
      "##rq": 591,
      "averror": 592,
      "##_i32": 593,
      "width": 594,
      "##cp": 595,
      "value": 596,
      "])": 597,
      "as": 598,
      "##_buffer": 599,
      "##itch": 600,
      "uint32_t": 601,
      "##inesize": 602,
      "##_cpu": 603,
      "##_num": 604,
      "on": 605,
      "##vel": 606,
      "pre": 607,
      "##_ex": 608,
      "uns": 609,
      "##lk": 610,
      "av_log_error": 611,
      "##port": 612,
      ">=": 613,
      "##_block": 614,
      "##valid": 615,
      "bit": 616,
      "##ale": 617,
      "##_to": 618,
      "mv": 619,
      "##ctor": 620,
      "so": 621,
      "set": 622,
      "##_mask": 623,
      "##_pr": 624,
      "##ift": 625,
      "##ment": 626,
      "##_pix": 627,
      "start": 628,
      "##peg": 629,
      "next": 630,
      "##si": 631,
      "##_un": 632,
      "##_out": 633,
      "comp": 634,
      "##size": 635,
      "##aram": 636,
      "##ind": 637,
      "##udio": 638,
      "avio": 639,
      "##ache": 640,
      "code": 641,
      "struct": 642,
      "switch": 643,
      "##addr": 644,
      "##def": 645,
      "##ore": 646,
      "##end": 647,
      "##_us": 648,
      "unsigned": 649,
      "init": 650,
      "##ave": 651,
      "##map": 652,
      "last": 653,
      "##ra": 654,
      "name": 655,
      "us": 656,
      "0x0": 657,
      "0x1": 658,
      "add": 659,
      "##_cl": 660,
      "##ess": 661,
      "##ideo": 662,
      "##_file": 663,
      "##_err": 664,
      "and": 665,
      "default": 666,
      "##ant": 667,
      "pro": 668,
      "##out": 669,
      "##read": 670,
      "height": 671,
      "##ey": 672,
      "sub": 673,
      "rt": 674,
      "##_flag": 675,
      "memory": 676,
      "##_dev": 677,
      "channel": 678,
      "##_start": 679,
      "##_picture": 680,
      "##_code": 681,
      "fail": 682,
      "##eld": 683,
      "obj": 684,
      "##kip": 685,
      "##reg": 686,
      "##ield": 687,
      "buffer": 688,
      "##riv": 689,
      "get_bits": 690,
      "sp": 691,
      "){": 692,
      "##aque": 693,
      "errp": 694,
      "##ith": 695,
      "put": 696,
      "vs": 697,
      "##ec": 698,
      "avf": 699,
      "##_user": 700,
      "|=": 701,
      "read": 702,
      "##_sh": 703,
      "##_max": 704,
      "check": 705,
      "header": 706,
      "##per": 707,
      "virt": 708,
      "tb": 709,
      "##_val": 710,
      "##vm": 711,
      "new": 712,
      "(*": 713,
      "opt": 714,
      "dis": 715,
      "##_u": 716,
      "opaque": 717,
      "##_mem": 718,
      "12": 719,
      "##_new": 720,
      "insn": 721,
      "pl": 722,
      "##sr": 723,
      "##_end": 724,
      "++;": 725,
      "info": 726,
      "##_al": 727,
      "##gth": 728,
      "bo": 729,
      "##_io": 730,
      "rd": 731,
      "##_sample": 732,
      "##ive": 733,
      "current": 734,
      "##ffff": 735,
      "##bug": 736,
      "tcg_t": 737,
      "cont": 738,
      "register": 739,
      "##_nr": 740,
      "##ions": 741,
      "config": 742,
      "##_state": 743,
      "io": 744,
      "##_mode": 745,
      "it": 746,
      "##_packet": 747,
      "##loat": 748,
      "##_buf": 749,
      "##lc": 750,
      "at": 751,
      "pic": 752,
      "##_sector": 753,
      "##_mb": 754,
      "##_byt": 755,
      "##ath": 756,
      "##len": 757,
      "##eat": 758,
      "avp": 759,
      "uint64_t": 760,
      "##ld": 761,
      "linesize": 762,
      "##buf": 763,
      "##hys": 764,
      "##_irq": 765,
      "##ach": 766,
      "10": 767,
      "mode": 768,
      "##adata": 769,
      "while": 770,
      "##uster": 771,
      "(%": 772,
      "##cal": 773,
      "##cess": 774,
      "device": 775,
      "##qu": 776,
      "32": 777,
      "di": 778,
      "target_nr": 779,
      "output": 780,
      "##_info": 781,
      "##rom": 782,
      "##ink": 783,
      "log": 784,
      "##16_t": 785,
      "codec_id": 786,
      "##fd": 787,
      "list": 788,
      "this": 789,
      "##uv": 790,
      "##roma": 791,
      "ost": 792,
      "time": 793,
      "##ft": 794,
      "##_be": 795,
      "##eature": 796,
      "##sh": 797,
      "##unc": 798,
      "##codec": 799,
      "blk": 800,
      "##_stream": 801,
      "##_rate": 802,
      "##one": 803,
      "##estream": 804,
      "##sed": 805,
      "packet": 806,
      "ne": 807,
      "extr": 808,
      "has": 809,
      "##ord": 810,
      "cb": 811,
      "bytestream": 812,
      "pixel": 813,
      "##ial": 814,
      "##ard": 815,
      "##_tl": 816,
      "##_env": 817,
      "pix_fmt": 818,
      "##_i64": 819,
      "##_ctx": 820,
      "##und": 821,
      "##gb": 822,
      "ifdef": 823,
      "bits": 824,
      "##_per": 825,
      "\")": 826,
      "##info": 827,
      "or": 828,
      "##irst": 829,
      "##ync": 830,
      "##_opt": 831,
      "##_malloc": 832,
      "im": 833,
      "int64_t": 834,
      "##ans": 835,
      "rc": 836,
      "tcg_temp": 837,
      "##opy": 838,
      "gen_op": 839,
      "##fs": 840,
      "##_idx": 841,
      "##te": 842,
      "##stream": 843,
      "##date": 844,
      "opc": 845,
      "##_sc": 846,
      "filter": 847,
      "##12": 848,
      "\"\\": 849,
      "fl": 850,
      "cmd": 851,
      "no": 852,
      "count": 853,
      "ass": 854,
      "##quest": 855,
      "##ib": 856,
      "##vent": 857,
      "t0": 858,
      "##_put": 859,
      "##_hel": 860,
      "##_width": 861,
      "##_name": 862,
      "##_flags": 863,
      "<=": 864,
      "priv": 865,
      "audio": 866,
      "##ain": 867,
      "##imer": 868,
      "##_k": 869,
      "##ram": 870,
      "##_helper": 871,
      "##od": 872,
      "buf_size": 873,
      "spr": 874,
      "##reate": 875,
      "mb_type": 876,
      "##_mov": 877,
      "skip": 878,
      "##_stat": 879,
      "##coder": 880,
      "##_cache": 881,
      "##con": 882,
      "object": 883,
      "pos": 884,
      "hw": 885,
      "##data": 886,
      "]=": 887,
      "ts": 888,
      "dest": 889,
      "##ange": 890,
      "status": 891,
      "virtio": 892,
      "##_mm": 893,
      "##_header": 894,
      "cs": 895,
      "ab": 896,
      "band": 897,
      "##ity": 898,
      "##lt": 899,
      "gen_helper": 900,
      "load": 901,
      "##_list": 902,
      "arm": 903,
      "##_tr": 904,
      "##_ext": 905,
      "##_as": 906,
      "temp": 907,
      "##_sub": 908,
      "##->": 909,
      "##ref": 910,
      "##264": 911,
      "level": 912,
      "chr": 913,
      "##ph": 914,
      "##mb": 915,
      "decode": 916,
      "##cept": 917,
      "table": 918,
      "req": 919,
      "##add": 920,
      "ist": 921,
      "vc": 922,
      "25": 923,
      "write": 924,
      "##24": 925,
      "##xx": 926,
      "##ep": 927,
      "sd": 928,
      "##ero": 929,
      "##_invalid": 930,
      "##_prop": 931,
      "ptr": 932,
      "()": 933,
      "float": 934,
      "ent": 935,
      "##eff": 936,
      "sector": 937,
      "bus": 938,
      "fdt": 939,
      "samples": 940,
      "##_codec": 941,
      "##scale": 942,
      "avcodec": 943,
      "input": 944,
      "state": 945,
      "##ill": 946,
      "first": 947,
      "##_feature": 948,
      "##ms": 949,
      "ra": 950,
      "##_sectors": 951,
      "##str": 952,
      "min": 953,
      "##block": 954,
      "fprintf": 955,
      "##ound": 956,
      "##own": 957,
      "##ernel": 958,
      "##uld": 959,
      "par": 960,
      "**": 961,
      "video": 962,
      "ram": 963,
      "##rect": 964,
      "format": 965,
      "pts": 966,
      "ps": 967,
      "cluster": 968,
      "inter": 969,
      "args": 970,
      "##_ld": 971,
      "##unk": 972,
      "##86": 973,
      "##ber": 974,
      "local": 975,
      "slice": 976,
      "an": 977,
      "##all": 978,
      "can": 979,
      "std": 980,
      "##ane": 981,
      "host": 982,
      "picture": 983,
      "##ok": 984,
      "invalid": 985,
      "##_time": 986,
      "0xff": 987,
      "key": 988,
      "back": 989,
      "kvm": 990,
      "##ient": 991,
      "##av": 992,
      "##upport": 993,
      "##low": 994,
      "filename": 995,
      "cp": 996,
      "##hci": 997,
      "pred": 998,
      "##_debug": 999,
      "up": 1000,
      "with": 1001,
      "##lor": 1002,
      "##_vlc": 1003,
      "##mple": 1004,
      "qdev": 1005,
      "##_pixel": 1006,
      "##edi": 1007,
      "##_height": 1008,
      "address": 1009,
      "##_up": 1010,
      "0x2": 1011,
      "cpu_env": 1012,
      "##_decode": 1013,
      "##_ent": 1014,
      "use": 1015,
      "usb": 1016,
      "##ips": 1017,
      "mb_x": 1018,
      "desc": 1019,
      "##fg": 1020,
      "cc": 1021,
      "##oint": 1022,
      "arg1": 1023,
      "xmm": 1024,
      "##80": 1025,
      "##_region": 1026,
      "##_channel": 1027,
      "##andle": 1028,
      "-=": 1029,
      "##_or": 1030,
      "base": 1031,
      "##_shift": 1032,
      "sys": 1033,
      "##ined": 1034,
      "tag": 1035,
      "##\",": 1036,
      "sps": 1037,
      "##count": 1038,
      "##_comp": 1039,
      "\";": 1040,
      "##bus": 1041,
      "##_pre": 1042,
      "vnc": 1043,
      "##_pix_fmt": 1044,
      "mask": 1045,
      "##_page": 1046,
      "##_ass": 1047,
      "##line": 1048,
      "iov": 1049,
      "##ush": 1050,
      "##list": 1051,
      "fp": 1052,
      "##_j": 1053,
      "##_phys": 1054,
      "vp": 1055,
      "rn": 1056,
      "channels": 1057,
      "opts": 1058,
      "qu": 1059,
      "t1": 1060,
      "##ition": 1061,
      "##_ref": 1062,
      "have": 1063,
      "av_free": 1064,
      "mat": 1065,
      "##_filter": 1066,
      "stride": 1067,
      "l1": 1068,
      "rs": 1069,
      "##_ms": 1070,
      "0x3": 1071,
      "assert": 1072,
      "##uest": 1073,
      "bytes": 1074,
      "##_param": 1075,
      "chroma": 1076,
      "##ersion": 1077,
      "kernel": 1078,
      "##_alloc": 1079,
      "##cl": 1080,
      "##frame": 1081,
      "are": 1082,
      "##ded": 1083,
      "stderr": 1084,
      "##_sp": 1085,
      "##_map": 1086,
      "shift": 1087,
      "##ls": 1088,
      "##_field": 1089,
      "##mv": 1090,
      "run": 1091,
      "##cket": 1092,
      "##cpy": 1093,
      "##iv": 1094,
      "##_assert": 1095,
      "sn": 1096,
      "bytestream2": 1097,
      "##act": 1098,
      "that": 1099,
      "##_pos": 1100,
      "path": 1101,
      "map": 1102,
      "##lay": 1103,
      "##file": 1104,
      "enc": 1105,
      "##ek": 1106,
      "##iver": 1107,
      "##_pred": 1108,
      "##otion": 1109,
      "',": 1110,
      "##apr": 1111,
      "##_is": 1112,
      "ap": 1113,
      "##_load": 1114,
      "##_value": 1115,
      "##_ne": 1116,
      "(!(": 1117,
      "##pha": 1118,
      "##otal": 1119,
      "##lb": 1120,
      "fa": 1121,
      "fix": 1122,
      "##_th": 1123,
      "##_memory": 1124,
      ")))": 1125,
      "##ception": 1126,
      "##8x": 1127,
      "pict": 1128,
      "dir": 1129,
      ":%": 1130,
      "##_device": 1131,
      "ms": 1132,
      "length": 1133,
      "##filter": 1134,
      "ext": 1135,
      "arg2": 1136,
      "old": 1137,
      "##dict": 1138,
      "defined": 1139,
      "##ower": 1140,
      "av_pix_fmt": 1141,
      "##_bit": 1142,
      "]->": 1143,
      "##omem": 1144,
      "##_byte": 1145,
      "##10": 1146,
      "##driver": 1147,
      "##_context": 1148,
      "extradata": 1149,
      "##_bus": 1150,
      "##let": 1151,
      "mm0": 1152,
      "page": 1153,
      "memcpy": 1154,
      "64": 1155,
      "cpu_t": 1156,
      "##_errno": 1157,
      "##_status": 1158,
      "##_dis": 1159,
      "true": 1160,
      "=%": 1161,
      "##ob": 1162,
      "##_z": 1163,
      "vm": 1164,
      "##abled": 1165,
      "from": 1166,
      "##_pc": 1167,
      "vdev": 1168,
      "##_cb": 1169,
      "##rol": 1170,
      "##_invaliddata": 1171,
      "averror_invaliddata": 1172,
      "prev": 1173,
      "##_pro": 1174,
      "##_ul": 1175,
      "##ding": 1176,
      "ot": 1177,
      "##upt": 1178,
      "ffm": 1179,
      "##ug": 1180,
      "##orm": 1181,
      "15": 1182,
      "##uration": 1183,
      "##queue": 1184,
      "pps": 1185,
      "##enc": 1186,
      "priv_data": 1187,
      "##_ar": 1188,
      "tmp2": 1189,
      "##res": 1190,
      "##ler": 1191,
      "##be": 1192,
      "ser": 1193,
      "idx": 1194,
      "alloc": 1195,
      "##ary": 1196,
      "long": 1197,
      "##so": 1198,
      "param": 1199,
      "##_mv": 1200,
      "##ild": 1201,
      "0xf": 1202,
      "##stride": 1203,
      "l2": 1204,
      "##iled": 1205,
      "##ray": 1206,
      "regs": 1207,
      "uint16_t": 1208,
      "##_ulong": 1209,
      "--": 1210,
      "##play": 1211,
      "##rd": 1212,
      "##_create": 1213,
      "##pel": 1214,
      "##pect": 1215,
      "##me": 1216,
      "##_tag": 1217,
      "##_tab": 1218,
      "mpeg": 1219,
      "##bo": 1220,
      "##ere": 1221,
      "##ash": 1222,
      "port": 1223,
      "##_src": 1224,
      "##ical": 1225,
      "&=": 1226,
      "\"%": 1227,
      "irq": 1228,
      "total": 1229,
      "##ang": 1230,
      "exit": 1231,
      "##are": 1232,
      "power": 1233,
      "##pth": 1234,
      "##fl": 1235,
      "act": 1236,
      "##pp": 1237,
      "##format": 1238,
      "##ios": 1239,
      "##ated": 1240,
      "uv": 1241,
      "mon": 1242,
      "vec": 1243,
      "##**": 1244,
      "error_set": 1245,
      "##alse": 1246,
      "spapr": 1247,
      "##ux": 1248,
      ")(": 1249,
      "ip": 1250,
      "ein": 1251,
      "##fault": 1252,
      "##_inter": 1253,
      "};": 1254,
      "contin": 1255,
      "memory_region": 1256,
      "##rl": 1257,
      "comm": 1258,
      "false": 1259,
      "movq": 1260,
      "##cr": 1261,
      "##_filename": 1262,
      "entry": 1263,
      "##_ab": 1264,
      "##_fl": 1265,
      "tcg_temp_free": 1266,
      "##_format": 1267,
      "##ifi": 1268,
      "##_check": 1269,
      "memset": 1270,
      "##cb": 1271,
      "##_not": 1272,
      "guest": 1273,
      "mx": 1274,
      "mb_y": 1275,
      "##errupt": 1276,
      "av_malloc": 1277,
      "cr": 1278,
      "aio": 1279,
      "##ctl": 1280,
      "##cow": 1281,
      "##_fd": 1282,
      "##lose": 1283,
      "##achine": 1284,
      "##c0": 1285,
      "##du": 1286,
      "##pec": 1287,
      "##ptr": 1288,
      "##_pixels": 1289,
      "tcgv": 1290,
      "einval": 1291,
      "##_stride": 1292,
      "##ify": 1293,
      "continue": 1294,
      "##ens": 1295,
      "mm1": 1296,
      "trans": 1297,
      "##_string": 1298,
      "##br": 1299,
      "##_pic": 1300,
      "##use": 1301,
      "##_streams": 1302,
      "line": 1303,
      "##_cmd": 1304,
      "color": 1305,
      "##_func": 1306,
      "##_ac": 1307,
      "##_insn": 1308,
      "##_report": 1309,
      "open": 1310,
      "]]": 1311,
      "plane": 1312,
      "##upported": 1313,
      "scan": 1314,
      "failed": 1315,
      "##ga": 1316,
      "##gr": 1317,
      "##ell": 1318,
      "g_assert": 1319,
      "dr": 1320,
      "strc": 1321,
      "track": 1322,
      "##11": 1323,
      "vector": 1324,
      "lock": 1325,
      "qdict": 1326,
      "##44": 1327,
      "##cs": 1328,
      "##ual": 1329,
      "only": 1330,
      "##_par": 1331,
      "##_sig": 1332,
      "error_setg": 1333,
      "low": 1334,
      "copy": 1335,
      "##_cmp": 1336,
      "by": 1337,
      "field": 1338,
      "sy": 1339,
      "##_register": 1340,
      "##_update": 1341,
      "av_codec": 1342,
      "rm": 1343,
      "##ml": 1344,
      "##_bytes": 1345,
      "local_err": 1346,
      "##region": 1347,
      "##_sl": 1348,
      "##ped": 1349,
      "20": 1350,
      "##iff": 1351,
      "##mov": 1352,
      "##_intra": 1353,
      "off": 1354,
      "pal": 1355,
      "index_op": 1356,
      "##erty": 1357,
      "##_rl": 1358,
      "##ser": 1359,
      "##_tb": 1360,
      "##atch": 1361,
      "##device": 1362,
      "##_samples": 1363,
      "##lta": 1364,
      "##_enc": 1365,
      "256": 1366,
      "##_dc": 1367,
      "##_im": 1368,
      "dsp": 1369,
      "avcodeccontext": 1370,
      "ss": 1371,
      "%%\"": 1372,
      "enomem": 1373,
      "bool": 1374,
      "motion": 1375,
      "##_entry": 1376,
      "sig": 1377,
      "g_free": 1378,
      "##itor": 1379,
      "mm2": 1380,
      "v9": 1381,
      "get_errno": 1382,
      "##42": 1383,
      "##rix": 1384,
      "##_reset": 1385,
      "11": 1386,
      "##uid": 1387,
      "##ning": 1388,
      "powerpc": 1389,
      "all": 1390,
      "per": 1391,
      "##bit": 1392,
      "##_input": 1393,
      "##iov": 1394,
      "##_audio": 1395,
      "##_config": 1396,
      "##ake": 1397,
      "get_bits1": 1398,
      "##ump": 1399,
      "##driverstate": 1400,
      "request": 1401,
      "lum": 1402,
      "##_no": 1403,
      "avformat": 1404,
      "vf": 1405,
      "need": 1406,
      "image": 1407,
      "qp": 1408,
      "##_ram": 1409,
      "nbd": 1410,
      "##_gpr": 1411,
      "test": 1412,
      "avpkt": 1413,
      "*(": 1414,
      "##_key": 1415,
      "##_arg": 1416,
      "int16_t": 1417,
      "##_min": 1418,
      "av_codec_id": 1419,
      "omap": 1420,
      "##mplement": 1421,
      "##_2": 1422,
      "##_length": 1423,
      "##edia": 1424,
      "##nect": 1425,
      "##_av": 1426,
      "version": 1427,
      "##_cond": 1428,
      "mo": 1429,
      "time_base": 1430,
      "vis": 1431,
      "##level": 1432,
      "node": 1433,
      "rx": 1434,
      "##wap": 1435,
      "current_picture": 1436,
      "##_decoder": 1437,
      "##_cfg": 1438,
      "##ance": 1439,
      "##_video": 1440,
      "##_be32": 1441,
      "pa": 1442,
      "##irty": 1443,
      "0x00": 1444,
      "##_left": 1445,
      "update": 1446,
      "po": 1447,
      "##rap": 1448,
      "sm": 1449,
      "mm4": 1450,
      "0xffff": 1451,
      "vd": 1452,
      "sign": 1453,
      "qcow": 1454,
      "##_long": 1455,
      "options": 1456,
      "over": 1457,
      "##39": 1458,
      "##cond": 1459,
      "##_ed": 1460,
      "##ould": 1461,
      "seg": 1462,
      "top": 1463,
      "##abel": 1464,
      "##pos": 1465,
      "streams": 1466,
      "##ping": 1467,
      "##_zero": 1468,
      "##link": 1469,
      "##_opts": 1470,
      "##xl": 1471,
      "##eth": 1472,
      "##_struct": 1473,
      "##ise": 1474,
      "##ute": 1475,
      "24": 1476,
      "##flag": 1477,
      "##_on": 1478,
      "fs": 1479,
      "nv": 1480,
      "##_cc": 1481,
      "##ries": 1482,
      "##flags": 1483,
      "##ction": 1484,
      "##cc": 1485,
      "chunk": 1486,
      "##_pl": 1487,
      "access": 1488,
      "mp": 1489,
      "##_pci": 1490,
      "##8x8": 1491,
      "##imit": 1492,
      "##nal": 1493,
      "debug": 1494,
      "##_sy": 1495,
      "##mask": 1496,
      "##etadata": 1497,
      "##lem": 1498,
      "##andler": 1499,
      "':": 1500,
      "##do": 1501,
      "bytestream2_get": 1502,
      "##_frames": 1503,
      "got": 1504,
      "##to": 1505,
      "trace": 1506,
      "ide": 1507,
      "##roup": 1508,
      "target_ulong": 1509,
      "##rypt": 1510,
      "\"(": 1511,
      "##rag": 1512,
      "##_timer": 1513,
      "##coding": 1514,
      "codec_type": 1515,
      "##pi": 1516,
      "mm3": 1517,
      "isa": 1518,
      "bios": 1519,
      "cor": 1520,
      "store": 1521,
      "##_open": 1522,
      "##ices": 1523,
      "h264": 1524,
      "fixme": 1525,
      "av_d": 1526,
      "scsi": 1527,
      "initrd": 1528,
      "13": 1529,
      "##_queue": 1530,
      "left": 1531,
      "..": 1532,
      "rgb": 1533,
      "##ript": 1534,
      "##__": 1535,
      "##_find": 1536,
      "ppc": 1537,
      "0x4": 1538,
      "sample_rate": 1539,
      "##indow": 1540,
      "##_class": 1541,
      "##_cap": 1542,
      "##ayout": 1543,
      "excp": 1544,
      "arg3": 1545,
      "##uble": 1546,
      "##urce": 1547,
      "tb_ptr": 1548,
      "##opts": 1549,
      "##_enabled": 1550,
      "##_yuv": 1551,
      "client": 1552,
      ".\\": 1553,
      "dprintf": 1554,
      "tci": 1555,
      "\"))": 1556,
      "opcode": 1557,
      "coeff": 1558,
      "##_number": 1559,
      "qxl": 1560,
      "##--": 1561,
      "##sent": 1562,
      "##face": 1563,
      "cp0": 1564,
      "##_rb": 1565,
      "refcount": 1566,
      "ed": 1567,
      "strcmp": 1568,
      "##type": 1569,
      "##bject": 1570,
      "scale": 1571,
      "##26": 1572,
      "tcg_out": 1573,
      "##req": 1574,
      "nb_sectors": 1575,
      "%\"": 1576,
      "##stat": 1577,
      "blockdriverstate": 1578,
      "tcg_temp_new": 1579,
      "##fn": 1580,
      "va": 1581,
      "},": 1582,
      "dec": 1583,
      "pass": 1584,
      "##_request": 1585,
      "##_property": 1586,
      "px": 1587,
      "si": 1588,
      "##_and": 1589,
      "##a2": 1590,
      "++){": 1591,
      "##_mmx": 1592,
      "xxx": 1593,
      "##fer": 1594,
      "##ette": 1595,
      "##_64": 1596,
      "##_skip": 1597,
      "offsetof": 1598,
      "net": 1599,
      "##cel": 1600,
      "byte": 1601,
      "##_output": 1602,
      "dct": 1603,
      "machine": 1604,
      "##form": 1605,
      "##50": 1606,
      "##drm": 1607,
      "sysbus": 1608,
      "av_freep": 1609,
      "dp": 1610,
      "##_const": 1611,
      "handle": 1612,
      "qscale": 1613,
      "##_order": 1614,
      "0x8": 1615,
      "fw": 1616,
      "real": 1617,
      "##rr": 1618,
      "pm": 1619,
      "but": 1620,
      "thread": 1621,
      "error_report": 1622,
      "rb": 1623,
      "##_off": 1624,
      "put_bits": 1625,
      "##lete": 1626,
      "##ait": 1627,
      "##_addr_t": 1628,
      "event": 1629,
      "timer": 1630,
      "encode": 1631,
      "##_vp": 1632,
      "##trl": 1633,
      "##_qu": 1634,
      "int32_t": 1635,
      "var": 1636,
      "##ies": 1637,
      "mips": 1638,
      ")));": 1639,
      "##_edge": 1640,
      "dri": 1641,
      "avm": 1642,
      "##_next": 1643,
      "nal": 1644,
      "##_16": 1645,
      "asf": 1646,
      "##edia_type": 1647,
      "##oot": 1648,
      "##point": 1649,
      "printf": 1650,
      "##_thread": 1651,
      "mac": 1652,
      "vh": 1653,
      "##par": 1654,
      "one": 1655,
      "xen": 1656,
      "cond": 1657,
      "##sk": 1658,
      "##_h264": 1659,
      "tlb": 1660,
      "##ration": 1661,
      "##yn": 1662,
      "pref": 1663,
      "##": 1664,
      "##ken": 1665,
      "t2": 1666,
      "##_pkt": 1667,
      "av_log_debug": 1668,
      "zero": 1669,
      "##nown": 1670,
      "##dec": 1671,
      "##comp": 1672,
      "##_comm": 1673,
      "exp": 1674,
      "##_host": 1675,
      "1024": 1676,
      "##_so": 1677,
      "mm7": 1678,
      "errno": 1679,
      "##_dst": 1680,
      "##_desc": 1681,
      "##_aio": 1682,
      "##_mat": 1683,
      "acb": 1684,
      "log2": 1685,
      "##_4": 1686,
      "##linesize": 1687,
      "##_copy": 1688,
      "##gram": 1689,
      "avfilter": 1690,
      "avmedia_type": 1691,
      "##ork": 1692,
      "##_res": 1693,
      "##_1": 1694,
      "##uff": 1695,
      "0x7": 1696,
      "ds": 1697,
      "duration": 1698,
      "##_dr": 1699,
      "##stem": 1700,
      "fmt": 1701,
      "'\\": 1702,
      "\\\"": 1703,
      "##rosk": 1704,
      "part": 1705,
      "##arning": 1706,
      "##ott": 1707,
      "reset": 1708,
      "##uth": 1709,
      "##utex": 1710,
      "##_store": 1711,
      "tile": 1712,
      "##attr": 1713,
      "pict_type": 1714,
      "phys": 1715,
      "##lob": 1716,
      "##_excp": 1717,
      "matrosk": 1718,
      "ld": 1719,
      "##_pts": 1720,
      "seek": 1721,
      "sector_num": 1722,
      "msr": 1723,
      "xb": 1724,
      "number": 1725,
      "##_event": 1726,
      "##onent": 1727,
      "##ifo": 1728,
      "++]": 1729,
      "backing": 1730,
      "fc": 1731,
      "free": 1732,
      "##nce": 1733,
      "##buffer": 1734,
      "unlock": 1735,
      "parse": 1736,
      "##_model": 1737,
      "##_align": 1738,
      "oc": 1739,
      "cpu_to": 1740,
      "should": 1741,
      "could": 1742,
      "double": 1743,
      "128": 1744,
      "intra": 1745,
      "img": 1746,
      "avframe": 1747,
      "*/\\": 1748,
      "##_rgb": 1749,
      "##mplemented": 1750,
      "##_address": 1751,
      "##_abort": 1752,
      "avformatcontext": 1753,
      "mc": 1754,
      "pte": 1755,
      "##leg": 1756,
      "scan8": 1757,
      "##itle": 1758,
      "##_bs": 1759,
      "##_channels": 1760,
      "exception": 1761,
      "size_t": 1762,
      "##_chroma": 1763,
      "')": 1764,
      "quant": 1765,
      "uvlinesize": 1766,
      "tim": 1767,
      "##_ap": 1768,
      "control": 1769,
      "non": 1770,
      "##ply": 1771,
      "my": 1772,
      "##db": 1773,
      "row": 1774,
      "matroska": 1775,
      "dts": 1776,
      "ep": 1777,
      "##56": 1778,
      "predict": 1779,
      ")*": 1780,
      "me": 1781,
      "##pcm": 1782,
      "tcg_gen_mov": 1783,
      "user": 1784,
      "##_run": 1785,
      "##_vf": 1786,
      "coded": 1787,
      "##_pixels_tab": 1788,
      "##_slice": 1789,
      "register_decoder": 1790,
      "##c1": 1791,
      "##eta": 1792,
      "##>>": 1793,
      "##_layout": 1794,
      "mod": 1795,
      "##ence": 1796,
      "blocks": 1797,
      "'%": 1798,
      "##_matrix": 1799,
      "frames": 1800,
      "##_0": 1801,
      "##ugh": 1802,
      "qt": 1803,
      "##_parse": 1804,
      ")]": 1805,
      "31": 1806,
      "##oll": 1807,
      "##lot": 1808,
      "ver": 1809,
      "##_loop": 1810,
      "target_page": 1811,
      "disas": 1812,
      "unlock_user": 1813,
      "##_space": 1814,
      "(((": 1815,
      "g_malloc": 1816,
      "il": 1817,
      "ph": 1818,
      "##_br": 1819,
      "qemu_opt": 1820,
      "den": 1821,
      "##known": 1822,
      "cpu_tmp": 1823,
      "##_back": 1824,
      "define": 1825,
      "find": 1826,
      "##_clock": 1827,
      "##_word": 1828,
      "##shot": 1829,
      "##apshot": 1830,
      "sws": 1831,
      "##object": 1832,
      "##_cp": 1833,
      "interrupt": 1834,
      "cbp": 1835,
      "##_dir": 1836,
      "##pend": 1837,
      "##bd": 1838,
      "stream_index": 1839,
      "pri": 1840,
      "prop": 1841,
      "##_qp": 1842,
      "##_flush": 1843,
      ")\\": 1844,
      "##tb": 1845,
      "##ause": 1846,
      "##_chunk": 1847,
      "drv": 1848,
      "cpu_src": 1849,
      "##_exception": 1850,
      "##_3": 1851,
      "dma": 1852,
      "##legal": 1853,
      "##regs": 1854,
      "##quant": 1855,
      "lock_user": 1856,
      "pfl": 1857,
      "tx": 1858,
      "##dst": 1859,
      "##log": 1860,
      "[(": 1861,
      "mm5": 1862,
      "spec": 1863,
      "url": 1864,
      "##card": 1865,
      "##atio": 1866,
      "##load": 1867,
      "prot": 1868,
      "result": 1869,
      "initial": 1870,
      "##fi": 1871,
      "link": 1872,
      "vb": 1873,
      "##eric": 1874,
      "depth": 1875,
      "fill": 1876,
      "##_trans": 1877,
      "...": 1878,
      "##vc": 1879,
      "##_mpeg": 1880,
      "##_coeff": 1881,
      "ht": 1882,
      "vq": 1883,
      "##_level": 1884,
      "fw_cfg": 1885,
      "range": 1886,
      "##_go": 1887,
      "##ection": 1888,
      "##000000": 1889,
      "##mmu": 1890,
      "socket": 1891,
      "diff": 1892,
      "os": 1893,
      "done": 1894,
      "boot": 1895,
      "qcow2": 1896,
      "illegal": 1897,
      "must": 1898,
      "padd": 1899,
      "14": 1900,
      "nr": 1901,
      "##src": 1902,
      "display": 1903,
      "##o_cpu": 1904,
      "##ark": 1905,
      "##_line": 1906,
      "memoryregion": 1907,
      "##usters": 1908,
      "g_assert_cmp": 1909,
      "v9fs": 1910,
      "##pic": 1911,
      "##aw": 1912,
      "##erv": 1913,
      "frame_size": 1914,
      "##xy": 1915,
      "##lomb": 1916,
      "##_scale": 1917,
      "##2000": 1918,
      "##_ret": 1919,
      "create": 1920,
      "region": 1921,
      "cle": 1922,
      "##ick": 1923,
      "##_band": 1924,
      "##_handle": 1925,
      "nb_streams": 1926,
      "##mmx": 1927,
      "step": 1928,
      "mis": 1929,
      "##arch": 1930,
      "##sum": 1931,
      "##rate": 1932,
      "##_printf": 1933,
      "pci_dev": 1934,
      "##_lock": 1935,
      "##eded": 1936,
      "##_t0": 1937,
      "##_files": 1938,
      "##ifier": 1939,
      "call": 1940,
      "now": 1941,
      "##fe": 1942,
      "##_cr": 1943,
      "mult": 1944,
      "##pio": 1945,
      "found": 1946,
      "##ose": 1947,
      "supported": 1948,
      "context": 1949,
      "too": 1950,
      "modrm": 1951,
      "delta": 1952,
      "mig": 1953,
      "##ailable": 1954,
      "##class": 1955,
      "##move": 1956,
      "##tp": 1957,
      "##_di": 1958,
      "short": 1959,
      "used": 1960,
      "##_none": 1961,
      "##_regs": 1962,
      "will": 1963,
      "alpha": 1964,
      "##estamp": 1965,
      "cap": 1966,
      "##cmp": 1967,
      "vga": 1968,
      "##net": 1969,
      "##li": 1970,
      "qemu_get": 1971,
      "##mul": 1972,
      "##_cluster": 1973,
      "##book": 1974,
      "##_golomb": 1975,
      "##_cur": 1976,
      "##_req": 1977,
      "vol": 1978,
      "todo": 1979,
      "pack": 1980,
      "##_from": 1981,
      "##core": 1982,
      "==,": 1983,
      ")[": 1984,
      "metadata": 1985,
      "sum": 1986,
      "##erate": 1987,
      "av_n": 1988,
      "##0000000": 1989,
      "##erence": 1990,
      "##riptor": 1991,
      "iv": 1992,
      "##mode": 1993,
      "##ingle": 1994,
      "##263": 1995,
      "##2c": 1996,
      "##lobal": 1997,
      "mr": 1998,
      "##ll": 1999,
      "##way": 2000,
      "arm_feature": 2001,
      "##lac": 2002,
      "##15": 2003,
      "##dup": 2004,
      "##atile": 2005,
      "inline": 2006,
      "512": 2007,
      "sr": 2008,
      "_fd": 2009,
      "##opts_value": 2010,
      "av_nopts_value": 2011,
      "##_rd": 2012,
      "tci_read": 2013,
      "##cpu": 2014,
      "##num": 2015,
      "##fx": 2016,
      "data_size": 2017,
      "any": 2018,
      "##_bo": 2019,
      "ram_size": 2020,
      "_fdt": 2021,
      "##vert": 2022,
      "##_sign": 2023,
      "##_delay": 2024,
      "##main": 2025,
      "##lease": 2026,
      "sock": 2027,
      "cache": 2028,
      "##vt": 2029,
      "mmu": 2030,
      "##qui": 2031,
      "server": 2032,
      "##_blocks": 2033,
      "qemu_opt_get": 2034,
      "##_ratio": 2035,
      "snprintf": 2036,
      "##back": 2037,
      "unknown": 2038,
      "##_exit": 2039,
      "avpacket": 2040,
      "qobject": 2041,
      "##urface": 2042,
      "idct": 2043,
      "##_pcm": 2044,
      "command": 2045,
      "##sw": 2046,
      "##not": 2047,
      "##ither": 2048,
      "s1": 2049,
      "##title": 2050,
      "send": 2051,
      "av_picture": 2052,
      "gen_load": 2053,
      "raw": 2054,
      "##bits": 2055,
      "##_mutex": 2056,
      "palette": 2057,
      "delay": 2058,
      "##390": 2059,
      "##tsp": 2060,
      "##_hw": 2061,
      "pxa2": 2062,
      "vlc": 2063,
      "##_dirty": 2064,
      "--;": 2065,
      "there": 2066,
      "edge": 2067,
      "vhost": 2068,
      "sel": 2069,
      "##_32": 2070,
      "##_mc": 2071,
      "option": 2072,
      "close": 2073,
      "##erm": 2074,
      "rrr": 2075,
      "##outine": 2076,
      "qiov": 2077,
      "cc_op": 2078,
      "##ian": 2079,
      "does": 2080,
      "##_rl32": 2081,
      "##_vfp": 2082,
      "##start": 2083,
      "##_warning": 2084,
      "strlen": 2085,
      "vc1": 2086,
      "##_path": 2087,
      "##ich": 2088,
      "##agic": 2089,
      "##_uint": 2090,
      "##****": 2091,
      "som": 2092,
      "sync": 2093,
      "av_picture_type": 2094,
      "reg_a": 2095,
      "skip_bits": 2096,
      "hwaddr": 2097,
      "(;": 2098,
      "##_qemu": 2099,
      "nc": 2100,
      "##ef": 2101,
      "##\");": 2102,
      "avg": 2103,
      "##_seg": 2104,
      "##_cont": 2105,
      "##_features": 2106,
      "high": 2107,
      "psr": 2108,
      "##uc": 2109,
      "##wd": 2110,
      "##_mt": 2111,
      "##_aspect": 2112,
      "serial": 2113,
      "powerpc_excp": 2114,
      "##ethod": 2115,
      "active": 2116,
      "hdr": 2117,
      "##oc": 2118,
      "##resh": 2119,
      "av_get": 2120,
      "ffmin": 2121,
      "!(": 2122,
      "(\"%": 2123,
      "bad": 2124,
      "func": 2125,
      "##_idct": 2126,
      "##_send": 2127,
      "##_xy": 2128,
      "sdl": 2129,
      "##ling": 2130,
      "##_exp": 2131,
      "):": 2132,
      "section": 2133,
      "hel": 2134,
      "##_array": 2135,
      "params": 2136,
      "##_vp8": 2137,
      "af": 2138,
      "##_act": 2139,
      "##_strdup": 2140,
      "##mem": 2141,
      "bitstream": 2142,
      "##ther": 2143,
      "##ds": 2144,
      "##col": 2145,
      "pt": 2146,
      "##_handler": 2147,
      "##_clusters": 2148,
      "elem": 2149,
      "ren": 2150,
      "##led": 2151,
      "##ite": 2152,
      "##ific": 2153,
      "direct": 2154,
      "pdu": 2155,
      "yuv": 2156,
      "##gress": 2157,
      "##band": 2158,
      "##_image": 2159,
      "##i_i32": 2160,
      "fp0": 2161,
      "monitor": 2162,
      "##_sync": 2163,
      "##_vector": 2164,
      "extradata_size": 2165,
      "##_ser": 2166,
      "dv": 2167,
      "##dp": 2168,
      "##laced": 2169,
      "vl": 2170,
      "##etch": 2171,
      "##_for": 2172,
      "drive": 2173,
      "]+": 2174,
      "save": 2175,
      "##_version": 2176,
      "conf": 2177,
      "rom": 2178,
      "##20": 2179,
      "op1": 2180,
      "align": 2181,
      "##_mb_type": 2182,
      "##_port": 2183,
      "%[": 2184,
      "sbr": 2185,
      "##_close": 2186,
      "##hed": 2187,
      "##_conf": 2188,
      "best": 2189,
      "dx": 2190,
      "##aster": 2191,
      "##00000": 2192,
      "pp": 2193,
      "##lect": 2194,
      "don": 2195,
      "cpustate": 2196,
      "##fore": 2197,
      "##_chr": 2198,
      "##ragment": 2199,
      "support": 2200,
      "##_at": 2201,
      "##word": 2202,
      "##eters": 2203,
      "##_sample_fmt": 2204,
      "##48": 2205,
      "##_net": 2206,
      "##_rect": 2207,
      "##_fpr": 2208,
      "avio_w": 2209,
      "0x10": 2210,
      "tt": 2211,
      "which": 2212,
      "source": 2213,
      "tswap": 2214,
      "segment": 2215,
      "full": 2216,
      "rtsp": 2217,
      "sce": 2218,
      "##ely": 2219,
      "++,": 2220,
      "##_over": 2221,
      "mm6": 2222,
      "##_has": 2223,
      "print": 2224,
      "flash": 2225,
      "##_params": 2226,
      "##ereo": 2227,
      "feature": 2228,
      "av_re": 2229,
      "br": 2230,
      "##quence": 2231,
      "parent": 2232,
      "sb": 2233,
      "##ages": 2234,
      "when": 2235,
      "##ending": 2236,
      "[]": 2237,
      "bits_per": 2238,
      "##_interrupt": 2239,
      "pc_start": 2240,
      "##_msa": 2241,
      "writ": 2242,
      "x86": 2243,
      "##_encode": 2244,
      "gen_op_mov": 2245,
      "##_depth": 2246,
      "dstw": 2247,
      "mb_xy": 2248,
      "##alc": 2249,
      "prid": 2250,
      "##_default": 2251,
      "here": 2252,
      "extract": 2253,
      "##_loop_filter": 2254,
      "cpu_model": 2255,
      "##ayload": 2256,
      "x4": 2257,
      "bitmap": 2258,
      "efault": 2259,
      "group": 2260,
      "##_tmp": 2261,
      "fil": 2262,
      "##_do": 2263,
      "target_phys": 2264,
      "rtas": 2265,
      "tcg_temp_free_i32": 2266,
      "ig": 2267,
      "may": 2268,
      "##api": 2269,
      "gen_helper_f": 2270,
      "imm": 2271,
      "##x16": 2272,
      "##sert": 2273,
      "##_mips": 2274,
      "##_nb": 2275,
      "tcg_cond": 2276,
      "##_only": 2277,
      "flag": 2278,
      "##_node": 2279,
      "','": 2280,
      "ast": 2281,
      "qlist": 2282,
      "##fff": 2283,
      "##chr": 2284,
      "##_le16": 2285,
      "##_buffer_size": 2286,
      "xbf": 2287,
      "av_dict": 2288,
      "target_phys_addr_t": 2289,
      "##_sse": 2290,
      "##i_tl": 2291,
      "pxa2xx": 2292,
      "spe": 2293,
      "##x4": 2294,
      "##55": 2295,
      "avstream": 2296,
      "msg": 2297,
      "##_range": 2298,
      "reslevel": 2299,
      "##_clip": 2300,
      "##_present": 2301,
      "##_rb32": 2302,
      "##used": 2303,
      "##_rx": 2304,
      "##ways": 2305,
      "lib": 2306,
      "##_lum": 2307,
      "av_mallocz": 2308,
      "##jpeg": 2309,
      "##_connect": 2310,
      "transl": 2311,
      "##_label": 2312,
      "movd": 2313,
      "##34": 2314,
      "\\\\": 2315,
      "job": 2316,
      "sa": 2317,
      "sv": 2318,
      "av_log_warning": 2319,
      "vp8": 2320,
      "point": 2321,
      "##cv": 2322,
      "codecpar": 2323,
      "mb_height": 2324,
      "resp": 2325,
      "##_it": 2326,
      "##_ppc": 2327,
      "##_non": 2328,
      "model": 2329,
      "\"\\\"": 2330,
      "02": 2331,
      "##_vm": 2332,
      "##dsp": 2333,
      "cpu_r": 2334,
      "gen_store": 2335,
      "##yv": 2336,
      "##ized": 2337,
      "##_perm": 2338,
      "##_last": 2339,
      "av_pix_fmt_yuv": 2340,
      "allocate": 2341,
      "##_aspect_ratio": 2342,
      "##sub": 2343,
      "acpi": 2344,
      "##sample": 2345,
      "##inal": 2346,
      "coord": 2347,
      "src1": 2348,
      "prid64": 2349,
      "##ba": 2350,
      "gr": 2351,
      "##accel": 2352,
      "##_jmp": 2353,
      "prefix": 2354,
      "vt": 2355,
      "##_target": 2356,
      "pcm": 2357,
      "orig": 2358,
      "##gin": 2359,
      "0x80": 2360,
      "##angle": 2361,
      "##ified": 2362,
      "##erved": 2363,
      "##ias": 2364,
      "##_pri": 2365,
      "requi": 2366,
      "tcg_target": 2367,
      "##_save": 2368,
      "##_x86": 2369,
      "ioc": 2370,
      "a1": 2371,
      "aml": 2372,
      "tp": 2373,
      "xhci": 2374,
      "~(": 2375,
      "##orts": 2376,
      "##_si": 2377,
      "string": 2378,
      "##_be16": 2379,
      "##_physical": 2380,
      "##raph": 2381,
      "##_window": 2382,
      "cannot": 2383,
      "vfio": 2384,
      "aac": 2385,
      "other": 2386,
      "rl": 2387,
      "av_sample_fmt": 2388,
      "##_mul": 2389,
      "reserved": 2390,
      "rw": 2391,
      "##ible": 2392,
      "##eter": 2393,
      "mxf": 2394,
      "##align": 2395,
      "##tern": 2396,
      "profile": 2397,
      "##_neon": 2398,
      "contain": 2399,
      "pixels": 2400,
      "bar": 2401,
      "timestamp": 2402,
      "ic": 2403,
      "prec": 2404,
      "g_malloc0": 2405,
      "##pck": 2406,
      "##sor": 2407,
      "flush": 2408,
      "##_asm": 2409,
      "temp_block": 2410,
      "##ank": 2411,
      "src2": 2412,
      "18": 2413,
      "##_tim": 2414,
      "cpu_gpr": 2415,
      "##_bitmap": 2416,
      "fr": 2417,
      "##_cle": 2418,
      "target_sig": 2419,
      "mapping": 2420,
      "pi": 2421,
      "que": 2422,
      "sin": 2423,
      "##_rt": 2424,
      "bpp": 2425,
      "##pro": 2426,
      "##_dts": 2427,
      "dststride": 2428,
      "##_generic": 2429,
      "bit_rate": 2430,
      "())": 2431,
      "common": 2432,
      "19": 2433,
      "##_test": 2434,
      "##unpck": 2435,
      "##_unref": 2436,
      "sf": 2437,
      "##_el": 2438,
      "note": 2439,
      ").": 2440,
      "##_all": 2441,
      "--)": 2442,
      "##_direct": 2443,
      "td": 2444,
      "##_ctrl": 2445,
      "##_low": 2446,
      "target_fmt": 2447,
      "punpck": 2448,
      "buf1": 2449,
      "round": 2450,
      "##our": 2451,
      "##_gpio": 2452,
      "attr": 2453,
      "##fds": 2454,
      "cs_base": 2455,
      "##time": 2456,
      "##_s16": 2457,
      "##asl": 2458,
      "##ailq": 2459,
      "##_mmu": 2460,
      "b1": 2461,
      "jpeg": 2462,
      "rate": 2463,
      "##vec": 2464,
      "##_scan": 2465,
      "255": 2466,
      "predictor": 2467,
      "tm": 2468,
      "filter_mb": 2469,
      "##enccontext": 2470,
      "##_pal": 2471,
      "##idge": 2472,
      "##_mo": 2473,
      "##ious": 2474,
      "reference": 2475,
      "##_quant": 2476,
      "just": 2477,
      "pd": 2478,
      "cpux": 2479,
      "object_property": 2480,
      "label": 2481,
      "##kely": 2482,
      "##imm": 2483,
      "nd": 2484,
      "##implemented": 2485,
      "##opt": 2486,
      "cpu_dst": 2487,
      "head": 2488,
      "\"\\\"\\": 2489,
      "40": 2490,
      "qemu_irq": 2491,
      "nb_samples": 2492,
      "file_index": 2493,
      "eb": 2494,
      "eio": 2495,
      "##_limit": 2496,
      "##_we": 2497,
      "##_cpus": 2498,
      "##status": 2499,
      "some": 2500,
      "##vis": 2501,
      "##ative": 2502,
      "##_fifo": 2503,
      "##_linesize": 2504,
      "mb_width": 2505,
      "##old": 2506,
      "lpc": 2507,
      "av_frame": 2508,
      "rdma": 2509,
      "entries": 2510,
      "##struct": 2511,
      "bp": 2512,
      "dinfo": 2513,
      "single": 2514,
      "work": 2515,
      "##irror": 2516,
      "##32_to_cpu": 2517,
      "##plug": 2518,
      "##_priv": 2519,
      "##ansp": 2520,
      "##unction": 2521,
      "scal": 2522,
      "bdrv_sector": 2523,
      "async": 2524,
      "proxy": 2525,
      "##86state": 2526,
      "cpux86state": 2527,
      "stop": 2528,
      "bc": 2529,
      "##her": 2530,
      "##pen": 2531,
      "##fc": 2532,
      "##flow": 2533,
      "##_ts": 2534,
      ")){": 2535,
      "codec_flag": 2536,
      "rtp": 2537,
      "##_mmio": 2538,
      "##_entries": 2539,
      "correct": 2540,
      "ro": 2541,
      "##pass": 2542,
      "0xe": 2543,
      "mb_stride": 2544,
      "##_le32": 2545,
      "0x01": 2546,
      "devicestate": 2547,
      "verify": 2548,
      "sch": 2549,
      "##idx": 2550,
      "qemu_log": 2551,
      "try": 2552,
      "ffmax": 2553,
      "cm": 2554,
      "ev": 2555,
      "##_tell": 2556,
      "using": 2557,
      "##_prec": 2558,
      "memory_region_init": 2559,
      "##vid": 2560,
      "elf": 2561,
      "##_ir": 2562,
      "av_log_info": 2563,
      "ehci": 2564,
      "drc": 2565,
      "##ng": 2566,
      "exec": 2567,
      "]))": 2568,
      "codebook": 2569,
      "##_fa": 2570,
      "##_dma": 2571,
      "srcstride": 2572,
      "reg_b": 2573,
      "##_seek": 2574,
      "##_luma": 2575,
      "##_physical_memory": 2576,
      "make": 2577,
      "##ie": 2578,
      "##write": 2579,
      "##_ops": 2580,
      "##oft": 2581,
      "clip": 2582,
      "##420": 2583,
      "x80": 2584,
      "##_stop": 2585,
      "tcg_gen_ext": 2586,
      "rename": 2587,
      "('": 2588,
      ")>>": 2589,
      "##sl": 2590,
      "loop": 2591,
      "*)(": 2592,
      "volatile": 2593,
      "tw": 2594,
      "##_msr": 2595,
      "col": 2596,
      "op2": 2597,
      "sample_aspect_ratio": 2598,
      "qio": 2599,
      "##ses": 2600,
      "##_wr": 2601,
      "queue": 2602,
      "##inc": 2603,
      "##_qpel": 2604,
      "##ached": 2605,
      "process": 2606,
      "\\\"\",": 2607,
      "##yuv": 2608,
      "##_fn": 2609,
      "inc": 2610,
      "##_hdr": 2611,
      "##_args": 2612,
      "qc": 2613,
      "same": 2614,
      "##tab": 2615,
      "abs": 2616,
      "##_socket": 2617,
      "##_simple": 2618,
      "b2": 2619,
      "y1": 2620,
      "##pack": 2621,
      "av_clip": 2622,
      "##_delta": 2623,
      "bdrv_get": 2624,
      "atom": 2625,
      "bytestream_get": 2626,
      "\"),": 2627,
      "decoded": 2628,
      "codec_tag": 2629,
      "than": 2630,
      "prix": 2631,
      "##_ue": 2632,
      "valid": 2633,
      "proto": 2634,
      "kernel_filename": 2635,
      "tci_read_r": 2636,
      "02x": 2637,
      "##rt": 2638,
      "decoder": 2639,
      "migration": 2640,
      "c4": 2641,
      "##prop": 2642,
      "arg4": 2643,
      "sec": 2644,
      "cluster_size": 2645,
      "##rypto": 2646,
      "##cd": 2647,
      "##_ue_golomb": 2648,
      "qmp": 2649,
      "##sing": 2650,
      "enum": 2651,
      "##abil": 2652,
      "hevc": 2653,
      "show": 2654,
      "##128": 2655,
      "##ty": 2656,
      "##_sn": 2657,
      "flo": 2658,
      "magic": 2659,
      "##alf": 2660,
      "##_first": 2661,
      "##_color": 2662,
      "sectors": 2663,
      "##eed": 2664,
      "##_setup": 2665,
      "##ottom": 2666,
      "##_cor": 2667,
      "rect": 2668,
      "helper": 2669,
      "ctrl": 2670,
      "slot": 2671,
      "##_row": 2672,
      "cpuid": 2673,
      "before": 2674,
      "abort": 2675,
      "address_space": 2676,
      "vp56": 2677,
      "17": 2678,
      "a2": 2679,
      "eax": 2680,
      "##_top": 2681,
      "##_fore": 2682,
      "##_bgr": 2683,
      "second": 2684,
      "##sock": 2685,
      "##_ic": 2686,
      "##_sr": 2687,
      "##abs": 2688,
      "c1": 2689,
      "mark": 2690,
      "##30": 2691,
      "##dent": 2692,
      "always": 2693,
      "tcg_gen_and": 2694,
      "unsupported": 2695,
      "qdev_get": 2696,
      "cpu_src1": 2697,
      "cmp": 2698,
      "gic": 2699,
      "g_new": 2700,
      "##string": 2701,
      "g_strdup": 2702,
      "ri": 2703,
      "##rough": 2704,
      "]*": 2705,
      "##param": 2706,
      "##rott": 2707,
      "adpcm": 2708,
      "##ready": 2709,
      "neon": 2710,
      "gen_opc": 2711,
      "load_reg": 2712,
      "##bitcontext": 2713,
      "##_ver": 2714,
      "##ns": 2715,
      "stri": 2716,
      "##thread": 2717,
      "block_index": 2718,
      "unit": 2719,
      "##aved": 2720,
      "b3": 2721,
      "i2c": 2722,
      "0x1f": 2723,
      "##_scsi": 2724,
      "##_complete": 2725,
      "a0": 2726,
      "*)&": 2727,
      "##ressed": 2728,
      "##422": 2729,
      "fid": 2730,
      "rv": 2731,
      "##arc": 2732,
      "0x0000": 2733,
      "tcg_const": 2734,
      "error_abort": 2735,
      "order": 2736,
      "igno": 2737,
      "__msa": 2738,
      "__asm": 2739,
      "mkt": 2740,
      "##_a0": 2741,
      "22": 2742,
      "##_8": 2743,
      "##ble": 2744,
      "##nz": 2745,
      "##_foreach": 2746,
      "##40": 2747,
      "core": 2748,
      "##roy": 2749,
      "tcg_gen_add": 2750,
      "snapshot": 2751,
      "pg": 2752,
      "##_by": 2753,
      "##rch": 2754,
      "##_structure": 2755,
      "auth": 2756,
      "payload": 2757,
      "##mc": 2758,
      "##min": 2759,
      "##ond": 2760,
      "##_client": 2761,
      "internal": 2762,
      "g_assert_cmpint": 2763,
      "p2": 2764,
      "##anch": 2765,
      "connect": 2766,
      "srcformat": 2767,
      "##444": 2768,
      ")->": 2769,
      "s390": 2770,
      "##1000": 2771,
      "##ward": 2772,
      "pad": 2773,
      "window": 2774,
      "##py": 2775,
      "avio_rl32": 2776,
      "avpriv": 2777,
      "encoded": 2778,
      "mktag": 2779,
      "pe": 2780,
      "sup": 2781,
      "##_l1": 2782,
      "##_dest": 2783,
      "already": 2784,
      "##_subregion": 2785,
      "wait": 2786,
      "##dt": 2787,
      "##seg": 2788,
      "acc": 2789,
      "##_option": 2790,
      "##ole": 2791,
      "##_real": 2792,
      "system": 2793,
      "##_plane": 2794,
      "##509": 2795,
      "##atal": 2796,
      "tcg_ctx": 2797,
      "ff_m": 2798,
      "block_size": 2799,
      "dstformat": 2800,
      "##_head": 2801,
      "##endor": 2802,
      "##raw": 2803,
      "rs2": 2804,
      "cpl": 2805,
      "db": 2806,
      "##sid": 2807,
      "0x6": 2808,
      "tcg_reg": 2809,
      "match": 2810,
      "got_frame": 2811,
      "';": 2812,
      "hd": 2813,
      "tiff": 2814,
      "##_ip": 2815,
      "##_link": 2816,
      "vms": 2817,
      "##==": 2818,
      "##_ns": 2819,
      "surface": 2820,
      "##ume": 2821,
      "pid": 2822,
      "##gid": 2823,
      "##eration": 2824,
      "##_sw": 2825,
      "##_exec": 2826,
      "extra": 2827,
      "##----": 2828,
      "clear": 2829,
      "was": 2830,
      "##_8x8": 2831,
      "##cause": 2832,
      "##_lp": 2833,
      "allow": 2834,
      "g2": 2835,
      "##vice": 2836,
      "##we": 2837,
      "##fc0": 2838,
      "]));": 2839,
      "channel_layout": 2840,
      "register_enc": 2841,
      "register_encdec": 2842,
      "am": 2843,
      "tv": 2844,
      "##ware": 2845,
      "into": 2846,
      "bug": 2847,
      "##abac": 2848,
      "isc": 2849,
      "abi": 2850,
      "##_insns": 2851,
      "bl": 2852,
      "man": 2853,
      "mirror": 2854,
      "##4x4": 2855,
      "##down": 2856,
      "##_pa": 2857,
      "##_motion": 2858,
      "iscs": 2859,
      "##_col": 2860,
      "needed": 2861,
      "translation": 2862,
      "fb": 2863,
      "li": 2864,
      "##fr": 2865,
      "##store": 2866,
      "ff_h264": 2867,
      "descriptor": 2868,
      "gl": 2869,
      "mk": 2870,
      "msi": 2871,
      "##sv": 2872,
      "##_var": 2873,
      "extent": 2874,
      "bytestream2_get_byte": 2875,
      "disascontext": 2876,
      "##son": 2877,
      "##_float": 2878,
      "##_dct": 2879,
      "##_display": 2880,
      "luma": 2881,
      "dirty": 2882,
      "##_em": 2883,
      "##sb": 2884,
      "child": 2885,
      "##_unlock": 2886,
      "##_control": 2887,
      "##alpha": 2888,
      "ff_put": 2889,
      "token": 2890,
      "because": 2891,
      "r1": 2892,
      "wr": 2893,
      "##dx": 2894,
      "encoding": 2895,
      "##_raw": 2896,
      "cpu_f": 2897,
      "##_time_base": 2898,
      "msix": 2899,
      "mpegenccontext": 2900,
      "##_cmdline": 2901,
      "qtailq": 2902,
      "dt": 2903,
      "vr": 2904,
      "##_pack": 2905,
      "##_fast": 2906,
      "limit": 2907,
      "smb": 2908,
      "##_cell": 2909,
      "##ctrl": 2910,
      "##_of": 2911,
      ">>=": 2912,
      "program": 2913,
      "illegal_op": 2914,
      "filter_mb_edge": 2915,
      "21": 2916,
      "go": 2917,
      "tls": 2918,
      "v16": 2919,
      "##_es": 2920,
      "##_insert": 2921,
      "(%%": 2922,
      "graph": 2923,
      "want": 2924,
      "av_opt": 2925,
      "##acy": 2926,
      "##channel": 2927,
      "##_track": 2928,
      "cpu_tmp0": 2929,
      "##_signal": 2930,
      "##reshold": 2931,
      "(-": 2932,
      "cy": 2933,
      "lp": 2934,
      "##_tc": 2935,
      "##_part": 2936,
      "reply": 2937,
      "##_div": 2938,
      "buf_end": 2939,
      "##_enable": 2940,
      "##_mtc0": 2941,
      "after": 2942,
      "features": 2943,
      "bd": 2944,
      "ics": 2945,
      "##2r": 2946,
      "##inis": 2947,
      "##inux": 2948,
      "##uto": 2949,
      "mmx": 2950,
      "0x0f": 2951,
      "0xffffffff": 2952,
      "##video": 2953,
      "##rer": 2954,
      "##init": 2955,
      "##ilun": 2956,
      "##_get_bits": 2957,
      "rtc": 2958,
      "iscsilun": 2959,
      "fdt_property": 2960,
      "tcgv_i32": 2961,
      "each": 2962,
      "more": 2963,
      "##get": 2964,
      "##ator": 2965,
      "##_idc": 2966,
      "compute": 2967,
      "##_notifier": 2968,
      "##ension": 2969,
      "feed": 2970,
      "##desc": 2971,
      "##_poc": 2972,
      "##_blk": 2973,
      "rec": 2974,
      "cpus": 2975,
      "##_def": 2976,
      "tcg_gen_sh": 2977,
      "att": 2978,
      "##ulate": 2979,
      "##32_op": 2980,
      "array": 2981,
      "memory_region_add": 2982,
      "avmedia_type_video": 2983,
      "##_sse2": 2984,
      "##420p": 2985,
      "bgr": 2986,
      "tap": 2987,
      "##dis": 2988,
      "##den": 2989,
      "available": 2990,
      "rece": 2991,
      "##otplug": 2992,
      "##_coded": 2993,
      "pool": 2994,
      "memory_region_add_subregion": 2995,
      "dim": 2996,
      "##wmmx": 2997,
      "##erge": 2998,
      "##anup": 2999,
      "##header": 3000,
      "##_global": 3001,
      "tmp64": 3002,
      "fixed": 3003,
      "previous": 3004,
      "##_common": 3005,
      "##wmmxt": 3006,
      "cnt": 3007,
      "post": 3008,
      "##ended": 3009,
      "##_h263": 3010,
      "##sole": 3011,
      "mips32_op": 3012,
      "##_command": 3013,
      ")];": 3014,
      "dump": 3015,
      "##hdr": 3016,
      "##_done": 3017,
      "qemu_put": 3018,
      "then": 3019,
      "plan": 3020,
      "interlaced": 3021,
      "##anged": 3022,
      "tcg_temp_new_i32": 3023,
      "iscsi": 3024,
      "cfg": 3025,
      "fn": 3026,
      "i8": 3027,
      "implemented": 3028,
      "##_method": 3029,
      "##access": 3030,
      "blocksize": 3031,
      "##lit": 3032,
      "mv_cache": 3033,
      "b0": 3034,
      "ib": 3035,
      "##mux": 3036,
      "##aces": 3037,
      "tcp": 3038,
      "##entry": 3039,
      "iommu": 3040,
      "pixel_ptr": 3041,
      "jpeg2000": 3042,
      "!!": 3043,
      "arch": 3044,
      "##mit": 3045,
      "##onse": 3046,
      "##_group": 3047,
      "scsw": 3048,
      "div": 3049,
      "[-": 3050,
      "ir": 3051,
      "##ger": 3052,
      "##float": 3053,
      "disp": 3054,
      "##_predict": 3055,
      "##filtersize": 3056,
      "total_sectors": 3057,
      "icodec": 3058,
      "text": 3059,
      "##apter": 3060,
      "##_wait": 3061,
      "regist": 3062,
      "curr": 3063,
      "slice_type": 3064,
      "priu": 3065,
      "08x": 3066,
      "##lap": 3067,
      "##ject": 3068,
      "##_bil": 3069,
      "##_guid": 3070,
      "##_tlb": 3071,
      "##_arm": 3072,
      "buf_ptr": 3073,
      "pand": 3074,
      "##cast": 3075,
      "remain": 3076,
      "##_guest": 3077,
      "aio_context": 3078,
      "*=": 3079,
      "##139": 3080,
      "##ating": 3081,
      "##_ss": 3082,
      "##_use": 3083,
      "##_used": 3084,
      "target_nr_get": 3085,
      "pending": 3086,
      "##virt": 3087,
      "##reen": 3088,
      "##_print": 3089,
      "subtitle": 3090,
      "cluster_offset": 3091,
      "##_neg": 3092,
      "motion_val": 3093,
      "refcount_table": 3094,
      "multip": 3095,
      "esc": 3096,
      "##ks": 3097,
      "avs": 3098,
      "##open": 3099,
      "##_remove": 3100,
      "##_ok": 3101,
      "##irp": 3102,
      "srcw": 3103,
      "backup": 3104,
      "##_job": 3105,
      "fifo": 3106,
      "##diff": 3107,
      "##_cnt": 3108,
      "inet": 3109,
      "cblk": 3110,
      "**)": 3111,
      "lock_user_string": 3112,
      "##_fpu": 3113,
      "getbitcontext": 3114,
      "/%": 3115,
      "sasl": 3116,
      "##mary": 3117,
      "av_time_base": 3118,
      "\",\"": 3119,
      "argv": 3120,
      "strnc": 3121,
      "values": 3122,
      "setup": 3123,
      "spr_no": 3124,
      "poc": 3125,
      "spr_noaccess": 3126,
      "fragment": 3127,
      "##arm": 3128,
      "##ops": 3129,
      "##_vc1": 3130,
      "bdrv_o": 3131,
      "dirac": 3132,
      "30": 3133,
      "det": 3134,
      "four": 3135,
      "##lement": 3136,
      "##_freq": 3137,
      "##_del": 3138,
      "generate": 3139,
      "frame_rate": 3140,
      "##_alpha": 3141,
      "visitor": 3142,
      "##_system": 3143,
      "tcg_const_i32": 3144,
      "::": 3145,
      "decoding": 3146,
      "##_eb": 3147,
      "avio_rb32": 3148,
      "cpu_src2": 3149,
      "__func": 3150,
      "##ular": 3151,
      "##_round": 3152,
      "bios_size": 3153,
      "av_rescale": 3154,
      "__func__": 3155,
      "bps": 3156,
      "dist": 3157,
      "##rus": 3158,
      "##_eq": 3159,
      "sub_mb_type": 3160,
      "##_iovec": 3161,
      "0x20": 3162,
      "actual": 3163,
      "seek_set": 3164,
      "##onents": 3165,
      "gdb": 3166,
      "poll": 3167,
      "##ui": 3168,
      "av_cpu": 3169,
      "##_brc": 3170,
      "##ics": 3171,
      "inst": 3172,
      "##_std": 3173,
      "gen_mov": 3174,
      "qemu_chr": 3175,
      "kernel_cmdline": 3176,
      "##_bands": 3177,
      "##rerror": 3178,
      "!\\": 3179,
      "23": 3180,
      "rle": 3181,
      "term": 3182,
      "##_6": 3183,
      "##oid": 3184,
      "##_cs": 3185,
      "instruct": 3186,
      "##_dump": 3187,
      "##_iwmmxt": 3188,
      "discard": 3189,
      "##_packet_size": 3190,
      "lit": 3191,
      "uffff": 3192,
      "av_st": 3193,
      "##_fix": 3194,
      "##_metadata": 3195,
      "pcidevice": 3196,
      "progress": 3197,
      "signal": 3198,
      "##uccess": 3199,
      "##_destroy": 3200,
      "##path": 3201,
      "##_fp": 3202,
      "##_mod": 3203,
      "##_lx": 3204,
      "##_opc": 3205,
      "block_align": 3206,
      "##ression": 3207,
      "##_buffers": 3208,
      "kl": 3209,
      "uff": 3210,
      "##ape": 3211,
      "##rement": 3212,
      "av_assert": 3213,
      "##agate": 3214,
      "is_intra": 3215,
      "##_unit": 3216,
      "av_dlog": 3217,
      "##_bool": 3218,
      "av_cpu_flag": 3219,
      "##_tx": 3220,
      "enable": 3221,
      "0xc": 3222,
      "##_nof": 3223,
      "get_ue_golomb": 3224,
      "##value": 3225,
      "480": 3226,
      "fram": 3227,
      "pat": 3228,
      "sdr": 3229,
      "##sel": 3230,
      "ref_cache": 3231,
      "initrd_filename": 3232,
      "prefetch": 3233,
      "##_rectangle": 3234,
      ")\",": 3235,
      "md": 3236,
      "##index": 3237,
      "mem_index": 3238,
      "flv": 3239,
      "##server": 3240,
      "ufffd": 3241,
      "28": 3242,
      "##mar": 3243,
      "##_flt": 3244,
      "##_sizes": 3245,
      "opp": 3246,
      "thrott": 3247,
      "begin": 3248,
      "cir": 3249,
      "stl": 3250,
      "int_max": 3251,
      "##exp": 3252,
      "##_gr": 3253,
      "##ertical": 3254,
      "pci_bus": 3255,
      "##plit": 3256,
      "aviocontext": 3257,
      "##_bridge": 3258,
      "ct": 3259,
      "cfi": 3260,
      "h2": 3261,
      "##tive": 3262,
      "expect": 3263,
      "bmd": 3264,
      "##gy": 3265,
      "##7m": 3266,
      "cpu_ir": 3267,
      "##_old": 3268,
      "##ynam": 3269,
      "##_weight": 3270,
      "prix64": 3271,
      "bm": 3272,
      "bin": 3273,
      "dflag": 3274,
      "sg": 3275,
      "##event": 3276,
      "##ting": 3277,
      "##oth": 3278,
      "slirp": 3279,
      "##_valid": 3280,
      "##_buf_size": 3281,
      "pix_fmt_rgb": 3282,
      "norm": 3283,
      "##width": 3284,
      "##_diff": 3285,
      "##cial": 3286,
      "##_build": 3287,
      "prob": 3288,
      "logfile": 3289,
      "##_options": 3290,
      "vlan": 3291,
      "tab": 3292,
      "##ont": 3293,
      "gen_set": 3294,
      "##space": 3295,
      "##bose": 3296,
      "ll": 3297,
      "##aff": 3298,
      "transp": 3299,
      "video_enc": 3300,
      "##_vlc_bits": 3301,
      "cirrus": 3302,
      "emul": 3303,
      "##order": 3304,
      "l2_table": 3305,
      "__put": 3306,
      "qpc": 3307,
      "##aio": 3308,
      "##_mult": 3309,
      "change": 3310,
      "##args": 3311,
      "target_st": 3312,
      "##_char": 3313,
      "partition": 3314,
      "##_brcond": 3315,
      "__put_user": 3316,
      "ke": 3317,
      "ov": 3318,
      "pitch": 3319,
      "##hd": 3320,
      "##my": 3321,
      "##3d": 3322,
      "##step": 3323,
      "##_dec": 3324,
      "sprite": 3325,
      "##_active": 3326,
      "cf": 3327,
      "pv": 3328,
      "##head": 3329,
      "inlink": 3330,
      "seq": 3331,
      "l1_table": 3332,
      "container": 3333,
      ",%": 3334,
      "ls": 3335,
      "##2_i32": 3336,
      "##sig": 3337,
      "##dd": 3338,
      "av_co": 3339,
      "pmadd": 3340,
      "##_append": 3341,
      "av_cold": 3342,
      "##oriz": 3343,
      "##onf": 3344,
      "##_ide": 3345,
      "]),": 3346,
      "url_f": 3347,
      "##_coeffs": 3348,
      "##_snapshot": 3349,
      "##dw": 3350,
      "##now": 3351,
      "##ret": 3352,
      "##_ps": 3353,
      "gen_vfp": 3354,
      "##_irqs": 3355,
      "h263": 3356,
      "larg": 3357,
      "v4": 3358,
      "vmd": 3359,
      "vaddr": 3360,
      "##max": 3361,
      "##')": 3362,
      "##_bar": 3363,
      "##asecmp": 3364,
      "build": 3365,
      "##row": 3366,
      "outlink": 3367,
      "##_async": 3368,
      "##frames": 3369,
      "visit": 3370,
      "##_server": 3371,
      "##efs": 3372,
      ");\\": 3373,
      "##less": 3374,
      "0x5": 3375,
      "##_local": 3376,
      "avio_tell": 3377,
      "vtd": 3378,
      "__asm__": 3379,
      "##ynamic": 3380,
      "right": 3381,
      "##_tile": 3382,
      "##_release": 3383,
      "##_goto": 3384,
      "##_gray": 3385,
      "target_e": 3386,
      "avio_skip": 3387,
      "1000": 3388,
      "down": 3389,
      "pthread": 3390,
      "##_can": 3391,
      "##_mon": 3392,
      "##oport": 3393,
      "eno": 3394,
      "enabled": 3395,
      "0x000": 3396,
      "##_virt": 3397,
      "hwaccel": 3398,
      "arm_cp": 3399,
      "qdev_prop": 3400,
      "##ediate": 3401,
      "l1_size": 3402,
      "store_reg": 3403,
      "qvirt": 3404,
      "sen": 3405,
      "##ioc": 3406,
      "get_vlc": 3407,
      "extended": 3408,
      "##ensions": 3409,
      "48": 3410,
      "##cx": 3411,
      "avoid": 3412,
      "##_duration": 3413,
      "##_wrap": 3414,
      "##_propagate": 3415,
      "(;;": 3416,
      "##yv12": 3417,
      "pmaddwd": 3418,
      "##hc": 3419,
      "##_am": 3420,
      "##input": 3421,
      "##alt": 3422,
      "##_mfc0": 3423,
      "unimplemented": 3424,
      "##_change": 3425,
      "ac3": 3426,
      "ssd": 3427,
      "coroutine": 3428,
      "clock": 3429,
      "global": 3430,
      "y0": 3431,
      "##01": 3432,
      "##ove": 3433,
      "##_encoder": 3434,
      "error_propagate": 3435,
      "cursor": 3436,
      "##okup": 3437,
      "##_program": 3438,
      "]];": 3439,
      "perm": 3440,
      "overflow": 3441,
      "##base": 3442,
      "##pte": 3443,
      "bit_depth": 3444,
      "compat": 3445,
      "driver": 3446,
      "##_16x16": 3447,
      "qio_channel": 3448,
      "##hi": 3449,
      "avration": 3450,
      "##coeff": 3451,
      "##_hash": 3452,
      "##_auth": 3453,
      "search": 3454,
      "0x02": 3455,
      "picture_structure": 3456,
      "matrix": 3457,
      "##socket": 3458,
      "##_qemu_ld": 3459,
      "##_segment": 3460,
      "##_coroutine": 3461,
      "cfi_table": 3462,
      "(;;)": 3463,
      "avrational": 3464,
      "gt": 3465,
      "implement": 3466,
      "sse": 3467,
      "uc": 3468,
      "0xd": 3469,
      "##_imm": 3470,
      "outbuf": 3471,
      "hash": 3472,
      "ot_word": 3473,
      "parameters": 3474,
      "##_create_simple": 3475,
      "calc": 3476,
      "mul": 3477,
      "##_msi": 3478,
      "##inear": 3479,
      "ref_count": 3480,
      "http": 3481,
      "nut": 3482,
      "##mips": 3483,
      "##ym": 3484,
      "##_full": 3485,
      "ind": 3486,
      "mv_type": 3487,
      "space": 3488,
      "check_fpu": 3489,
      "disk": 3490,
      "virtio_net": 3491,
      "openpic": 3492,
      "mkv": 3493,
      "registers": 3494,
      "check_fpu_feature": 3495,
      "ctb": 3496,
      "esp": 3497,
      "hp": 3498,
      "hard": 3499,
      "r0": 3500,
      "v2": 3501,
      "##sty": 3502,
      "is_user": 3503,
      "##_token": 3504,
      "init_get_bits": 3505,
      "kernel_size": 3506,
      "svq": 3507,
      "cx": 3508,
      "##((": 3509,
      "##fmt": 3510,
      "av_str": 3511,
      "##_rw": 3512,
      "##cont": 3513,
      "timeout": 3514,
      "##_trunc": 3515,
      "aiocb": 3516,
      "avmedia_type_audio": 3517,
      "##25": 3518,
      "avc": 3519,
      "##_sum": 3520,
      "stereo": 3521,
      "qemu_opts": 3522,
      "pixel_shift": 3523,
      "fill_rectangle": 3524,
      "vram": 3525,
      "##99": 3526,
      "##_call": 3527,
      "##_nal": 3528,
      "##blocks": 3529,
      "apic": 3530,
      "##_values": 3531,
      "##_tbl": 3532,
      "p1": 3533,
      "##_fault": 3534,
      "them": 3535,
      "0x1000": 3536,
      "codec_id_pcm": 3537,
      "two": 3538,
      "sense": 3539,
      "##_sm": 3540,
      "##_mig": 3541,
      "loc": 3542,
      "##_kind": 3543,
      "gen_load_fpr": 3544,
      "floor": 3545,
      "linux": 3546,
      "smp": 3547,
      "xvid": 3548,
      "##_pref": 3549,
      "sequence": 3550,
      "##_needed": 3551,
      "vmstate": 3552,
      "0x40": 3553,
      "cpu_to_be32": 3554,
      "##_factor": 3555,
      "fps": 3556,
      "handler": 3557,
      "##dir": 3558,
      "##_rece": 3559,
      "cpu_physical_memory": 3560,
      "##rcasecmp": 3561,
      "<<=": 3562,
      "class": 3563,
      "##lyph": 3564,
      "virtual": 3565,
      "##length": 3566,
      "coeffs": 3567,
      "av_strcasecmp": 3568,
      "s2": 3569,
      "signed": 3570,
      "##_decode_frame": 3571,
      "qdict_get": 3572,
      "target_fmt_lx": 3573,
      "eof": 3574,
      "xc": 3575,
      "##i32": 3576,
      "##gacy": 3577,
      "##_point": 3578,
      "##_serial": 3579,
      "avio_wb": 3580,
      "bdrv_sector_size": 3581,
      "qcrypto": 3582,
      "get_vlc2": 3583,
      "100": 3584,
      "##gg": 3585,
      "##ten": 3586,
      "##ced": 3587,
      "##qrt": 3588,
      "##_master": 3589,
      "##ing_size": 3590,
      "undef": 3591,
      "sei": 3592,
      "header_size": 3593,
      "qdev_prop_set": 3594,
      "ge": 3595,
      "hls": 3596,
      "task": 3597,
      "y2": 3598,
      "##ule": 3599,
      "##_m0": 3600,
      "##ument": 3601,
      "##_write_reg": 3602,
      "strncmp": 3603,
      ")&": 3604,
      "##68": 3605,
      "##ality": 3606,
      "##irk": 3607,
      "present": 3608,
      "bound": 3609,
      "pix_fmt_yuv": 3610,
      "rs1": 3611,
      "##_access": 3612,
      "tci_write_reg": 3613,
      "r2": 3614,
      "##urf": 3615,
      "argc": 3616,
      "unli": 3617,
      "##_select": 3618,
      "bands": 3619,
      "##address": 3620,
      "##_rl16": 3621,
      "##_available": 3622,
      "bet": 3623,
      "bank": 3624,
      "##_an": 3625,
      "##_attr": 3626,
      "##key": 3627,
      "##_spec": 3628,
      "##_inc": 3629,
      "##ummy": 3630,
      "reg_d": 3631,
      "devices": 3632,
      "##ency": 3633,
      "##_mv_table": 3634,
      "psrl": 3635,
      "mjpeg": 3636,
      "x509": 3637,
      "##cap": 3638,
      "##_pt": 3639,
      "retval": 3640,
      "release": 3641,
      "##iss": 3642,
      "bitrate": 3643,
      "initrd_size": 3644,
      "lj": 3645,
      "##man": 3646,
      "##usb": 3647,
      "##_high": 3648,
      "##_fields": 3649,
      "##cnt": 3650,
      "##_ct": 3651,
      "##alle": 3652,
      "##ution": 3653,
      "##_adpcm": 3654,
      "last_picture": 3655,
      "());": 3656,
      "ape": 3657,
      "pdev": 3658,
      "##ared": 3659,
      "##_padd": 3660,
      "##_machine": 3661,
      "##_rs": 3662,
      "##_rac": 3663,
      "\"\\\"\\\\": 3664,
      "draw": 3665,
      "iore": 3666,
      "nnz": 3667,
      "##bl": 3668,
      "##func": 3669,
      "chan": 3670,
      "##_sequence": 3671,
      "slices": 3672,
      "parser": 3673,
      "gran": 3674,
      "ssize": 3675,
      "uval": 3676,
      "##70": 3677,
      "##ery": 3678,
      "##_s32": 3679,
      "##_bug": 3680,
      "##_sec": 3681,
      "get_bits_count": 3682,
      "pic_param": 3683,
      "##_kernel": 3684,
      "ram_addr_t": 3685,
      "iov_len": 3686,
      "remaining": 3687,
      "fast": 3688,
      "##iod": 3689,
      "trk": 3690,
      "##ide_data": 3691,
      "##********": 3692,
      "##_gpio_in": 3693,
      "c4r": 3694,
      "ohci": 3695,
      "##l8": 3696,
      "##fb": 3697,
      "##_poll": 3698,
      "##_bh": 3699,
      "##_with": 3700,
      "##_be64": 3701,
      "klass": 3702,
      "gpr": 3703,
      "saddr": 3704,
      "vst": 3705,
      "##pa": 3706,
      "##_temp": 3707,
      "##_rom": 3708,
      "##_initial": 3709,
      "oformat": 3710,
      "le32_to_cpu": 3711,
      "last_mv": 3712,
      "above": 3713,
      "xmm0": 3714,
      "##_msg": 3715,
      "qpci": 3716,
      "poss": 3717,
      "##slice": 3718,
      "abi_ulong": 3719,
      "how": 3720,
      "por": 3721,
      "qerr": 3722,
      "xy": 3723,
      "##_7": 3724,
      "##wr": 3725,
      "##orb": 3726,
      "ifn": 3727,
      "files": 3728,
      "die": 3729,
      "##ptr_t": 3730,
      "target_page_mask": 3731,
      "##_backing": 3732,
      "response": 3733,
      "unlikely": 3734,
      "a3": 3735,
      "fre": 3736,
      "mot": 3737,
      "##_sys": 3738,
      "##_ph": 3739,
      "strerror": 3740,
      "buf0": 3741,
      "gen_ld": 3742,
      "##_short": 3743,
      "##_listen": 3744,
      "##_pred_mode": 3745,
      "##_threads": 3746,
      "gen_store_gpr": 3747,
      "hz": 3748,
      "##v2": 3749,
      "##bp": 3750,
      "cpu_v": 3751,
      "cpu_register": 3752,
      "opn": 3753,
      "asm": 3754,
      "0x3f": 3755,
      "doesn": 3756,
      "hflags": 3757,
      "pes": 3758,
      "venc": 3759,
      "##ee": 3760,
      "is_error": 3761,
      "is_write": 3762,
      "compno": 3763,
      "##pel_pixels_tab": 3764,
      "##_source": 3765,
      "target_page_size": 3766,
      "##_palette": 3767,
      "bh": 3768,
      "big": 3769,
      "gain": 3770,
      "hand": 3771,
      "wp": 3772,
      "##96": 3773,
      "++);": 3774,
      "gen_s": 3775,
      "tcgv_i64": 3776,
      "motion_x": 3777,
      "tpm": 3778,
      "rects": 3779,
      "##_bilinear": 3780,
      "63": 3781,
      "udp": 3782,
      "##_right": 3783,
      "consum": 3784,
      "##_lpc": 3785,
      "get_buffer": 3786,
      "cur_pic": 3787,
      "##essage": 3788,
      "##_user_only": 3789,
      "config_user_only": 3790,
      "##_mbaff": 3791,
      "gen_op_iwmmxt": 3792,
      "(),": 3793,
      "ioreq": 3794,
      "ifndef": 3795,
      "dmv": 3796,
      "uart": 3797,
      "##mac": 3798,
      "##ily": 3799,
      "##64_to_cpu": 3800,
      "dec_ctx": 3801,
      "##_branch": 3802,
      "special": 3803,
      "##2rgb": 3804,
      "huff": 3805,
      "mt": 3806,
      "v1": 3807,
      "##ered": 3808,
      "##i_i64": 3809,
      "##ount": 3810,
      "##ority": 3811,
      "##_pass": 3812,
      "##ization": 3813,
      "force": 3814,
      "##set_t": 3815,
      "##_aac": 3816,
      "##reds": 3817,
      "dca": 3818,
      "##buf0": 3819,
      "##action": 3820,
      "]][": 3821,
      "exception_index": 3822,
      "nic": 3823,
      "##wt": 3824,
      "##_ra": 3825,
      "##call": 3826,
      "crc": 3827,
      "half": 3828,
      "##ces": 3829,
      "##mpeg": 3830,
      "avi": 3831,
      "rex": 3832,
      "##_step": 3833,
      "##32s": 3834,
      "##_ioport": 3835,
      "##scall": 3836,
      "see": 3837,
      "weight": 3838,
      "##_to_target": 3839,
      "mv_dir": 3840,
      "cp15": 3841,
      "object_property_set": 3842,
      "fidp": 3843,
      "0f": 3844,
      "##gain": 3845,
      "##_tick": 3846,
      "##only": 3847,
      "ffabs": 3848,
      "##_iov": 3849,
      "2048": 3850,
      "##aiocb": 3851,
      "gtk": 3852,
      "dummy": 3853,
      "iter": 3854,
      "##ous": 3855,
      "##ambd": 3856,
      "##inter": 3857,
      "get_be32": 3858,
      "##_packets": 3859,
      "chrdst": 3860,
      "##itional": 3861,
      "allocated": 3862,
      "motion_y": 3863,
      "smk": 3864,
      "qdev_get_gpio_in": 3865,
      ".%": 3866,
      ":\"": 3867,
      "beta": 3868,
      "dict": 3869,
      "hy": 3870,
      "##uks": 3871,
      "##_score": 3872,
      "##_pwrite": 3873,
      "##odevice": 3874,
      "ff_alloc": 3875,
      "mmap": 3876,
      "complete": 3877,
      "##msg": 3878,
      "chroma_qp": 3879,
      "tcg_temp_new_i64": 3880,
      "av_picture_type_i": 3881,
      "##_modrm": 3882,
      "##tivec": 3883,
      "ahci": 3884,
      "fault": 3885,
      "yet": 3886,
      "##host": 3887,
      "avr": 3888,
      "##_soft": 3889,
      "intr": 3890,
      "cpu_flags": 3891,
      "aligned": 3892,
      "##_convert": 3893,
      "target_nr_set": 3894,
      "##toyv12": 3895,
      "##ooter": 3896,
      "x86_cpu": 3897,
      "##_verbose": 3898,
      "c2": 3899,
      "nvm": 3900,
      "score": 3901,
      "##33": 3902,
      "##rea": 3903,
      "cpumips": 3904,
      "##_watch": 3905,
      "tmp1": 3906,
      "through": 3907,
      "##plic": 3908,
      "ioctl": 3909,
      "##_tls": 3910,
      "##_subtitle": 3911,
      "total_size": 3912,
      "vfp": 3913,
      "current_picture_ptr": 3914,
      "##seek": 3915,
      "##_big": 3916,
      "coding": 3917,
      "##_vnc": 3918,
      "error_code": 3919,
      "xmm_regs": 3920,
      "cpumipsstate": 3921,
      "aud": 3922,
      "mpu": 3923,
      "##_gain": 3924,
      "unable": 3925,
      "transfer": 3926,
      "##_fixed": 3927,
      ",\"": 3928,
      "hap": 3929,
      "##pix": 3930,
      "##_sg": 3931,
      "##_fill": 3932,
      "cpu_abort": 3933,
      "pix_fmt_bgr": 3934,
      "##ived": 3935,
      "##_coded_sample": 3936,
      "ai": 3937,
      "ob": 3938,
      "p0": 3939,
      "pages": 3940,
      "##ren": 3941,
      "##lems": 3942,
      "elif": 3943,
      "##ipher": 3944,
      "stream_ptr": 3945,
      "##antable": 3946,
      "rtl8": 3947,
      "xmm2": 3948,
      "quality": 3949,
      "##_notify": 3950,
      "##formance": 3951,
      "++];": 3952,
      "bits_per_coded_sample": 3953,
      "since": 3954,
      "strip": 3955,
      ";\\": 3956,
      "warning": 3957,
      "##l2": 3958,
      "##_spe": 3959,
      "##_rep": 3960,
      "av_log_verbose": 3961,
      "##_u8": 3962,
      "listen": 3963,
      "extract32": 3964,
      "##_receive": 3965,
      "##ambda": 3966,
      "dy": 3967,
      "tre": 3968,
      "wi": 3969,
      "##vi": 3970,
      "##ne": 3971,
      "##ner": 3972,
      "##ities": 3973,
      "coef": 3974,
      "##_ima": 3975,
      "##irq": 3976,
      "select": 3977,
      "##_eof": 3978,
      "##_msix": 3979,
      "small": 3980,
      "isa_bus": 3981,
      "target_page_bits": 3982,
      "##_mpeg4": 3983,
      "paddd": 3984,
      "require": 3985,
      "lun": 3986,
      "main": 3987,
      "##18": 3988,
      "##decode": 3989,
      "##_vendor": 3990,
      "##_obj": 3991,
      "gbc": 3992,
      "##_child": 3993,
      "rtl8139": 3994,
      "iomem": 3995,
      "ogg": 3996,
      "##hw": 3997,
      "##mi": 3998,
      "##ater": 3999,
      "##_slot": 4000,
      "##verse": 4001,
      "sample_fmt": 4002,
      "start_time": 4003,
      "0x04": 4004,
      "key_frame": 4005,
      "##lbw": 4006,
      "##_transfer": 4007,
      "punpcklbw": 4008,
      "0x00000000": 4009,
      "av_rescale_q": 4010,
      "function": 4011,
      "qstring": 4012,
      "tcg_type": 4013,
      "##ayer": 4014,
      "##_aa": 4015,
      "specified": 4016,
      "##_item": 4017,
      "marker": 4018,
      "hpet": 4019,
      "e1000": 4020,
      "final": 4021,
      "##iodevice": 4022,
      "##url": 4023,
      "##_ds": 4024,
      "##_vol": 4025,
      "ff_get": 4026,
      "frame_addr": 4027,
      "compressed": 4028,
      "##buf1": 4029,
      "iov_base": 4030,
      "vmx": 4031,
      "##_mmx2": 4032,
      "av_picture_type_b": 4033,
      "##_clear": 4034,
      "finis": 4035,
      "hf": 4036,
      "pop": 4037,
      "##v1": 4038,
      "##_fail": 4039,
      "##psr": 4040,
      "0x03": 4041,
      "bytestream_put": 4042,
      "##_zero_count": 4043,
      "##_address_space": 4044,
      "vlum": 4045,
      "instruction": 4046,
      "ssize_t": 4047,
      "hz_out": 4048,
      "freq": 4049,
      "gp": 4050,
      "##_b_frames": 4051,
      "##_area": 4052,
      "component": 4053,
      "counter": 4054,
      "psub": 4055,
      "##_refcount": 4056,
      "##_mapped": 4057,
      "##_prob": 4058,
      "##_interlaced": 4059,
      "tcg_temp_free_i64": 4060,
      "chunk_size": 4061,
      "qtest": 4062,
      "psrad": 4063,
      "ignore": 4064,
      "vchr": 4065,
      "##di": 4066,
      "##_fop": 4067,
      "##ote": 4068,
      "0xa": 4069,
      "cpu_ppc": 4070,
      "ops": 4071,
      "do_up": 4072,
      "##config": 4073,
      "##_extra": 4074,
      "backend": 4075,
      "##_sparc": 4076,
      "##_ebml": 4077,
      "do_upcast": 4078,
      "gid": 4079,
      "##bg": 4080,
      "##_calc": 4081,
      "##_pread": 4082,
      "##_boot": 4083,
      "##_me": 4084,
      "cpu_cc": 4085,
      "these": 4086,
      "iso": 4087,
      "##char": 4088,
      "##chip": 4089,
      "\"));": 4090,
      "##_abs": 4091,
      "tracks": 4092,
      "coded_frame": 4093,
      "initialize": 4094,
      "htab": 4095,
      "##_vectors": 4096,
      ")/": 4097,
      "cert": 4098,
      "vi": 4099,
      "xf": 4100,
      "##gt": 4101,
      "##_10": 4102,
      "##_fragment": 4103,
      "##_stereo": 4104,
      "they": 4105,
      "qemuopts": 4106,
      "0x08": 4107,
      "0x100": 4108,
      "pl0": 4109,
      "vring": 4110,
      "##_rac_get": 4111,
      "our": 4112,
      "w2": 4113,
      "##mod": 4114,
      "avail": 4115,
      "remove": 4116,
      "nb_output": 4117,
      "##_frame_rate": 4118,
      "##pty": 4119,
      "resample": 4120,
      "clut": 4121,
      "movie": 4122,
      "virtio_scsi": 4123,
      "##_parameter": 4124,
      "##anges": 4125,
      "macro": 4126,
      "memory_region_init_io": 4127,
      "##_realize": 4128,
      "cu": 4129,
      "win": 4130,
      "word": 4131,
      "##_emu": 4132,
      "##pci": 4133,
      "##lp": 4134,
      "##lib": 4135,
      "##hes": 4136,
      "##_inval": 4137,
      "convert": 4138,
      "exter": 4139,
      "##_hd": 4140,
      "##_endian": 4141,
      "busdev": 4142,
      "keyframe": 4143,
      "factor": 4144,
      "av_pix_fmt_rgb": 4145,
      "unlock_user_struct": 4146,
      "rtsp_st": 4147,
      "external": 4148,
      "split": 4149,
      "xx": 4150,
      "##packet": 4151,
      "##ratch": 4152,
      "av_rl32": 4153,
      "##16x16": 4154,
      "chardev": 4155,
      "matroska_id": 4156,
      "##ularity": 4157,
      "##_prefix": 4158,
      "would": 4159,
      "0x9": 4160,
      "##_core": 4161,
      "gen_exception": 4162,
      "src0": 4163,
      "qemu_iovec": 4164,
      "trap": 4165,
      "##pcr": 4166,
      "##very": 4167,
      "##_qiov": 4168,
      "slb": 4169,
      "##_allocated": 4170,
      "refcount_block": 4171,
      "cpu_tmp2_i32": 4172,
      "av_assert0": 4173,
      "hardware": 4174,
      "possible": 4175,
      "](": 4176,
      "bt": 4177,
      "ns": 4178,
      "##<<": 4179,
      "##_t1": 4180,
      "operation": 4181,
      "qemu_coroutine": 4182,
      "##shift": 4183,
      "drop": 4184,
      "qscale_table": 4185,
      "sockaddr": 4186,
      "av_dict_set": 4187,
      "##ability": 4188,
      "dtext": 4189,
      "pattern": 4190,
      "throttle": 4191,
      "v8": 4192,
      "0xb": 4193,
      "##isk": 4194,
      "qemu_malloc": 4195,
      "arg5": 4196,
      "##ytes": 4197,
      "##shake": 4198,
      "transform": 4199,
      "##mmx2": 4200,
      "bro": 4201,
      "sure": 4202,
      "tex": 4203,
      "export": 4204,
      "also": 4205,
      "new_l1": 4206,
      "invalid_opc": 4207,
      "##_prev": 4208,
      "vnc_debug": 4209,
      "##_slices": 4210,
      "##_avail": 4211,
      "##_rb16": 4212,
      "sysbus_create_simple": 4213,
      "##_att": 4214,
      "##samples": 4215,
      "##422p": 4216,
      "bottom": 4217,
      "rce": 4218,
      "tail": 4219,
      "uri": 4220,
      "##off": 4221,
      "##_pending": 4222,
      "##_get_class": 4223,
      "blockdev": 4224,
      "ldl": 4225,
      "hpte": 4226,
      "imp": 4227,
      "q0": 4228,
      "av_w": 4229,
      "##_frag": 4230,
      "##_mux": 4231,
      "##ision": 4232,
      "##_section": 4233,
      "put_vp8": 4234,
      "packets": 4235,
      "neg": 4236,
      "excp0": 4237,
      "events": 4238,
      "##_current": 4239,
      "##_partition": 4240,
      "multiple": 4241,
      "pnum": 4242,
      "q1": 4243,
      "##ming": 4244,
      "##_fatal": 4245,
      "stuff": 4246,
      "##icient": 4247,
      "islit": 4248,
      "nb_clusters": 4249,
      "##_offsets": 4250,
      "##_to_host": 4251,
      "start_code": 4252,
      "ioh": 4253,
      "avpicture": 4254,
      "backing_file": 4255,
      "non_zero_count": 4256,
      "gen_load_gpr": 4257,
      "##_hwaccel": 4258,
      "reslevelno": 4259,
      "##_primary": 4260,
      "piix": 4261,
      "received": 4262,
      ")+": 4263,
      "footer": 4264,
      "pfx": 4265,
      "saved": 4266,
      "##s_per": 4267,
      "##ock": 4268,
      "##request": 4269,
      "##_tem": 4270,
      "##_found": 4271,
      "stack": 4272,
      "rem": 4273,
      "cpu_addr": 4274,
      "##_xor": 4275,
      "tcg_gen_brcond": 4276,
      "checksum": 4277,
      "qdev_init": 4278,
      "##client": 4279,
      "##_threshold": 4280,
      "needs": 4281,
      "nvram": 4282,
      "##_aio_context": 4283,
      "##ification": 4284,
      "bmds": 4285,
      "\"/": 4286,
      "cause": 4287,
      "dither": 4288,
      "jmp": 4289,
      "##i8": 4290,
      "##va": 4291,
      "##bpp": 4292,
      "##nx": 4293,
      "##_success": 4294,
      "##ally": 4295,
      "##_hds": 4296,
      "qemu_clock": 4297,
      "endian": 4298,
      "##olden": 4299,
      "been": 4300,
      "output_files": 4301,
      "packet_size": 4302,
      "0xfff": 4303,
      "iovec": 4304,
      "##_bus_device": 4305,
      "spapr_dr": 4306,
      "##_internal": 4307,
      "crm": 4308,
      "controller": 4309,
      "ebml": 4310,
      "v16i8": 4311,
      "##discard": 4312,
      "##_predictor": 4313,
      "sdram": 4314,
      "large": 4315,
      "enough": 4316,
      "c3": 4317,
      "csr": 4318,
      "hotplug": 4319,
      "push": 4320,
      "root": 4321,
      "uhci": 4322,
      "##nr": 4323,
      "##qp": 4324,
      "##dest": 4325,
      "##itions": 4326,
      "##peat": 4327,
      "##again": 4328,
      "##imum": 4329,
      "ff_j": 4330,
      "ff_thread": 4331,
      "qemufile": 4332,
      "unused": 4333,
      "##_sel": 4334,
      "check_insn": 4335,
      "powerpc_mmu": 4336,
      "0x7f": 4337,
      "fw_cfg_add": 4338,
      "mmu_idx": 4339,
      "##orbis": 4340,
      "gpio": 4341,
      "##tens": 4342,
      "##_one": 4343,
      "##pre": 4344,
      "##lic": 4345,
      "##_pm": 4346,
      "##idual": 4347,
      "codst": 4348,
      "ffserver": 4349,
      "mb_intra": 4350,
      "##_console": 4351,
      "compression": 4352,
      "##ibble": 4353,
      "##letion": 4354,
      "offs": 4355,
      "g_new0": 4356,
      "many": 4357,
      "uvalpha": 4358,
      "##mpeg4": 4359,
      "codsty": 4360,
      "again": 4361,
      "lba": 4362,
      "qapi": 4363,
      "##oi": 4364,
      "##_cabac": 4365,
      "##amily": 4366,
      "dead": 4367,
      "##_down": 4368,
      "target_to_host": 4369,
      "##_setprop": 4370,
      "##_ioctl": 4371,
      "skipped": 4372,
      "input_files": 4373,
      "##oke": 4374,
      "sys_bus_device": 4375,
      "##leted": 4376,
      "missing": 4377,
      "speed": 4378,
      "scaling": 4379,
      "protocol": 4380,
      "none": 4381,
      "tick": 4382,
      "x8": 4383,
      "##eger": 4384,
      "##_clk": 4385,
      "##lots": 4386,
      "##_writ": 4387,
      "qemu_co": 4388,
      "devfn": 4389,
      "new_block": 4390,
      "##_alg": 4391,
      "opc_b": 4392,
      "chrsrc": 4393,
      "fp1": 4394,
      "##_bytes_left": 4395,
      "bytestream2_get_bytes_left": 4396,
      "asf_st": 4397,
      "##orizont": 4398,
      "emp": 4399,
      "mux": 4400,
      "##eros": 4401,
      "##_tn": 4402,
      "##_sf": 4403,
      "##ront": 4404,
      "gener": 4405,
      "resync": 4406,
      "pcr": 4407,
      "init_vlc": 4408,
      "]],": 4409,
      "password": 4410,
      "prediction": 4411,
      "tcg_target_has": 4412,
      "##abilities": 4413,
      "master": 4414,
      "##2yuv": 4415,
      "##sup": 4416,
      "##_function": 4417,
      "int8_t": 4418,
      "##utation": 4419,
      "##_gp": 4420,
      "gen_jmp": 4421,
      "qemu_mutex": 4422,
      "avio_seek": 4423,
      "tempor": 4424,
      "raise": 4425,
      "ot_long": 4426,
      "##points": 4427,
      "avio_wl": 4428,
      "ff_put_vp8": 4429,
      "gen_set_label": 4430,
      "svq3": 4431,
      "sz": 4432,
      "av_rb32": 4433,
      "##_pi": 4434,
      "##_pop": 4435,
      "rel": 4436,
      "##_h_loop_filter": 4437,
      "src_y": 4438,
      "##_intr": 4439,
      "itask": 4440,
      "##_plx": 4441,
      "tcg_gen_mov_tl": 4442,
      "##_cleanup": 4443,
      "target_fmt_plx": 4444,
      "consumed": 4445,
      "26": 4446,
      "c5": 4447,
      "mant": 4448,
      "ports": 4449,
      "rp": 4450,
      "##erent": 4451,
      "##uf": 4452,
      "##r2": 4453,
      "##_po": 4454,
      "##_bd": 4455,
      "##_ri": 4456,
      "##_hand": 4457,
      "##print": 4458,
      "frame_num": 4459,
      "mem_idx": 4460,
      "sample_size": 4461,
      "opc2": 4462,
      "cluster_bits": 4463,
      "decor": 4464,
      "sysbus_mmio": 4465,
      "qdev_prop_set_uint": 4466,
      "##hr": 4467,
      "##2d": 4468,
      "##sector": 4469,
      "mbn": 4470,
      "dsth": 4471,
      "alac": 4472,
      "##_tables": 4473,
      "bdrv_co": 4474,
      "target_nr_f": 4475,
      "apply": 4476,
      "##_discard": 4477,
      "##_input_buffer": 4478,
      "##ynos": 4479,
      "different": 4480,
      "monitor_printf": 4481,
      "##tensa": 4482,
      "36": 4483,
      "qh": 4484,
      "rsp": 4485,
      "##800": 4486,
      "##))": 4487,
      "##aps": 4488,
      "exynos": 4489,
      "qemu_set": 4490,
      "place": 4491,
      "inputs": 4492,
      "qxl_io": 4493,
      "0x80000000": 4494,
      "packss": 4495,
      "ebx": 4496,
      "##_padding_size": 4497,
      "fall": 4498,
      "method": 4499,
      "wrap": 4500,
      "##uch": 4501,
      "##_ge": 4502,
      "pcibus": 4503,
      "be32_to_cpu": 4504,
      "host_to_target": 4505,
      "av_codec_id_pcm": 4506,
      "framerate": 4507,
      "empty": 4508,
      "bat": 4509,
      "ea": 4510,
      "nf": 4511,
      "nop": 4512,
      "##x8": 4513,
      "##nth": 4514,
      "int64": 4515,
      "##_hv": 4516,
      "src_size": 4517,
      "block_job": 4518,
      "##pcstate": 4519,
      "chardriverstate": 4520,
      "gen_op_mtc0": 4521,
      "##conv": 4522,
      "##_transform": 4523,
      "granularity": 4524,
      "ich": 4525,
      "##hing": 4526,
      "##cfg": 4527,
      "##dm": 4528,
      "##obj": 4529,
      "##r1": 4530,
      "cpu_ld": 4531,
      "uintptr_t": 4532,
      "##_proto": 4533,
      "interle": 4534,
      "without": 4535,
      "\"%\"": 4536,
      "vp56_frame": 4537,
      "##444p": 4538,
      "likely": 4539,
      "##_nofail": 4540,
      "nvme": 4541,
      "vmxnet": 4542,
      "##orizontal": 4543,
      "b8": 4544,
      "sregs": 4545,
      "tf": 4546,
      "##_fid": 4547,
      "##_mr": 4548,
      "##intr": 4549,
      "##_coef": 4550,
      "gen_new": 4551,
      "memcmp": 4552,
      "##ollow": 4553,
      "fdctrl": 4554,
      "##_elems": 4555,
      "opc1": 4556,
      "##_mapping": 4557,
      "enc_ctx": 4558,
      "crop": 4559,
      "dct_linesize": 4560,
      "cpu_fprintf": 4561,
      "gen_new_label": 4562,
      "eth": 4563,
      "s_addr": 4564,
      "xa": 4565,
      "##_il": 4566,
      "##copy": 4567,
      "##offset": 4568,
      "##_dsp": 4569,
      "##_vis": 4570,
      "exist": 4571,
      "argument": 4572,
      "##plate": 4573,
      "config_vnc": 4574,
      "quirk": 4575,
      "encrypt": 4576,
      "l2_offset": 4577,
      "##440": 4578,
      "nodes": 4579,
      "isa_mips": 4580,
      "byte_run": 4581,
      "rrr_s": 4582,
      "expected": 4583,
      "layout": 4584,
      "watch": 4585,
      "##gn": 4586,
      "##cle": 4587,
      "##work": 4588,
      "avcol": 4589,
      "##_fr": 4590,
      "restore": 4591,
      "##ells": 4592,
      "##_nv": 4593,
      "cow": 4594,
      "##_lsb": 4595,
      "##_object": 4596,
      "##ampling": 4597,
      "##_eax": 4598,
      "below": 4599,
      "move": 4600,
      "##quency": 4601,
      "spr_read": 4602,
      "usb_ret": 4603,
      "##4210": 4604,
      "lock_user_struct": 4605,
      "##_x86_64": 4606,
      ")-": 4607,
      "bi": 4608,
      "##wise": 4609,
      "##strc": 4610,
      "bswap": 4611,
      "secs": 4612,
      "##place": 4613,
      "pcms": 4614,
      "##_allow": 4615,
      "##streams": 4616,
      "##_header_size": 4617,
      "tables": 4618,
      "exynos4210": 4619,
      "ft": 4620,
      "lines": 4621,
      "pf": 4622,
      "pin": 4623,
      "##right": 4624,
      "stw": 4625,
      "sele": 4626,
      "num_insns": 4627,
      "##_uns": 4628,
      "##endian": 4629,
      "get_bits_left": 4630,
      "board": 4631,
      "cmdline": 4632,
      "##_maps": 4633,
      "low_delay": 4634,
      "##_cc_op": 4635,
      "##_plan": 4636,
      "rgba": 4637,
      "img_cb": 4638,
      "img_cr": 4639,
      "##_empty": 4640,
      "graphic": 4641,
      "planes": 4642,
      "css": 4643,
      "media": 4644,
      "av_pkt": 4645,
      "##_pp": 4646,
      "##_bottom": 4647,
      "encoder": 4648,
      "##esc": 4649,
      "qemu_free": 4650,
      "pcie": 4651,
      "optind": 4652,
      "hwdef": 4653,
      "##_channel_layout": 4654,
      "##_parameters": 4655,
      "##_edge_pos": 4656,
      "rrr_t": 4657,
      "serial_hds": 4658,
      "normal": 4659,
      "visit_type": 4660,
      "packssdw": 4661,
      "42": 4662,
      "ase": 4663,
      "unt": 4664,
      "zstream": 4665,
      "##:\"": 4666,
      "##//": 4667,
      "##_sar": 4668,
      "exc": 4669,
      "nb_input": 4670,
      "nothing": 4671,
      "spr_write": 4672,
      "mpeg4": 4673,
      "##serv": 4674,
      "vhdx": 4675,
      "##_descriptor": 4676,
      "4096": 4677,
      "stl_p": 4678,
      "avio_wb32": 4679,
      "cabac": 4680,
      "sess": 4681,
      "taddr": 4682,
      "vps": 4683,
      "xop": 4684,
      "xfer": 4685,
      "xinc": 4686,
      "##ged": 4687,
      "##lace": 4688,
      "##sz": 4689,
      "##u8": 4690,
      "##nut": 4691,
      "##ke": 4692,
      "##35": 4693,
      "##_rc": 4694,
      "chrom": 4695,
      "ff_vc1": 4696,
      "outpic": 4697,
      "nb_o": 4698,
      "##_frame_num": 4699,
      "next_picture": 4700,
      "##bufsize": 4701,
      "##_arith": 4702,
      "h264context": 4703,
      "##_40": 4704,
      "vmxnet3": 4705,
      "eagain": 4706,
      "glyph": 4707,
      "##_pb": 4708,
      "report": 4709,
      "##hex": 4710,
      "inbuf": 4711,
      "bs3": 4712,
      "##_search": 4713,
      "##_qscale": 4714,
      "probe": 4715,
      "put_user": 4716,
      "##connect": 4717,
      "dest_y": 4718,
      "##_trap": 4719,
      "bytestream2_skip": 4720,
      "vis1": 4721,
      "##vision": 4722,
      "##control": 4723,
      "session": 4724,
      "\".": 4725,
      "cred": 4726,
      "ecx": 4727,
      "json": 4728,
      "##ature": 4729,
      "##_try": 4730,
      "##_pict": 4731,
      "##_post": 4732,
      "##_bad": 4733,
      "repeat": 4734,
      "blockdriver": 4735,
      "pci_set": 4736,
      "])*": 4737,
      "subband": 4738,
      "noise": 4739,
      "##_or_goto": 4740,
      "action": 4741,
      "vectors": 4742,
      "error_setg_errno": 4743,
      "##nutls": 4744,
      "bmv": 4745,
      "uvm": 4746,
      "xtensa": 4747,
      "##vide": 4748,
      "##100": 4749,
      "##win": 4750,
      "##icast": 4751,
      "##_dim": 4752,
      "be64_to_cpu": 4753,
      "xmm1": 4754,
      "##_pred8x8": 4755,
      "\"(%": 4756,
      "##_qemu_st": 4757,
      "gen_op_mov_reg": 4758,
      "immediate": 4759,
      "bdrv_sector_bits": 4760,
      "even": 4761,
      "ibm": 4762,
      "##_input_buffer_padding_size": 4763,
      "\"\",": 4764,
      "dbd": 4765,
      "gd": 4766,
      "rnd": 4767,
      "##_p1": 4768,
      "##_merge": 4769,
      "##_reco": 4770,
      "##thing": 4771,
      "mmco": 4772,
      "src_x": 4773,
      "##scsi": 4774,
      "##_sen": 4775,
      "##_second": 4776,
      "pci_conf": 4777,
      "tcg_gen_trunc": 4778,
      "code_gen": 4779,
      "##_aligned": 4780,
      "vnc_auth": 4781,
      "ipv": 4782,
      "fs_ctx": 4783,
      "var_values": 4784,
      "verify_read": 4785,
      "##_bigendian": 4786,
      "cg": 4787,
      "frag": 4788,
      "vid": 4789,
      "##_total": 4790,
      "##enu": 4791,
      "deblock": 4792,
      "dequant": 4793,
      "##uess": 4794,
      "##_rnd": 4795,
      "##_lim": 4796,
      "alt": 4797,
      "##_ep": 4798,
      "clk": 4799,
      "tcg_gen_ld": 4800,
      "##_u32": 4801,
      "spr_register": 4802,
      "host_addr": 4803,
      "overlap": 4804,
      "0x8000": 4805,
      "##_mpeg2": 4806,
      "padding": 4807,
      "film": 4808,
      "##_present_flag": 4809,
      "vmdk": 4810,
      "qvirtio": 4811,
      "##urfaces": 4812,
      "luks": 4813,
      "png": 4814,
      "##lers": 4815,
      "##audio": 4816,
      "##aded": 4817,
      "##va2": 4818,
      "##_single": 4819,
      "##_push": 4820,
      "cpu_log": 4821,
      "##_vq": 4822,
      "##_vcpu": 4823,
      "##_logic": 4824,
      "pci_exp": 4825,
      "##_unmap": 4826,
      "compare": 4827,
      "0x07": 4828,
      "virtqueue": 4829,
      "disable": 4830,
      "disabled": 4831,
      "avpro": 4832,
      "gen_helper_neon": 4833,
      "##_compose": 4834,
      "##_profile": 4835,
      "requested": 4836,
      "mp3": 4837,
      "##_syscall": 4838,
      "pxor": 4839,
      "##_icount": 4840,
      "tcg_reg_r": 4841,
      "resync_mb": 4842,
      "sysbus_mmio_map": 4843,
      "#%": 4844,
      "60": 4845,
      "_s": 4846,
      "fun": 4847,
      "follow": 4848,
      "##table": 4849,
      "##urb": 4850,
      "is_jmp": 4851,
      "endptr": 4852,
      "##_auto": 4853,
      "##_se_golomb": 4854,
      "##erties": 4855,
      "##names": 4856,
      "tcg_gen_or": 4857,
      "setting": 4858,
      "avfmt": 4859,
      "##_names": 4860,
      "virtio_pci": 4861,
      "physical": 4862,
      "##dbg": 4863,
      "migrate": 4864,
      "verify_write": 4865,
      "##_wrn": 4866,
      "tcg_gen_addi_i32": 4867,
      "cid": 4868,
      "gnutls": 4869,
      "pstrc": 4870,
      "ty": 4871,
      "ve": 4872,
      "##pad": 4873,
      "##l_t0": 4874,
      "##750": 4875,
      "##??": 4876,
      "##ergy": 4877,
      "avdiscard": 4878,
      "insert": 4879,
      "##_reached": 4880,
      "##asses": 4881,
      "cpup": 4882,
      "##_vreg": 4883,
      "ff_i": 4884,
      "##_af": 4885,
      "movnt": 4886,
      "##_unimplemented": 4887,
      "buffers": 4888,
      "pic_conf": 4889,
      "##_disk": 4890,
      "##_progress": 4891,
      "##ppy": 4892,
      "crn": 4893,
      "##_overlap": 4894,
      "gen_store_fpr": 4895,
      "cpu_gpr_d": 4896,
      "ignored": 4897,
      "cpu_v0": 4898,
      "]\"": 4899,
      "cre": 4900,
      "fat": 4901,
      "fop": 4902,
      "lsi": 4903,
      "nip": 4904,
      "qbus": 4905,
      "rice": 4906,
      "slow": 4907,
      "##duct": 4908,
      "##orrect": 4909,
      "av_ch": 4910,
      "av_rl16": 4911,
      "##_sd": 4912,
      "##_pad": 4913,
      "##ults": 4914,
      "##ub_code": 4915,
      "nb_channels": 4916,
      "vsrc": 4917,
      "##_uv": 4918,
      "pl1": 4919,
      "content": 4920,
      "page_size": 4921,
      "tcg_gen_movi_i32": 4922,
      "tcg_gen_movi_tl": 4923,
      "delayed": 4924,
      "/=": 4925,
      "its": 4926,
      "qdec": 4927,
      "t3": 4928,
      "ud": 4929,
      "##save": 4930,
      "##ito": 4931,
      "##_medi": 4932,
      "##oti": 4933,
      "##ason": 4934,
      "cpu_x86": 4935,
      "ff_h263": 4936,
      "##_half": 4937,
      "srcslice": 4938,
      "frame_number": 4939,
      "swr": 4940,
      "##plane": 4941,
      "aspect": 4942,
      "avio_printf": 4943,
      "##_altivec": 4944,
      "##_extension": 4945,
      "##_compare": 4946,
      "##position": 4947,
      "tswap32": 4948,
      "av_sample_fmt_flt": 4949,
      "scaler": 4950,
      "peer": 4951,
      "psrlq": 4952,
      "spr_read_generic": 4953,
      "qdecref": 4954,
      "c7": 4955,
      "cand": 4956,
      "fi": 4957,
      "mix": 4958,
      "xor": 4959,
      "##dimm": 4960,
      "##sec": 4961,
      "##onic": 4962,
      "##_pu": 4963,
      "##_binfo": 4964,
      "##_dv": 4965,
      "##umb": 4966,
      "##_hy": 4967,
      "target_sparc": 4968,
      "##_hevc": 4969,
      "##match": 4970,
      "bdrv_block": 4971,
      "tcg_gen_qemu_ld": 4972,
      "##ields": 4973,
      "float64": 4974,
      "fprintf_func": 4975,
      "chroma_format": 4976,
      "##_cbp": 4977,
      "scsi_req": 4978,
      "vari": 4979,
      "exponent": 4980,
      "log2_prec": 4981,
      "##_32_64": 4982,
      "##ween": 4983,
      "##_system_memory": 4984,
      "dbdma": 4985,
      "cpuppcstate": 4986,
      "farg": 4987,
      "merge": 4988,
      "ring": 4989,
      "vio": 4990,
      "##elem": 4991,
      "##etype": 4992,
      "enot": 4993,
      "buff": 4994,
      "##dexec": 4995,
      "##_hi": 4996,
      "##_huff": 4997,
      "strt": 4998,
      "##_changed": 4999,
      "##_unpack": 5000,
      "avio_read": 5001,
      "last_non": 5002,
      "##_begin": 5003,
      "sdhc": 5004,
      "syn": 5005,
      "##_zeroes": 5006,
      "\"(*": 5007,
      "sysbus_connect": 5008,
      "thread_count": 5009,
      "##_resample": 5010,
      "phase": 5011,
      "##_permutation": 5012,
      "av_time_base_q": 5013,
      "outpicref": 5014,
      "sysbus_connect_irq": 5015,
      "giv": 5016,
      "##ied": 5017,
      "##ntax": 5018,
      "##_cpl": 5019,
      "##_surface": 5020,
      "##_mpu": 5021,
      "##ionary": 5022,
      "##_reply": 5023,
      "##ues": 5024,
      "##_rv": 5025,
      "##_ring": 5026,
      "##come": 5027,
      "##_lookup": 5028,
      "##ampler": 5029,
      "offset_addr": 5030,
      "blkdbg": 5031,
      "##tered": 5032,
      "##_extr": 5033,
      "formatconv": 5034,
      "vnc_write": 5035,
      "mpeg2": 5036,
      "tcg_out32": 5037,
      "idct_put": 5038,
      "smbios": 5039,
      "v16u8": 5040,
      "##3d11": 5041,
      "##allel": 5042,
      "formatconvbuffer": 5043,
      "did": 5044,
      "every": 5045,
      "gsi": 5046,
      "hdev": 5047,
      "##sion": 5048,
      "##side": 5049,
      "##dct": 5050,
      "##_text": 5051,
      "##_pe": 5052,
      "int128": 5053,
      "##_mac": 5054,
      "##_magic": 5055,
      "##_v_loop_filter": 5056,
      "##_vertical": 5057,
      "get_field": 5058,
      "##_ready": 5059,
      "prom": 5060,
      "qdev_create": 5061,
      "##_disable": 5062,
      "nvenc": 5063,
      "##_draw": 5064,
      "##pendent": 5065,
      "execute": 5066,
      "##--------": 5067,
      "between": 5068,
      "##_raise": 5069,
      "##pixel": 5070,
      "##_vendor_id": 5071,
      "\":": 5072,
      "00": 5073,
      "kv": 5074,
      "know": 5075,
      "ow": 5076,
      "sof": 5077,
      "soft": 5078,
      "##og": 5079,
      "##31": 5080,
      "##cts": 5081,
      "##_mark": 5082,
      "incl": 5083,
      "colo": 5084,
      ")),": 5085,
      "stats": 5086,
      "dstblock": 5087,
      "pci_device": 5088,
      "io_mem": 5089,
      "##mbol": 5090,
      "##_org": 5091,
      "##formation": 5092,
      "dpy": 5093,
      "cpu_to_le32": 5094,
      "property": 5095,
      "paddw": 5096,
      "tcg_cond_eq": 5097,
      "g_strdup_printf": 5098,
      "##259": 5099,
      "##decodecontext": 5100,
      "04": 5101,
      "1ull": 5102,
      "hist": 5103,
      "lc": 5104,
      "mangle": 5105,
      "nand": 5106,
      "ok": 5107,
      "pq": 5108,
      "##4000": 5109,
      "##zag": 5110,
      "##ination": 5111,
      "##_tm": 5112,
      "##_sz": 5113,
      "rest": 5114,
      "##igzag": 5115,
      "##_dprintf": 5116,
      "chapter": 5117,
      "buflen": 5118,
      "mmio": 5119,
      "qemu_aio": 5120,
      "##_data_size": 5121,
      "buffer_size": 5122,
      "##_alias": 5123,
      "##uvid": 5124,
      "##ording": 5125,
      "position": 5126,
      "have_mmx": 5127,
      "access_type": 5128,
      "rlim": 5129,
      "##_timestamp": 5130,
      "secure": 5131,
      "gen_jmp_im": 5132,
      "until": 5133,
      "enotsup": 5134,
      "???": 5135,
      "vui": 5136,
      "ws": 5137,
      "x0": 5138,
      "##pol": 5139,
      "##bsock": 5140,
      "##wb": 5141,
      "##_mix": 5142,
      "##_sts": 5143,
      "##32u": 5144,
      "buf_index": 5145,
      "##_opaque": 5146,
      "##16s": 5147,
      "##16u": 5148,
      "notifier": 5149,
      "bdrvq": 5150,
      "rtmp": 5151,
      "reading": 5152,
      "old_act": 5153,
      "##_dc_scale": 5154,
      "'):": 5155,
      "##_chunks": 5156,
      "av_realloc": 5157,
      "filtered": 5158,
      "##armstate": 5159,
      "##_attach": 5160,
      "g_io": 5161,
      "later": 5162,
      "mpc": 5163,
      "rri": 5164,
      "##_5": 5165,
      "##pv": 5166,
      "##late": 5167,
      "##nector": 5168,
      "##fid": 5169,
      "##-+": 5170,
      "##orage": 5171,
      "##_ce": 5172,
      "##_wh": 5173,
      "##istate": 5174,
      "arith": 5175,
      "get_byte": 5176,
      "max_insns": 5177,
      "ref_list": 5178,
      "least": 5179,
      "current_frame": 5180,
      "uses": 5181,
      "0x30": 5182,
      "##_allocate": 5183,
      "pict_frame": 5184,
      "##_probe": 5185,
      "initrd_base": 5186,
      "g_assert_cmphex": 5187,
      "ivi": 5188,
      "singlestep": 5189,
      "atomic": 5190,
      "array_size": 5191,
      "non_zero_count_cache": 5192,
      "movntq": 5193,
      ":\",": 5194,
      "^=": 5195,
      "che": 5196,
      "ti": 5197,
      "##\\\"": 5198,
      "##++": 5199,
      "##se3": 5200,
      "##_sb": 5201,
      "##_side_data": 5202,
      "rets": 5203,
      "##andard": 5204,
      "mb_pos": 5205,
      "swap": 5206,
      "##_codes": 5207,
      "##_put_bits": 5208,
      "##_stats": 5209,
      "##_static": 5210,
      "##aves": 5211,
      "##_than": 5212,
      "allocation": 5213,
      "##_fdt": 5214,
      "reg_bp": 5215,
      "av_opt_type": 5216,
      "dh": 5217,
      "jump": 5218,
      "mch": 5219,
      "tl": 5220,
      "ut": 5221,
      "vendor": 5222,
      "##ead": 5223,
      "##phys": 5224,
      "##just": 5225,
      "av_q": 5226,
      "##_pid": 5227,
      "##_beta": 5228,
      "##utdown": 5229,
      "cpuarmstate": 5230,
      "elbg": 5231,
      "target_ppc": 5232,
      "qemuiov": 5233,
      "##scan": 5234,
      "new_msr": 5235,
      "csock": 5236,
      "xmm4": 5237,
      "##_parser": 5238,
      "qtd": 5239,
      "required": 5240,
      "lp2": 5241,
      "indic": 5242,
      "cpu_register_physical_memory": 5243,
      "qdev_init_nofail": 5244,
      "##amplerate": 5245,
      "qemuiovector": 5246,
      "'\",": 5247,
      "r3": 5248,
      "vertical": 5249,
      "way": 5250,
      "##e0": 5251,
      "##sure": 5252,
      "##_tis": 5253,
      "##_spl": 5254,
      "##_mp": 5255,
      "tok": 5256,
      "framep": 5257,
      "start_addr": 5258,
      "##_new_stream": 5259,
      "pixel_count": 5260,
      "bios_name": 5261,
      "avfilterlink": 5262,
      "##_mpeg1": 5263,
      "av_sample_fmt_s16": 5264,
      "##ternate": 5265,
      "like": 5266,
      "selector": 5267,
      "bmap": 5268,
      "cd": 5269,
      "es": 5270,
      "lx": 5271,
      "lr": 5272,
      "lfe": 5273,
      "qmat": 5274,
      "qpel": 5275,
      "title": 5276,
      "##i16": 5277,
      "##hb": 5278,
      "##c3": 5279,
      "inv": 5280,
      "##_incr": 5281,
      "##ility": 5282,
      "##_delete": 5283,
      "ff_vp": 5284,
      "##sconf": 5285,
      "##_mem_size": 5286,
      "##conf": 5287,
      "input_streams": 5288,
      "vdi": 5289,
      "times": 5290,
      "svga": 5291,
      "otherwise": 5292,
      "##proc": 5293,
      "adpcm_ima": 5294,
      "dirac_std": 5295,
      "instead": 5296,
      "av_q2d": 5297,
      "/(": 5298,
      "bnd": 5299,
      "layer": 5300,
      "raddr": 5301,
      "tight": 5302,
      "uid": 5303,
      "yalpha": 5304,
      "##23": 5305,
      "##cation": 5306,
      "##_td": 5307,
      "##_cop": 5308,
      "##here": 5309,
      "##_nic": 5310,
      "##_nibble": 5311,
      "get_se_golomb": 5312,
      "##16_to": 5313,
      "tmp3": 5314,
      "##mms": 5315,
      "scsid": 5316,
      "##_stream_index": 5317,
      "armv": 5318,
      "uvsrc": 5319,
      "##_fd_handler": 5320,
      "##_offs": 5321,
      "##_31": 5322,
      "v9fs_string": 5323,
      "rrr_r": 5324,
      "tcg_cond_ne": 5325,
      "keep": 5326,
      "tpm_tis": 5327,
      "scsidisk": 5328,
      "29": 5329,
      "dynamic": 5330,
      "e2": 5331,
      "fetch": 5332,
      "sco": 5333,
      "side": 5334,
      "wv": 5335,
      "##eps": 5336,
      "##gen": 5337,
      "##_er": 5338,
      "##14": 5339,
      "##76": 5340,
      "##_tt": 5341,
      "##lend": 5342,
      "##leep": 5343,
      "##_f0": 5344,
      "##_bios": 5345,
      "##elcome": 5346,
      "##_l0": 5347,
      "##_lea": 5348,
      "threshold": 5349,
      "gen_helper_mtc0": 5350,
      "ptrdiff": 5351,
      "extension": 5352,
      "##dictionary": 5353,
      "##pectr": 5354,
      "avfiltercontext": 5355,
      "cleanup": 5356,
      "got_frame_ptr": 5357,
      "mdct": 5358,
      "transport": 5359,
      "geot": 5360,
      "ci": 5361,
      "card": 5362,
      "sx": 5363,
      "##ture": 5364,
      "##vr": 5365,
      "##ude": 5366,
      "changed": 5367,
      "isn": 5368,
      "##enter": 5369,
      "loss": 5370,
      "reg_addr": 5371,
      "cur_lp": 5372,
      "##_table_size": 5373,
      "do_fault": 5374,
      "##_to_q": 5375,
      "mvd": 5376,
      "##output": 5377,
      "put_be32": 5378,
      "register_hwaccel": 5379,
      "assume": 5380,
      "arm_cpu": 5381,
      "##board": 5382,
      "requests": 5383,
      "##_4g": 5384,
      "specific": 5385,
      "##_rdwr": 5386,
      "written": 5387,
      "##_savevm": 5388,
      "heads": 5389,
      "tcg_gen_andi_tl": 5390,
      "fbdev": 5391,
      "v8i16": 5392,
      "##_pool": 5393,
      "27": 5394,
      "]>>": 5395,
      "dpp": 5396,
      "iops": 5397,
      "mid": 5398,
      "ori": 5399,
      "rot": 5400,
      "x264": 5401,
      "##high": 5402,
      "##xattr": 5403,
      "##cache": 5404,
      "##rle": 5405,
      "##_tail": 5406,
      "##_fc": 5407,
      "##_menu": 5408,
      "theor": 5409,
      "srch": 5410,
      "##_frame_size": 5411,
      "notify": 5412,
      "##_disas": 5413,
      "exit_program": 5414,
      "strchr": 5415,
      "period": 5416,
      "bytestream2_get_le16": 5417,
      ")],": 5418,
      "av_pix_fmt_yuv420p": 5419,
      "connection": 5420,
      "!!(": 5421,
      "frequency": 5422,
      "##_template": 5423,
      "pstrcpy": 5424,
      "evt": 5425,
      "pde": 5426,
      "sem": 5427,
      "##ton": 5428,
      "##ted": 5429,
      "##au": 5430,
      "##cty": 5431,
      "##_inv": 5432,
      "ffalign": 5433,
      "data_len": 5434,
      "##_set_pts": 5435,
      "##_reg_bits": 5436,
      "nb_frames": 5437,
      "num_bands": 5438,
      "virtiodevice": 5439,
      "##_io_memory": 5440,
      "##_flash": 5441,
      "line_size": 5442,
      "##_avg": 5443,
      "##_avx": 5444,
      "pte1": 5445,
      "qtailq_foreach": 5446,
      "tcg_gen_shri": 5447,
      "i8259": 5448,
      "obt": 5449,
      "##_set_pts_info": 5450,
      "bstate": 5451,
      "cvt": 5452,
      "emms": 5453,
      "fpu": 5454,
      "lambda": 5455,
      "meta": 5456,
      "##iop": 5457,
      "avdictionary": 5458,
      "##_power": 5459,
      "coefs": 5460,
      "##_va": 5461,
      "is_le": 5462,
      "av_log_fatal": 5463,
      "gen_lea": 5464,
      "##_hflag": 5465,
      "##_devs": 5466,
      "objectclass": 5467,
      "##ckets": 5468,
      "##_armv": 5469,
      "colorspace": 5470,
      "v9f": 5471,
      "mips_hflag": 5472,
      "'))": 5473,
      "##_booke": 5474,
      "nd_table": 5475,
      "sectors_per": 5476,
      "super": 5477,
      "wrong": 5478,
      "calculate": 5479,
      "qemu_mallocz": 5480,
      "spr_write_generic": 5481,
      "##_extradata": 5482,
      "ptrdiff_t": 5483,
      "1000000": 5484,
      "cflags": 5485,
      "let": 5486,
      "npc": 5487,
      "##88": 5488,
      "##52": 5489,
      "##97": 5490,
      "av_buffer": 5491,
      "reject": 5492,
      "##_inline": 5493,
      "##_dynamic": 5494,
      "##_r8": 5495,
      "##ac3": 5496,
      "##coming": 5497,
      "##version": 5498,
      "##_expr": 5499,
      "0x06": 5500,
      "tags": 5501,
      "##_components": 5502,
      "##_quad": 5503,
      "##_signo": 5504,
      "drive_get": 5505,
      "tcg_target_reg_bits": 5506,
      "fdt_property_cell": 5507,
      "qemu_put_be32": 5508,
      "**)&": 5509,
      "fourcc": 5510,
      "decorr": 5511,
      "ich9": 5512,
      "gen_lea_modrm": 5513,
      "200": 5514,
      "feat": 5515,
      "l4": 5516,
      "tlen": 5517,
      "xattr": 5518,
      "##_ut": 5519,
      "##ches": 5520,
      "##rupt": 5521,
      "##wait": 5522,
      "##92": 5523,
      "##demux": 5524,
      "ensure": 5525,
      "##_norm": 5526,
      "##apic": 5527,
      "buf2": 5528,
      "##ss_than": 5529,
      "##yte": 5530,
      "startcode": 5531,
      "subs": 5532,
      "gen_op_mfc0": 5533,
      "##_transp": 5534,
      "interface": 5535,
      "pred_count": 5536,
      "##_interval": 5537,
      "qdict_put": 5538,
      "rgb2yuv": 5539,
      "cpu_to_be64": 5540,
      "ttbr": 5541,
      "pointer": 5542,
      "clip_table": 5543,
      "##_sense": 5544,
      "is_less_than": 5545,
      "\"#": 5546,
      "auto": 5547,
      "bx": 5548,
      "cop": 5549,
      "hid": 5550,
      "lm": 5551,
      "ssp": 5552,
      "##_eth": 5553,
      "##sts": 5554,
      "av_rb16": 5555,
      "##mppc": 5556,
      "##_vec": 5557,
      "##usive": 5558,
      "look": 5559,
      "alias": 5560,
      "codes": 5561,
      "vsid": 5562,
      "optim": 5563,
      "temp2": 5564,
      "chrtoyv12": 5565,
      "performance": 5566,
      "simple": 5567,
      "driveinfo": 5568,
      "##_private": 5569,
      "##====": 5570,
      "target_stfs": 5571,
      "coroutine_fn": 5572,
      "##_protocol": 5573,
      "target_sparc64": 5574,
      "04x": 5575,
      "bdrvqcow": 5576,
      "33": 5577,
      "cipher": 5578,
      "wm": 5579,
      "wav": 5580,
      "##d_gp": 5581,
      "##incts": 5582,
      "##allo": 5583,
      "##_bt": 5584,
      "##idate": 5585,
      "integer": 5586,
      "##_main": 5587,
      "reason": 5588,
      "##_lt": 5589,
      "pci_config": 5590,
      "shared": 5591,
      "picref": 5592,
      "target_nr_m": 5593,
      "sysmem": 5594,
      "mpegts": 5595,
      "macaddr": 5596,
      "##_alignment": 5597,
      "0x101": 5598,
      "vmstate_register": 5599,
      "excp0d_gp": 5600,
      "b8_stride": 5601,
      "gen_op_mov_reg_t0": 5602,
      "kvmppc": 5603,
      "pixel_countdown": 5604,
      "excp0d_gpf": 5605,
      "fg": 5606,
      "##sf": 5607,
      "##oice": 5608,
      "##onito": 5609,
      "##env": 5610,
      "##hedu": 5611,
      "##_refs": 5612,
      "##_encoding": 5613,
      "##_counter": 5614,
      "mb_type_16x16": 5615,
      "##clusive": 5616,
      "running": 5617,
      "open_flags": 5618,
      "##_minus": 5619,
      "ident": 5620,
      "##_words": 5621,
      "callback": 5622,
      "ncq": 5623,
      "dvb": 5624,
      "incorrect": 5625,
      "floppy": 5626,
      "tcg_gen_shli": 5627,
      "priu32": 5628,
      "progressive": 5629,
      "##othread": 5630,
      "e1000e": 5631,
      "em": 5632,
      "mutex": 5633,
      "vorbis": 5634,
      "##tc": 5635,
      "##21": 5636,
      "##pose": 5637,
      "##ahead": 5638,
      "##_pte": 5639,
      "##_patch": 5640,
      "##_finis": 5641,
      "##adv": 5642,
      "case_op": 5643,
      "cook": 5644,
      "##_if": 5645,
      "##_vga": 5646,
      "##_legacy": 5647,
      "dst2": 5648,
      "##errup": 5649,
      "numa": 5650,
      "##_ef": 5651,
      "log_ctx": 5652,
      "##_invalidate": 5653,
      "psll": 5654,
      "bytestream2_tell": 5655,
      "##_flight": 5656,
      "##bitmap": 5657,
      "##555": 5658,
      "attrs": 5659,
      "av_clip_uint": 5660,
      "extended_data": 5661,
      "implementation": 5662,
      "##_after": 5663,
      "case_op_32_64": 5664,
      "date": 5665,
      "fpcr": 5666,
      "xer": 5667,
      "##xm": 5668,
      "##*/": 5669,
      "##mts": 5670,
      "##ness": 5671,
      "##welcome": 5672,
      "##dend": 5673,
      "##_sup": 5674,
      "##_s390": 5675,
      "##_payload": 5676,
      "information": 5677,
      "##_rec": 5678,
      "##_demux": 5679,
      "fft": 5680,
      "mm_end": 5681,
      "##_hist": 5682,
      "scratch": 5683,
      "averror_patch": 5684,
      "avio_r8": 5685,
      "##_codebook": 5686,
      "##_max_size": 5687,
      "##_u16": 5688,
      "##_h264_qpel": 5689,
      "##bufferref": 5690,
      "means": 5691,
      "##_cp1": 5692,
      "##_mouse": 5693,
      "cpu_f0": 5694,
      "detect": 5695,
      "##_cancel": 5696,
      "isa_mips32": 5697,
      "averror_patchwelcome": 5698,
      "$\"": 5699,
      "eval": 5700,
      "pio": 5701,
      "qint": 5702,
      "##vga": 5703,
      "##ffs": 5704,
      "##_root": 5705,
      "##acity": 5706,
      "##_i2c": 5707,
      "conn": 5708,
      "condexec": 5709,
      "ff_vp8": 5710,
      "##olic": 5711,
      "legacy": 5712,
      "last_frame": 5713,
      "virtio_blk": 5714,
      "bytes_per": 5715,
      "signature": 5716,
      "segs": 5717,
      "cp0_unimplemented": 5718,
      "condition": 5719,
      "ldq": 5720,
      "img_y": 5721,
      "quant_matrix": 5722,
      "pflash": 5723,
      "qemu_opt_get_bool": 5724,
      "funcc": 5725,
      "cpuid_ext": 5726,
      "##return": 5727,
      "##_aa64": 5728,
      "cpu_ldub_code": 5729,
      "##_4g_mem_size": 5730,
      ")<<": 5731,
      "bmp": 5732,
      "iq": 5733,
      "niov": 5734,
      "##zrle": 5735,
      "##ernal": 5736,
      "av_fifo": 5737,
      "##aligned": 5738,
      "##_break": 5739,
      "##_in_cluster": 5740,
      "ff_array": 5741,
      "##_hint": 5742,
      "##_hotplug": 5743,
      "(\"\\": 5744,
      "domain": 5745,
      "tcg_gen_xor": 5746,
      "what": 5747,
      "configuration": 5748,
      "load_image": 5749,
      "decode_cabac": 5750,
      "priority": 5751,
      "step_index": 5752,
      "chrdstw": 5753,
      "##_visitor": 5754,
      "ff_array_elems": 5755,
      "%#": 5756,
      "est": 5757,
      "qmul": 5758,
      "r_eax": 5759,
      "##_ub": 5760,
      "##_driver": 5761,
      "##uyv": 5762,
      "##dered": 5763,
      "av_packet": 5764,
      "recv": 5765,
      "##_l2": 5766,
      "get_system_memory": 5767,
      "exact": 5768,
      "qemu_file": 5769,
      "##ysym": 5770,
      "bdrv_pread": 5771,
      "tcg_gen_st": 5772,
      "]){": 5773,
      "##vmc": 5774,
      "has_b_frames": 5775,
      "rcc": 5776,
      "##_scantable": 5777,
      "psy": 5778,
      "based": 5779,
      "##_page_size": 5780,
      "bytestream2_put": 5781,
      "msmpeg4": 5782,
      "##filterpos": 5783,
      "##1010": 5784,
      "##_mmxext": 5785,
      "##uffix": 5786,
      "[((": 5787,
      "capabilities": 5788,
      "source_index": 5789,
      "vp56_rac_get": 5790,
      "##segv": 5791,
      "vmsd": 5792,
      "##coeffs": 5793,
      "happen": 5794,
      "##_allowed": 5795,
      "##errupts": 5796,
      "\"-": 5797,
      "[%": 5798,
      "pfd": 5799,
      "vert": 5800,
      "##ored": 5801,
      "##_sch": 5802,
      "inf": 5803,
      "##ulk": 5804,
      "##_graph": 5805,
      "##_stri": 5806,
      "##uspend": 5807,
      "gen_ne": 5808,
      "##_opcode": 5809,
      "ff_d": 5810,
      "##andom": 5811,
      "bdrv_is": 5812,
      "prep": 5813,
      "##_unknown": 5814,
      "##_flag_key": 5815,
      "optarg": 5816,
      "register_filter": 5817,
      "register_ioport": 5818,
      "##qual": 5819,
      "dirent": 5820,
      "virtio_queue": 5821,
      "##_external": 5822,
      "cp_rx": 5823,
      "xmm6": 5824,
      "##_bitstream": 5825,
      "socketaddress": 5826,
      "idct_permutation": 5827,
      "##chron": 5828,
      "prefixes": 5829,
      "object_property_add": 5830,
      "secondary": 5831,
      "priu64": 5832,
      "##maries": 5833,
      "qdev_prop_set_uint32": 5834,
      "geotag": 5835,
      "##olicy": 5836,
      "gen_ne_fop": 5837,
      "dw": 5838,
      "either": 5839,
      "fmov": 5840,
      "i2": 5841,
      "lut": 5842,
      "ur": 5843,
      "##inity": 5844,
      "##_fmts": 5845,
      "##_mis": 5846,
      "##aged": 5847,
      "##_reserv": 5848,
      "enos": 5849,
      "##_dm": 5850,
      "##_dist": 5851,
      "ff_aac": 5852,
      "maximum": 5853,
      "##_unused": 5854,
      "0x0c": 5855,
      "ost_table": 5856,
      "picture_number": 5857,
      "kvm_enabled": 5858,
      "##avio": 5859,
      "vncstate": 5860,
      "##_arch": 5861,
      "lowpass": 5862,
      "##_no_rnd": 5863,
      "got_packet": 5864,
      "##_events": 5865,
      "##_expand": 5866,
      "##_forward": 5867,
      "##_elf": 5868,
      "supp": 5869,
      "smp_cpus": 5870,
      "rex_b": 5871,
      "##_speed": 5872,
      "##_tn_reg": 5873,
      "target_ppc64": 5874,
      "##_armv6": 5875,
      "bonito": 5876,
      "dsh": 5877,
      "i1": 5878,
      "mquant": 5879,
      "pout": 5880,
      "v7m": 5881,
      "xl": 5882,
      "##ontext": 5883,
      "##qa": 5884,
      "##around": 5885,
      "intel": 5886,
      "##_det": 5887,
      "chip": 5888,
      "unix": 5889,
      "bs_stop": 5890,
      "errors": 5891,
      "error_free": 5892,
      "acl": 5893,
      "##_eflags": 5894,
      "averror_eof": 5895,
      "##_prot": 5896,
      "##_unix": 5897,
      "outputs": 5898,
      "##filtercode": 5899,
      "##compress": 5900,
      "multi": 5901,
      "##params": 5902,
      "snapshots": 5903,
      "l1_table_offset": 5904,
      "##style": 5905,
      "c4r4": 5906,
      "c4r0": 5907,
      "raise_exception": 5908,
      "##_expand_nibble": 5909,
      "both": 5910,
      "h12": 5911,
      "h11": 5912,
      "mfx": 5913,
      "r_t": 5914,
      "where": 5915,
      "##8s": 5916,
      "iformat": 5917,
      "##_supported": 5918,
      "stfs": 5919,
      "##uring": 5920,
      "red": 5921,
      "##_restore": 5922,
      "0xc0": 5923,
      "##_dict": 5924,
      "##locks": 5925,
      "out_size": 5926,
      "##_setcond": 5927,
      "pbdev": 5928,
      "##_seq": 5929,
      "swb": 5930,
      "width_tbl": 5931,
      "0x18": 5932,
      "0x11": 5933,
      "provide": 5934,
      "spice": 5935,
      "book": 5936,
      "codec_id_adpcm": 5937,
      "sdp": 5938,
      "##_compute": 5939,
      "vec_ld": 5940,
      "nvdimm": 5941,
      "##_chroma_qp": 5942,
      "##565": 5943,
      "good": 5944,
      "actually": 5945,
      "h21": 5946,
      "ff_allocz": 5947,
      "broken": 5948,
      "##-+-+": 5949,
      "##hedule": 5950,
      "fh": 5951,
      "oi": 5952,
      "pch": 5953,
      "qs": 5954,
      "r_const": 5955,
      "zsig": 5956,
      "##lation": 5957,
      "##sist": 5958,
      "##fa": 5959,
      "##atial": 5960,
      "##_trc": 5961,
      "##_surfaces": 5962,
      "##_fe": 5963,
      "##_bias": 5964,
      "##adt": 5965,
      "##_inet": 5966,
      "ff_init": 5967,
      "ff_as": 5968,
      "src3": 5969,
      "block_offset": 5970,
      "bsf": 5971,
      "pci_base": 5972,
      "id3": 5973,
      "##_epc": 5974,
      "0x14": 5975,
      "never": 5976,
      "##_subband": 5977,
      "##_compat": 5978,
      "ipd": 5979,
      "fields": 5980,
      "\")));": 5981,
      "threads": 5982,
      "resetvalue": 5983,
      "phb": 5984,
      "vbi": 5985,
      "mismatch": 5986,
      "yuv2rgb": 5987,
      "gen_op_mov_tn_reg": 5988,
      "##_precincts": 5989,
      "allowed": 5990,
      "generate_exception": 5991,
      "instance": 5992,
      "avio_wl32": 5993,
      "asc": 5994,
      "eintr": 5995,
      "gop": 5996,
      "svm": 5997,
      "vop": 5998,
      "y_ptr": 5999,
      "##ched": 6000,
      "##ring": 6001,
      "##');": 6002,
      "##_pages": 6003,
      "##color": 6004,
      "##ris": 6005,
      "##chs": 6006,
      "gen_st": 6007,
      "generic": 6008,
      "ff_input_buffer_padding_size": 6009,
      "##_int16": 6010,
      "put_le16": 6011,
      "put_ebml": 6012,
      "127": 6013,
      "hw_error": 6014,
      "ccid": 6015,
      "##_spapr": 6016,
      "vm_clock": 6017,
      "service": 6018,
      "##_tags": 6019,
      "nvic": 6020,
      "si_code": 6021,
      "si_signo": 6022,
      "tlb_flush": 6023,
      "##_backward": 6024,
      "aml_append": 6025,
      "ff_mpv": 6026,
      "##4x4_pred_mode": 6027,
      "##_m0_wrn": 6028,
      "macroblock": 6029,
      "credp": 6030,
      "c6": 6031,
      "medi": 6032,
      "pk": 6033,
      "q2": 6034,
      "sram": 6035,
      "sioc": 6036,
      "uuid": 6037,
      "vers": 6038,
      "##_8x": 6039,
      "##8u": 6040,
      "##mx": 6041,
      "##_ctb": 6042,
      "##other": 6043,
      "##igger": 6044,
      "##_native": 6045,
      "##_stctl": 6046,
      "##cod": 6047,
      "ffio": 6048,
      "except": 6049,
      "##olution": 6050,
      "tcg_gen_sub": 6051,
      "whole": 6052,
      "currently": 6053,
      "dest_cb": 6054,
      "bandno": 6055,
      "ps_max": 6056,
      "coefficient": 6057,
      "##ynq": 6058,
      "mean": 6059,
      "qemu_get_be32": 6060,
      "qobject_to_q": 6061,
      "render": 6062,
      "branch": 6063,
      "##_nodes": 6064,
      "execution": 6065,
      "(%%\"": 6066,
      "##68k": 6067,
      "candidate": 6068,
      "##scanf": 6069,
      "theora": 6070,
      "##_transport": 6071,
      "655": 6072,
      "=\"": 6073,
      "cpsr": 6074,
      "esi": 6075,
      "h1": 6076,
      "oss": 6077,
      "##i64": 6078,
      "##auth": 6079,
      "##range": 6080,
      "##sth": 6081,
      "av_image": 6082,
      "replay": 6083,
      "##otr": 6084,
      "##_rr": 6085,
      "##_win": 6086,
      "ff_audio": 6087,
      "lookup": 6088,
      "mb_size": 6089,
      "fds": 6090,
      "refs": 6091,
      "##_script": 6092,
      "dest_cr": 6093,
      "parallel": 6094,
      "vp9": 6095,
      "##_load_reg": 6096,
      "ot_byte": 6097,
      "##pected": 6098,
      "dctelem": 6099,
      "##_4x4": 6100,
      "coded_height": 6101,
      "props": 6102,
      "misc": 6103,
      "edge_emu": 6104,
      "help": 6105,
      "target_sigset_t": 6106,
      "##_ctl": 6107,
      "strtol": 6108,
      "last_non_zero": 6109,
      "ff_allocz_or_goto": 6110,
      "*,": 6111,
      "80": 6112,
      ":\\": 6113,
      "lag": 6114,
      "qem": 6115,
      "tak": 6116,
      "xed": 6117,
      "##t0": 6118,
      "##r5": 6119,
      "##ystem": 6120,
      "##_targ": 6121,
      "av_strdup": 6122,
      "##_fps": 6123,
      "##izer": 6124,
      "##_blt": 6125,
      "restart": 6126,
      "##aph": 6127,
      "gen_io": 6128,
      "data_offset": 6129,
      "##ands": 6130,
      "src4": 6131,
      "tmp0": 6132,
      "swf": 6133,
      "mov_write": 6134,
      "0x0e": 6135,
      "##_kvm": 6136,
      "samples_per": 6137,
      "snow": 6138,
      "vmcb": 6139,
      "sigset_t": 6140,
      "##dog": 6141,
      "##_queues": 6142,
      "##_caps": 6143,
      "##261": 6144,
      "##_64bit": 6145,
      "illegal_insn": 6146,
      "##backend": 6147,
      "qemu_log_mask": 6148,
      "##_prediction": 6149,
      "pthread_mutex": 6150,
      "##_virtio": 6151,
      "##_increment": 6152,
      "qemu_co_mutex": 6153,
      "##_recogn": 6154,
      "singlestep_enabled": 6155,
      "armv7m": 6156,
      "##_vaapi": 6157,
      "##alloon": 6158,
      "aux": 6159,
      "b4": 6160,
      "perror": 6161,
      "vect": 6162,
      "zeros": 6163,
      "##tell": 6164,
      "##skip": 6165,
      "##ued": 6166,
      "##inance": 6167,
      "remov": 6168,
      "##ases": 6169,
      "cases": 6170,
      "sizes": 6171,
      "tcet": 6172,
      "##_get_user": 6173,
      "temp1": 6174,
      "##_enter": 6175,
      "##ically": 6176,
      "##_sigset": 6177,
      "##_symbol": 6178,
      "phys_addr": 6179,
      "filt": 6180,
      "##channels": 6181,
      "divx": 6182,
      "target_efault": 6183,
      "boundary": 6184,
      "gen_spr": 6185,
      "hyper": 6186,
      "remote": 6187,
      "##otiate": 6188,
      "__function": 6189,
      "dquant": 6190,
      "eaddr": 6191,
      "pit": 6192,
      "pas": 6193,
      "sscanf": 6194,
      "tem": 6195,
      "yscale": 6196,
      "##qemu": 6197,
      "##_sk": 6198,
      "##izing": 6199,
      "##_make": 6200,
      "##_recv": 6201,
      "get_be16": 6202,
      "mms": 6203,
      "bs1": 6204,
      "dc_val": 6205,
      "play": 6206,
      "##_alt": 6207,
      "deviceclass": 6208,
      "##shal": 6209,
      "private": 6210,
      "##_jump": 6211,
      "##_process": 6212,
      "##erenc": 6213,
      "lumsrc": 6214,
      "##_class_init": 6215,
      "tcg_out_r": 6216,
      "##_bswap": 6217,
      "paddusb": 6218,
      "##_t0_a0": 6219,
      "##dpau": 6220,
      "memory_region_init_ram": 6221,
      "container_of": 6222,
      "last_picture_ptr": 6223,
      "dmv_y": 6224,
      "##interlace": 6225,
      "##_softmmu": 6226,
      "finished": 6227,
      "via": 6228,
      "cpu_log_tb": 6229,
      "##iopci": 6230,
      "##_targphys": 6231,
      "__function__": 6232,
      "1b": 6233,
      "fir": 6234,
      "sar": 6235,
      "success": 6236,
      "##byte": 6237,
      "stq": 6238,
      "still": 6239,
      "##_resp": 6240,
      "energy": 6241,
      "buckets": 6242,
      "##ably": 6243,
      "##_coding": 6244,
      "loader": 6245,
      "target_x86_64": 6246,
      "qemu_register": 6247,
      "offset_with": 6248,
      "curframe": 6249,
      "num_tile": 6250,
      "idsp": 6251,
      "web": 6252,
      "onen": 6253,
      "##_block_size": 6254,
      "code_ptr": 6255,
      "##_usb": 6256,
      "0x10000": 6257,
      "has_option": 6258,
      "opc_l": 6259,
      "filters": 6260,
      "##_decode_init": 6261,
      "0xf0": 6262,
      "lower": 6263,
      "coded_width": 6264,
      "badframe": 6265,
      "alignment": 6266,
      "##_primaries": 6267,
      "##_failed": 6268,
      "tcg_gen_ext32s": 6269,
      "##_by_name": 6270,
      "##_raw_sample": 6271,
      "arm_cp_const": 6272,
      "##_callback": 6273,
      "##sthrough": 6274,
      "##_recognition": 6275,
      "offset_within": 6276,
      "dup": 6277,
      "hb": 6278,
      "lsock": 6279,
      "might": 6280,
      "te": 6281,
      "t4": 6282,
      "tally": 6283,
      "##pts": 6284,
      "##lan": 6285,
      "##nm": 6286,
      "##job": 6287,
      "##_tce": 6288,
      "standard": 6289,
      "##asedev": 6290,
      "##_stack": 6291,
      "coup": 6292,
      "pktl": 6293,
      "pcnet": 6294,
      "compress": 6295,
      "avpix": 6296,
      "minor": 6297,
      "##_ldl": 6298,
      "0xfffc": 6299,
      "xmm3": 6300,
      "page_write": 6301,
      "l2_cache": 6302,
      "powerpccpu": 6303,
      "rxbuf": 6304,
      "overlay": 6305,
      "simp": 6306,
      "handled": 6307,
      "swscontext": 6308,
      "vbasedev": 6309,
      "qcow2_cache": 6310,
      "##_override": 6311,
      "attrib": 6312,
      "tci_read_ri32": 6313,
      "neon_load_reg": 6314,
      "##_grp": 6315,
      "emulated": 6316,
      "pvr": 6317,
      "##_mono": 6318,
      "tci_write_reg32": 6319,
      "##_volatile": 6320,
      "v9fsp": 6321,
      "');": 6322,
      "__get_user": 6323,
      "aurb": 6324,
      "pow": 6325,
      "sim": 6326,
      "yc": 6327,
      "##gra": 6328,
      "##x2": 6329,
      "##_term": 6330,
      "##_cy": 6331,
      "##_match": 6332,
      "##ffect": 6333,
      "##ement": 6334,
      "##ates": 6335,
      "##_realloc": 6336,
      "##unce": 6337,
      "ffs": 6338,
      "##_x509": 6339,
      "idstr": 6340,
      "rd1": 6341,
      "opc0": 6342,
      "flat": 6343,
      "hwctx": 6344,
      "table_data": 6345,
      "pps_id": 6346,
      "mpeg1": 6347,
      "##graph": 6348,
      "##_intra_matrix": 6349,
      "*((": 6350,
      "version_id": 6351,
      "##_query": 6352,
      "##_16x8": 6353,
      "xendev": 6354,
      "boot_device": 6355,
      "##_cursor": 6356,
      "flash_size": 6357,
      "qiochannel": 6358,
      "disp16": 6359,
      "dmv_x": 6360,
      "qapi_free": 6361,
      "stw_p": 6362,
      "xtensa_option": 6363,
      "\"+": 6364,
      "element": 6365,
      "ii": 6366,
      "lw": 6367,
      "l3": 6368,
      "qnt": 6369,
      "tprintf": 6370,
      "u0": 6371,
      "##_ud": 6372,
      "##pq": 6373,
      "##aults": 6374,
      "##inition": 6375,
      "##leak": 6376,
      "##left": 6377,
      "av_ef": 6378,
      "##iocontext": 6379,
      "##ixbuf": 6380,
      "##_idr": 6381,
      "dst_stride": 6382,
      "next_pts": 6383,
      "structure": 6384,
      "substr": 6385,
      "loglevel": 6386,
      "vcard": 6387,
      "fdt_setprop": 6388,
      "mapped": 6389,
      "))))": 6390,
      "##_keyframe": 6391,
      "##_edx": 6392,
      "nv_enc": 6393,
      "vaapi": 6394,
      "byteiocontext": 6395,
      "qemu_opt_get_number": 6396,
      "##_nonblock": 6397,
      "corrected": 6398,
      "pgm": 6399,
      "h22": 6400,
      "cirrus_blt": 6401,
      "##mmx2filtercode": 6402,
      "mvd_cache": 6403,
      "edge_emu_buffer": 6404,
      "last_non_zero_p1": 6405,
      "\"<": 6406,
      "__volatile": 6407,
      "aut": 6408,
      "dyn": 6409,
      "hack": 6410,
      "nl": 6411,
      "ptype": 6412,
      "s0": 6413,
      "s_index": 6414,
      "##pal": 6415,
      "##xt": 6416,
      "##cur": 6417,
      "##adcast": 6418,
      "##_rout": 6419,
      "##ing_filter": 6420,
      "regbp": 6421,
      "##errno": 6422,
      "flags2": 6423,
      "##_uart": 6424,
      "output_streams": 6425,
      "hostname": 6426,
      "##avs": 6427,
      "parameter": 6428,
      "##_ac3": 6429,
      "index_op_ld": 6430,
      "##_ram_ptr": 6431,
      "##ription": 6432,
      "edx": 6433,
      "encode_config": 6434,
      "##_drop": 6435,
      "partial": 6436,
      "##_api": 6437,
      "##_idct_add": 6438,
      "ptimer": 6439,
      "directory": 6440,
      "##subsample": 6441,
      "##_rt_sig": 6442,
      "##_negotiate": 6443,
      "iomemtype": 6444,
      "##16_to_cpu": 6445,
      "vp56_rac_get_prob": 6446,
      "1ll": 6447,
      "during": 6448,
      "horizontal": 6449,
      "icp": 6450,
      "mach": 6451,
      "xpos": 6452,
      "##ategy": 6453,
      "##_null": 6454,
      "##_st0": 6455,
      "adv": 6456,
      "screen": 6457,
      "##_qh": 6458,
      "ac_val": 6459,
      "clusters": 6460,
      "put_pixels_tab": 6461,
      "pls": 6462,
      "atoi": 6463,
      "device_class": 6464,
      "cluster_sectors": 6465,
      "index_op_ext": 6466,
      "##net_hdr": 6467,
      "av_picture_type_p": 6468,
      "segments": 6469,
      "~((": 6470,
      "##options": 6471,
      "roun": 6472,
      "processing": 6473,
      "filter_mb_edgeh": 6474,
      "tap_count": 6475,
      "##_ssse3": 6476,
      "##_bilinear_pixels_tab": 6477,
      "nb_output_files": 6478,
      "put_vp8_bilinear_pixels_tab": 6479,
      "dead_tmp": 6480,
      "-(": 6481,
      "cells": 6482,
      "front": 6483,
      "hl": 6484,
      "message": 6485,
      "rps": 6486,
      "sens": 6487,
      "sqrt": 6488,
      "tis": 6489,
      "vbe": 6490,
      "##hz": 6491,
      "##mediate": 6492,
      "##rm": 6493,
      "av_b": 6494,
      "in_buffer": 6495,
      "cost": 6496,
      "##round": 6497,
      "tcg_op": 6498,
      "##_get_arg": 6499,
      "##_hid": 6500,
      "##ssion": 6501,
      "offsets": 6502,
      "cur_frame": 6503,
      "separ": 6504,
      "##_readb": 6505,
      "0x1b": 6506,
      "ready": 6507,
      "##_headers": 6508,
      "##_extend": 6509,
      "pred8x8": 6510,
      "xmm7": 6511,
      "ffmpeg": 6512,
      "l2_index": 6513,
      "irqs": 6514,
      "##ether": 6515,
      "ppc_hash": 6516,
      "xen_pt": 6517,
      "cpu_to_le16": 6518,
      "phdr": 6519,
      "linker": 6520,
      "yuvtab": 6521,
      "tswapl": 6522,
      "tswap16": 6523,
      "bits_per_raw_sample": 6524,
      "rtas_st": 6525,
      "##dsp_init": 6526,
      "rock": 6527,
      "abi_long": 6528,
      "##display": 6529,
      "tcg_type_i32": 6530,
      "ff_jpeg": 6531,
      "##_dimensions": 6532,
      "##pixels": 6533,
      "av_clip_uint8": 6534,
      "fsize": 6535,
      "icc": 6536,
      "x9": 6537,
      "##ire": 6538,
      "##ges": 6539,
      "##jmp": 6540,
      "ifa": 6541,
      "##_pin": 6542,
      "##_fs": 6543,
      "##idir": 6544,
      "reco": 6545,
      "##_den": 6546,
      "##_dequant": 6547,
      "##_ov": 6548,
      "##image": 6549,
      "get_chroma_qp": 6550,
      "out_fmt": 6551,
      "thumb": 6552,
      "nb_components": 6553,
      "slavio": 6554,
      "flac": 6555,
      "usbdevice": 6556,
      "##duce": 6557,
      "##_ram_size": 6558,
      "##_plug": 6559,
      "log2_cb": 6560,
      "pte0": 6561,
      "hton": 6562,
      "save_state": 6563,
      "##_mb_type_info": 6564,
      "##_overflow": 6565,
      "##_double": 6566,
      "tcg_gen_andi_i32": 6567,
      "##weight": 6568,
      "##_esp": 6569,
      "##1394": 6570,
      "partition_count": 6571,
      "cpu_cc_src": 6572,
      "nb_ostreams": 6573,
      "psllq": 6574,
      "ff_asf": 6575,
      "'/": 6576,
      "bn": 6577,
      "dl": 6578,
      "f_code": 6579,
      "prc": 6580,
      "##afe": 6581,
      "##36": 6582,
      "##+;": 6583,
      "##section": 6584,
      "##_bin": 6585,
      "retry": 6586,
      "##_nos": 6587,
      "cpu_single": 6588,
      "##setsize": 6589,
      "##_ident": 6590,
      "##_vdpau": 6591,
      "target_mips": 6592,
      "qemu_new": 6593,
      "num_precincts": 6594,
      "##_counts": 6595,
      "max_order": 6596,
      "##uda": 6597,
      "mv_f": 6598,
      "posix": 6599,
      "arm_vfp": 6600,
      "l1mv": 6601,
      "##_field_first": 6602,
      "##ifiers": 6603,
      "##_dc_add": 6604,
      "avformat_new_stream": 6605,
      "top_field_first": 6606,
      "avfilterbufferref": 6607,
      "vbv": 6608,
      "safe": 6609,
      "##option": 6610,
      "##_packed": 6611,
      "attach": 6612,
      "##_common_init": 6613,
      "escape": 6614,
      "bmdma": 6615,
      "gidsetsize": 6616,
      "qemu_set_fd_handler": 6617,
      "rgb2yuv_shift": 6618,
      "vmstate_register_ram": 6619,
      "poutbuf": 6620,
      "10000": 6621,
      "bw": 6622,
      "gpt": 6623,
      "nto": 6624,
      "##_drv": 6625,
      "##voice": 6626,
      "##ordered": 6627,
      "##seq": 6628,
      "##_cre": 6629,
      "##_cand": 6630,
      "##_pend": 6631,
      "##_fac": 6632,
      "revision": 6633,
      "##otlb": 6634,
      "##_wmv": 6635,
      "gen_mfc0": 6636,
      "sched": 6637,
      "pci_get": 6638,
      "##sparc": 6639,
      "accept": 6640,
      "additional": 6641,
      "load_gpr": 6642,
      "##_asi": 6643,
      "ist_index": 6644,
      "##_props": 6645,
      "kvm_msr": 6646,
      "usb_packet": 6647,
      "##_json": 6648,
      "total_len": 6649,
      "linear": 6650,
      "##_update_irq": 6651,
      "pair": 6652,
      "isa_in": 6653,
      "avmedia_type_subtitle": 6654,
      "backing_filename": 6655,
      "modified": 6656,
      "optional": 6657,
      "bridge": 6658,
      "sf_idx": 6659,
      "__msa_il": 6660,
      "esp_offset": 6661,
      "gen_load_fpr64": 6662,
      "piix4": 6663,
      "##_self": 6664,
      "rri8": 6665,
      "dvbsub": 6666,
      "ntoh": 6667,
      "+\"": 6668,
      "oact": 6669,
      "##group": 6670,
      "##500": 6671,
      "##arse": 6672,
      "dependent": 6673,
      "##elist": 6674,
      "##drom": 6675,
      "##_gic": 6676,
      "##_l4": 6677,
      "strto": 6678,
      "##_int32": 6679,
      "##_conv": 6680,
      "bdrv_set": 6681,
      "bdrv_open": 6682,
      "compile": 6683,
      "##_picture_header": 6684,
      "cbpc": 6685,
      "destination": 6686,
      "cancel": 6687,
      "##_timeout": 6688,
      "aiocontext": 6689,
      "field_poc": 6690,
      "intra4x4_pred_mode": 6691,
      "##_0_0": 6692,
      "##_return": 6693,
      "clean": 6694,
      "qlist_foreach": 6695,
      "av_sample_fmt_s32": 6696,
      "workaround": 6697,
      "0xe0": 6698,
      "address_space_mem": 6699,
      "##_insert_head": 6700,
      "cyls": 6701,
      "probably": 6702,
      "url_ftell": 6703,
      "eof_reached": 6704,
      "##_reserved": 6705,
      "\"'": 6706,
      "=\\\"": 6707,
      "kind": 6708,
      "wrd": 6709,
      "##_9": 6710,
      "##_ata": 6711,
      "##p2": 6712,
      "##r3": 6713,
      "##_creds": 6714,
      "##_spr": 6715,
      "##_mid": 6716,
      "comb": 6717,
      "opd": 6718,
      "##_types": 6719,
      "##chg": 6720,
      "gen_neon": 6721,
      "ff_debug": 6722,
      "##_get_cpu": 6723,
      "##16to": 6724,
      "src_stride": 6725,
      "block_opt": 6726,
      "unesc": 6727,
      "resid": 6728,
      "substream": 6729,
      "subframe": 6730,
      "insn_flags": 6731,
      "##_tl_i32": 6732,
      "no_packet": 6733,
      "psw": 6734,
      "slice_count": 6735,
      "##_ref_list": 6736,
      "##_reference": 6737,
      "commit": 6738,
      "mpv": 6739,
      "store_next": 6740,
      "event_notifier": 6741,
      "##_result": 6742,
      "bootsector": 6743,
      "skip_bits1": 6744,
      "##_atom": 6745,
      "frac": 6746,
      "##_pal8": 6747,
      "av_frame_free": 6748,
      "avpriv_set_pts_info": 6749,
      "tci_write_reg64": 6750,
      "cur_pic_ptr": 6751,
      "object_property_set_bool": 6752,
      "iteration": 6753,
      "tcg_gen_trunc_tl_i32": 6754,
      "pci_config_set": 6755,
      "isa_mips32r2": 6756,
      "rocker": 6757,
      "52": 6758,
      "bind": 6759,
      "eob": 6760,
      "gs": 6761,
      "nec": 6762,
      "oe": 6763,
      "take": 6764,
      "zigzag": 6765,
      "##gas": 6766,
      "##t5": 6767,
      "##13": 6768,
      "##ze": 6769,
      "##\";": 6770,
      "##ctions": 6771,
      "##_fpe": 6772,
      "##array": 6773,
      "##_message": 6774,
      "##utes": 6775,
      "##_golden": 6776,
      "##_dither": 6777,
      "((*": 6778,
      "bsi": 6779,
      "curl": 6780,
      "##32_tl": 6781,
      "##mdct": 6782,
      "##_export": 6783,
      "0x0b": 6784,
      "0x12": 6785,
      "0x1c": 6786,
      "##register": 6787,
      "opc_d": 6788,
      "##_trace": 6789,
      "kvm_cap": 6790,
      "query": 6791,
      "##ivity": 6792,
      "app": 6793,
      "corrupt": 6794,
      "rbd": 6795,
      "##_drive": 6796,
      "tcg_gen_movi_i64": 6797,
      "multicast": 6798,
      "writes": 6799,
      "writing": 6800,
      "receive": 6801,
      "##_listener": 6802,
      "##plicit": 6803,
      "new_l1_size": 6804,
      "general": 6805,
      "svq3_get": 6806,
      "##440fx": 6807,
      "##_marker": 6808,
      "##_super": 6809,
      "qntsty": 6810,
      "hi": 6811,
      "paddr": 6812,
      "side_data": 6813,
      "such": 6814,
      "##8750": 6815,
      "##vector": 6816,
      "##day": 6817,
      "##zw": 6818,
      "##decoder": 6819,
      "##_cause": 6820,
      "reordered": 6821,
      "##usage": 6822,
      "##_ls": 6823,
      "##_work": 6824,
      "ff_guid": 6825,
      "loaded": 6826,
      "##_q0": 6827,
      "##_read_header": 6828,
      "code64": 6829,
      "check_cp1": 6830,
      "register_encoder": 6831,
      "##_period": 6832,
      "pts_wrap": 6833,
      "##_ldst": 6834,
      "))));": 6835,
      "av_malloc_array": 6836,
      "##brid": 6837,
      "##_acct": 6838,
      "rxdw": 6839,
      "backing_hd": 6840,
      "anything": 6841,
      "av_pix_fmt_yuva": 6842,
      "bytestream_get_byte": 6843,
      "##frm": 6844,
      "##_migration": 6845,
      "finish": 6846,
      "new_l1_table": 6847,
      "portsc": 6848,
      "int64_max": 6849,
      "##_40x": 6850,
      "gdk": 6851,
      "filtered_frame": 6852,
      "wm8750": 6853,
      "enosys": 6854,
      "svq3_get_ue_golomb": 6855,
      "50": 6856,
      "bpr": 6857,
      "ca": 6858,
      "golden": 6859,
      "h0": 6860,
      "ssi": 6861,
      "simm": 6862,
      "tree": 6863,
      "v_edge_pos": 6864,
      "##_url": 6865,
      "##xva2": 6866,
      "##a1": 6867,
      "##cat": 6868,
      "##zero": 6869,
      "##':": 6870,
      "##_task": 6871,
      "##_split": 6872,
      "##_pw": 6873,
      "##_ports": 6874,
      "##_final": 6875,
      "##_bidir": 6876,
      "##_meta": 6877,
      "decl": 6878,
      "##_reader": 6879,
      "cpu_interrupt": 6880,
      "cpu_sr": 6881,
      "cpu_a0": 6882,
      "chain": 6883,
      "gen_add": 6884,
      "##_bits_per": 6885,
      "err_recognition": 6886,
      "##_framesize": 6887,
      "trail": 6888,
      "##_xfer": 6889,
      "maxval": 6890,
      "max_ide": 6891,
      "##allocated": 6892,
      "bdrv_aio": 6893,
      "##_eob": 6894,
      "clone": 6895,
      "##_numa": 6896,
      "##_exclusive": 6897,
      "##_iommu": 6898,
      "list_count": 6899,
      "0x2a": 6900,
      "av_free_packet": 6901,
      "memory_region_get": 6902,
      "strcpy": 6903,
      "mouse": 6904,
      "##_on_error": 6905,
      "av_dict_get": 6906,
      "bytestream2_get_byteu": 6907,
      "visitor_input": 6908,
      "instructions": 6909,
      "##_initialized": 6910,
      "temporary": 6911,
      "##_limits": 6912,
      "log2_prec_width": 6913,
      "given": 6914,
      "##3d11va": 6915,
      "geotags": 6916,
      "websocket": 6917,
      "family": 6918,
      "fadt": 6919,
      "g_string": 6920,
      "malloc": 6921,
      "rlevel": 6922,
      "san": 6923,
      "##_intf": 6924,
      "##pert": 6925,
      "##sign": 6926,
      "##clk": 6927,
      "##nk": 6928,
      "##node": 6929,
      "##r7": 6930,
      "##f8": 6931,
      "##atform": 6932,
      "##_sps": 6933,
      "##alled": 6934,
      "interrupts": 6935,
      "##_gb": 6936,
      "##_log2": 6937,
      "addend": 6938,
      "mb_num": 6939,
      "qemu_ram": 6940,
      "reg_c": 6941,
      "scantable": 6942,
      "##sptr": 6943,
      "##_blocker": 6944,
      "avio_rl16": 6945,
      "##_usage": 6946,
      "##_uuid": 6947,
      "rc_max": 6948,
      "##vents": 6949,
      "##_subs": 6950,
      "##eprom": 6951,
      "sps_id": 6952,
      "av_pix_fmt_bgr": 6953,
      "excp_ri": 6954,
      "\\\"%": 6955,
      "phys_ram": 6956,
      "very": 6957,
      "##mmxfilter": 6958,
      "##_crop": 6959,
      "##_dirent": 6960,
      "bitstream_size": 6961,
      "##_timers": 6962,
      "pipe": 6963,
      "##_test_init": 6964,
      "increment": 6965,
      "bdrv_getlength": 6966,
      "system_memory": 6967,
      "##atalog": 6968,
      "translationblock": 6969,
      "attached": 6970,
      "##_grab": 6971,
      "apic_id": 6972,
      "psrlw": 6973,
      "##clientstate": 6974,
      "ffserver_get_arg": 6975,
      "skipped_bytes": 6976,
      "##_handlers": 6977,
      "delayed_pic": 6978,
      "chroma_format_idc": 6979,
      "include": 6980,
      "xlnx": 6981,
      "ff_guidcmp": 6982,
      "##pertas": 6983,
      "(++": 6984,
      "b_type": 6985,
      "gv": 6986,
      "gu": 6987,
      "kbd": 6988,
      "pmv": 6989,
      "tailq": 6990,
      "wmv": 6991,
      "##4ac": 6992,
      "##vl": 6993,
      "##bet": 6994,
      "##ntl": 6995,
      "##depth": 6996,
      "##_te": 6997,
      "##_px": 6998,
      "##_flo": 6999,
      "##_f32": 7000,
      "##_bl": 7001,
      "##height": 7002,
      "inode": 7003,
      "##_inner": 7004,
      "##_gbr": 7005,
      "gen_b": 7006,
      "adap": 7007,
      "block_wrap": 7008,
      "const_args": 7009,
      "frame_type": 7010,
      "alternate": 7011,
      "bdrv_find": 7012,
      "##_eip": 7013,
      "types": 7014,
      "])->": 7015,
      "mv_predictor": 7016,
      "put_packet": 7017,
      "##lcat": 7018,
      "logic": 7019,
      "blk_perm": 7020,
      "imx": 7021,
      "first_cpu": 7022,
      "vp3": 7023,
      "chroma_idx": 7024,
      "area": 7025,
      "##encrypt": 7026,
      "l2_size": 7027,
      "uvbuf0": 7028,
      "uvbuf1": 7029,
      "comment": 7030,
      "##_accept": 7031,
      "nal_unit": 7032,
      "xbzrle": 7033,
      "mcf": 7034,
      "av_pix_fmt_yuv422p": 7035,
      "sin_addr": 7036,
      "dimensions": 7037,
      "get_ue_golomb_long": 7038,
      "##_virtual": 7039,
      "arm_cp_state": 7040,
      "pix_fmt_yuv420p": 7041,
      "handling": 7042,
      "##cessed": 7043,
      "bdrvqcowstate": 7044,
      "##_finish": 7045,
      "cpu_single_env": 7046,
      "gen_mfc0_load": 7047,
      "necess": 7048,
      "56": 7049,
      "_pixels": 7050,
      "au": 7051,
      "glob": 7052,
      "ie": 7053,
      "most": 7054,
      "occ": 7055,
      "qdm": 7056,
      "r_tick": 7057,
      "snd": 7058,
      "ul": 7059,
      "##2high": 7060,
      "##slot": 7061,
      "##v3": 7062,
      "##uous": 7063,
      "##_tree": 7064,
      "##_ca": 7065,
      "##_pat": 7066,
      "delt": 7067,
      "##_rem": 7068,
      "##assthrough": 7069,
      "##_lines": 7070,
      "##_lib": 7071,
      "added": 7072,
      "mm_flags": 7073,
      "locty": 7074,
      "),\"": 7075,
      "constant": 7076,
      "out_buf": 7077,
      "##scr": 7078,
      "##olute": 7079,
      "bdrv_pwrite": 7080,
      "##_elem": 7081,
      "being": 7082,
      "##_writev": 7083,
      "bochs": 7084,
      "##_sample_rate": 7085,
      "##_before": 7086,
      "interpol": 7087,
      "0x21": 7088,
      "##_filters": 7089,
      "low2high": 7090,
      "sign_extend": 7091,
      "realize": 7092,
      "##_running": 7093,
      "initialized": 7094,
      "illegal_request": 7095,
      "##llis": 7096,
      "##_rdma": 7097,
      "gen_helper_float": 7098,
      "requires": 7099,
      "##_times": 7100,
      "##olean": 7101,
      "##descriptor": 7102,
      "planar": 7103,
      "qemu_chr_open": 7104,
      "huffman": 7105,
      "yscaleyuv": 7106,
      "ff_jpeg2000": 7107,
      "nal_unit_type": 7108,
      "r_tickptr": 7109,
      "&(": 7110,
      "hint": 7111,
      "kqemu": 7112,
      "lav": 7113,
      "qed": 7114,
      "##22": 7115,
      "##kb": 7116,
      "##3000": 7117,
      "##resp": 7118,
      "##_cuvid": 7119,
      "##_sbits": 7120,
      "##aly": 7121,
      "##exact": 7122,
      "cpuarch": 7123,
      "cho": 7124,
      "opreg": 7125,
      "tcgcontext": 7126,
      "unre": 7127,
      "##_action": 7128,
      "##scal": 7129,
      "##_qual": 7130,
      "##_read_packet": 7131,
      "tcg_gen_sar": 7132,
      "tcg_gen_qemu_st": 7133,
      "slave": 7134,
      "components": 7135,
      "sphb": 7136,
      "##_ke": 7137,
      "about": 7138,
      "formats": 7139,
      "##_decode_mb": 7140,
      "##_pic_num": 7141,
      "##_acpi": 7142,
      "av_codec_id_none": 7143,
      "sysbusdevice": 7144,
      "log2_max": 7145,
      "msr_hv": 7146,
      "qemu_opt_set": 7147,
      "##_backend": 7148,
      "##_cp_reg": 7149,
      "primary": 7150,
      "extractfloat": 7151,
      "tcg_target_ulong": 7152,
      "##property": 7153,
      "##_pair": 7154,
      ":::\"": 7155,
      "gen_mov_f0": 7156,
      "##_goto_tb": 7157,
      "put_vp8_e": 7158,
      "tcg_gen_brcondi_tl": 7159,
      "mbn_xy": 7160,
      "av_pkt_flag_key": 7161,
      "ff_ivi": 7162,
      "orient": 7163,
      "raise_exception_err": 7164,
      "r_tsptr": 7165,
      "gen_mov_f0_vreg": 7166,
      "ax": 7167,
      "eip": 7168,
      "nfds": 7169,
      "qiv": 7170,
      "qtype": 7171,
      "qsv": 7172,
      "r4": 7173,
      "rma": 7174,
      "rpath": 7175,
      "sun": 7176,
      "vde": 7177,
      "xalpha": 7178,
      "##top": 7179,
      "##rgb": 7180,
      "##fp": 7181,
      "##_scal": 7182,
      "##alk": 7183,
      "##aris": 7184,
      "reorder": 7185,
      "##_dat": 7186,
      "##_rtp": 7187,
      "cpusparc": 7188,
      "forced": 7189,
      "is_interlaced": 7190,
      "mb_skip": 7191,
      "qemu_bh": 7192,
      "##ustom": 7193,
      "asig": 7194,
      "insns": 7195,
      "register_parser": 7196,
      "item": 7197,
      "##_mbs": 7198,
      "blk_size": 7199,
      "gen_op_ld": 7200,
      "filtersize": 7201,
      "flip": 7202,
      "floating": 7203,
      "##_orig": 7204,
      "##angu": 7205,
      "guest_info": 7206,
      "bytestream2_get_be32": 7207,
      "left_type": 7208,
      "edi": 7209,
      "userdef": 7210,
      "packed": 7211,
      "##_dirty_bitmap": 7212,
      "##_rtc": 7213,
      "gen_opc_ptr": 7214,
      "fdt_property_string": 7215,
      "scsw_stctl": 7216,
      "slice_type_nos": 7217,
      "##_bilin": 7218,
      "sse2": 7219,
      "cpu_register_io_memory": 7220,
      "##plication": 7221,
      "##_planar": 7222,
      "ase_mt": 7223,
      "pl1_r": 7224,
      "##_rv40": 7225,
      "##_demuxer": 7226,
      "qemu_register_reset": 7227,
      "vmstate_register_ram_global": 7228,
      "##gasas": 7229,
      "bprm": 7230,
      "gen_mfc0_load32": 7231,
      "put_vp8_epel_pixels_tab": 7232,
      "cpusparcstate": 7233,
      "'-": 7234,
      "guess": 7235,
      "h261": 7236,
      "i0": 7237,
      "icount": 7238,
      "m4ac": 7239,
      "sort": 7240,
      "tco": 7241,
      "v0": 7242,
      "##handle": 7243,
      "##_ack": 7244,
      "##page": 7245,
      "##xinc": 7246,
      "##cw": 7247,
      "##cf": 7248,
      "##dnow": 7249,
      "##b0": 7250,
      "ifr": 7251,
      "ifname": 7252,
      "##_center": 7253,
      "##_bf": 7254,
      "##ross": 7255,
      "##_vencrypt": 7256,
      "##_coefs": 7257,
      "ff_mpeg4": 7258,
      "target_set": 7259,
      "##ights": 7260,
      "memmove": 7261,
      "nb_args": 7262,
      "##_chan": 7263,
      "pci_status": 7264,
      "pci_vendor_id": 7265,
      "##_epel": 7266,
      "pkt_dts": 7267,
      "movl": 7268,
      "mv_x": 7269,
      "mv_y": 7270,
      "spatial": 7271,
      "headers": 7272,
      "##_always": 7273,
      "##shmem": 7274,
      "fli": 7275,
      "vc9": 7276,
      "sector_size": 7277,
      "xmm5": 7278,
      "0x34": 7279,
      "##_note": 7280,
      "guest_primary": 7281,
      "##serve": 7282,
      "nbd_opt": 7283,
      "fscontext": 7284,
      "log2_chroma": 7285,
      "##_residual": 7286,
      "initializing": 7287,
      "gen_op_movl": 7288,
      "av_pix_fmt_yuv444p": 7289,
      "original": 7290,
      "prix32": 7291,
      "show_bits": 7292,
      "pool32": 7293,
      "bdrv_o_rdwr": 7294,
      "fourxm": 7295,
      "better": 7296,
      "gen_ldst": 7297,
      "##_algo": 7298,
      "pci_set_word": 7299,
      "load_image_targphys": 7300,
      "candidate_mb_type": 7301,
      "choose": 7302,
      "08": 7303,
      "44": 7304,
      "c0": 7305,
      "catalog": 7306,
      "dmin": 7307,
      "fabs": 7308,
      "n_slices": 7309,
      "wor": 7310,
      "wc3": 7311,
      "xmv": 7312,
      "##8000": 7313,
      "##m1": 7314,
      "##mix": 7315,
      "##ouv": 7316,
      "ifile": 7317,
      "av_new": 7318,
      "##_fis": 7319,
      "stbuf": 7320,
      "stored": 7321,
      "##urpose": 7322,
      "##_resize": 7323,
      "##_nop": 7324,
      "##_dup": 7325,
      "the_end": 7326,
      "explicit": 7327,
      "target_group": 7328,
      "qemu_fdt": 7329,
      "pci_register": 7330,
      "##plet": 7331,
      "do_sig": 7332,
      "##_yield": 7333,
      "outputstream": 7334,
      "audio_buf": 7335,
      "skip_frame": 7336,
      "##_timeval": 7337,
      "page_read": 7338,
      "##_interle": 7339,
      "##_20": 7340,
      "##_syn": 7341,
      "##touv": 7342,
      "##_requested": 7343,
      "realized": 7344,
      "put_bits_count": 7345,
      "xenfb": 7346,
      "##_commit": 7347,
      "0x7ff": 7348,
      "modify": 7349,
      "interrupt_request": 7350,
      "qemu_get_clock": 7351,
      "av_dict_free": 7352,
      "codec_flag_pass": 7353,
      "##_wrid": 7354,
      "v4i32": 7355,
      "v4l2": 7356,
      "interleaved": 7357,
      "bmvtype": 7358,
      "##win32": 7359,
      "deblocking_filter": 7360,
      "srcsliceh": 7361,
      "##_splat": 7362,
      "##_words_bigendian": 7363,
      "log2_cblk": 7364,
      "compile_template": 7365,
      "##anguage": 7366,
      "target_grouplist": 7367,
      ";\"": 7368,
      "ma": 7369,
      "srr": 7370,
      "zlib": 7371,
      "##rary": 7372,
      "##freq": 7373,
      "##_fmul": 7374,
      "##arn": 7375,
      "##_bm": 7376,
      "##_bps": 7377,
      "replace": 7378,
      "in_fmt": 7379,
      "depend": 7380,
      "##_nsec": 7381,
      "##edata": 7382,
      "cpu_m0": 7383,
      "erase": 7384,
      "##isor": 7385,
      "ff_api": 7386,
      "src5": 7387,
      "qemu_find": 7388,
      "unaligned": 7389,
      "nb_code": 7390,
      "definition": 7391,
      "##_initfn": 7392,
      "##_chapter": 7393,
      "max_len": 7394,
      "ref0": 7395,
      "ref_frame": 7396,
      "##_blockalign": 7397,
      "##raction": 7398,
      "0x1e": 7399,
      "buffer_ptr": 7400,
      "box": 7401,
      "blk_bs": 7402,
      "0xff00": 7403,
      "0x200": 7404,
      "##_refresh": 7405,
      "##_2rm": 7406,
      "0xffffff": 7407,
      "0x40000000": 7408,
      "cp0st": 7409,
      "machinestate": 7410,
      "capture": 7411,
      "arm_feature_v": 7412,
      "avg_frame_rate": 7413,
      "yuv2": 7414,
      "[])": 7415,
      "rounding": 7416,
      "neon_2rm": 7417,
      "##_parent": 7418,
      "compatible": 7419,
      "av_strlcat": 7420,
      "cpu_physical_memory_write": 7421,
      "qerr_invalid": 7422,
      "piix3": 7423,
      "resync_mb_y": 7424,
      "funn": 7425,
      "rejected": 7426,
      "cpu_f0s": 7427,
      "##scaler": 7428,
      "'.": 7429,
      "__nr": 7430,
      "bfi": 7431,
      "ih": 7432,
      "i4x4": 7433,
      "ka": 7434,
      "samplerate": 7435,
      "ups": 7436,
      "##ior": 7437,
      "##pred": 7438,
      "##y2": 7439,
      "##95": 7440,
      "##ateg": 7441,
      "0x24": 7442,
      "oper": 7443,
      "iss": 7444,
      "##_htab": 7445,
      "##_adv": 7446,
      "target_ab": 7447,
      "target_rl": 7448,
      "##ceed": 7449,
      "memtx": 7450,
      "thp": 7451,
      "##_table_index": 7452,
      "dolog": 7453,
      "##_ea": 7454,
      "stream_id": 7455,
      "tcg_gen_mul": 7456,
      "##_writeb": 7457,
      "next_dts": 7458,
      "0x0a": 7459,
      "0x05": 7460,
      "subauth": 7461,
      "##_trail": 7462,
      "avcodec_get": 7463,
      "parsing": 7464,
      "local_qiov": 7465,
      "0x22": 7466,
      "usb_ms": 7467,
      "##_thrott": 7468,
      "=%\"": 7469,
      "##ething": 7470,
      "##_vfree": 7471,
      "avio_w8": 7472,
      "movdqa": 7473,
      "##_iter": 7474,
      "##_el1": 7475,
      "##_websock": 7476,
      "cmos": 7477,
      "##_rows": 7478,
      "qio_channel_websock": 7479,
      "##view": 7480,
      "psubd": 7481,
      "be32_to_cpus": 7482,
      "next_picture_ptr": 7483,
      "##procmask": 7484,
      "##16to32": 7485,
      "##_quality": 7486,
      "av_new_packet": 7487,
      "38": 7488,
      "=>": 7489,
      "cas": 7490,
      "called": 7491,
      "rad": 7492,
      "yo": 7493,
      "##2l": 7494,
      "##cy": 7495,
      "##ource": 7496,
      "##qt": 7497,
      "##stri": 7498,
      "##_tfs": 7499,
      "##_p0": 7500,
      "##_bat": 7501,
      "##_remain": 7502,
      "##32_max": 7503,
      "gen_update": 7504,
      "srcfilter": 7505,
      "qemu_vfree": 7506,
      "pb2": 7507,
      "sclp": 7508,
      "dcl": 7509,
      "max_cpus": 7510,
      "max_b_frames": 7511,
      "##omet": 7512,
      "were": 7513,
      "index_entries": 7514,
      "0x0d": 7515,
      "##_uid": 7516,
      "##_performance": 7517,
      "assign": 7518,
      "hw_frames": 7519,
      "float32": 7520,
      "sector_count": 7521,
      "xmm_l": 7522,
      "##_compressed": 7523,
      "##_thresh": 7524,
      "pictq": 7525,
      "##result": 7526,
      "##arest": 7527,
      "##_checksum": 7528,
      "lumtoyv12": 7529,
      "av_codec_id_adpcm": 7530,
      "cp0_status": 7531,
      "really": 7532,
      "##attrs": 7533,
      "socket_address": 7534,
      "##ervisor": 7535,
      "something": 7536,
      "acpi_build": 7537,
      "lpc_order": 7538,
      "##sockopt": 7539,
      "supervisor": 7540,
      "dirty_bitmap": 7541,
      "postcopy": 7542,
      "determ": 7543,
      "rle_v": 7544,
      "search_pc": 7545,
      "##issa": 7546,
      "##nxhd": 7547,
      "##_descriptors": 7548,
      "uvmy": 7549,
      "tokstart": 7550,
      "ff_vp9": 7551,
      "msmpeg4_version": 7552,
      "##_response": 7553,
      "rc_max_rate": 7554,
      "you": 7555,
      "96": 7556,
      "bulk": 7557,
      "eq": 7558,
      "hv": 7559,
      "sent": 7560,
      "tget": 7561,
      "wj": 7562,
      "x1": 7563,
      "xface": 7564,
      "##iet": 7565,
      "##hp": 7566,
      "##tle": 7567,
      "##lcpy": 7568,
      "##da": 7569,
      "##90": 7570,
      "##_crc": 7571,
      "##_sqrt": 7572,
      "##amaged": 7573,
      "##_family": 7574,
      "##_front": 7575,
      "##encode": 7576,
      "storage": 7577,
      "##_bpp": 7578,
      "/**": 7579,
      "##pes": 7580,
      "##_nan": 7581,
      "##expected": 7582,
      "cpu_ptr": 7583,
      "cpu_val": 7584,
      "cpu_exec": 7585,
      "##_vt": 7586,
      "console": 7587,
      "##ifields": 7588,
      "tcgreg": 7589,
      "statp": 7590,
      "data_reg": 7591,
      "target_long": 7592,
      "out_num": 7593,
      "sconf": 7594,
      "swcr": 7595,
      "##_connector": 7596,
      "mv_col": 7597,
      "put_no_rnd": 7598,
      "##_shutdown": 7599,
      "configure": 7600,
      "blkdev": 7601,
      "pixelformat": 7602,
      "busy": 7603,
      "##_codecid": 7604,
      "first_slice": 7605,
      "fp2": 7606,
      "fpstatus": 7607,
      "##_bitmask": 7608,
      "##bool": 7609,
      "##flash": 7610,
      "tcgv_ptr": 7611,
      "lowres": 7612,
      "mpa": 7613,
      "##_syntax": 7614,
      "pack16to32": 7615,
      "directly": 7616,
      "##visitor": 7617,
      "##pename": 7618,
      "op2_offset": 7619,
      "filter_mb_edgev": 7620,
      "##_esc": 7621,
      "##_vc1_ms": 7622,
      "##_rounding": 7623,
      "location": 7624,
      "gen_load_fpr32": 7625,
      "##****************": 7626,
      "##pair": 7627,
      "object_property_set_int": 7628,
      "psubw": 7629,
      "##_fragments": 7630,
      "av_wn": 7631,
      "uvalpha1": 7632,
      "qemu_mutex_unlock": 7633,
      "ff_put_vp8_bilin": 7634,
      "##_planes": 7635,
      "nb_input_files": 7636,
      "_sifields": 7637,
      "id3v2": 7638,
      "coefficients": 7639,
      "necessary": 7640,
      "_pixels_tab": 7641,
      "##alyse": 7642,
      "##ometry": 7643,
      ".\");": 7644,
      "dpl": 7645,
      "l0": 7646,
      "qobj": 7647,
      "rout": 7648,
      "sonic": 7649,
      "tuc": 7650,
      "vide": 7651,
      "ydst": 7652,
      "##picture": 7653,
      "##sync": 7654,
      "##for": 7655,
      "##386": 7656,
      "##sence": 7657,
      "##_tex": 7658,
      "##_pow": 7659,
      "##icro": 7660,
      "infl": 7661,
      "##_rename": 7662,
      "tcx": 7663,
      "##_oper": 7664,
      "ffurl": 7665,
      "adjust": 7666,
      "ctxt": 7667,
      "qemu_allocate": 7668,
      "##_set_irq": 7669,
      "dstfilter": 7670,
      "nb_i": 7671,
      "seem": 7672,
      "swit": 7673,
      "prdt": 7674,
      "pkt_pts": 7675,
      "starting": 7676,
      "get_bits_long": 7677,
      "readline": 7678,
      "tcg_temp_local": 7679,
      "##ibility": 7680,
      "invalidate": 7681,
      "dirp": 7682,
      "av_pix_fmt_gray": 7683,
      "##_mv_type": 7684,
      "colors": 7685,
      "mp4": 7686,
      "intra_matrix": 7687,
      "properties": 7688,
      "##_retry": 7689,
      "##lier": 7690,
      "##quire": 7691,
      "##_tmp0": 7692,
      "vp8_rac_get": 7693,
      "##parameters": 7694,
      "##_insert_tail": 7695,
      "reclen": 7696,
      "emulation": 7697,
      "relative": 7698,
      "encrypted": 7699,
      "avprobe": 7700,
      "own": 7701,
      "lm32": 7702,
      "##factor": 7703,
      "##_intfr": 7704,
      "tcg_temp_local_new": 7705,
      ",&": 7706,
      "_win32": 7707,
      "bink": 7708,
      "clo": 7709,
      "crypt": 7710,
      "fsr": 7711,
      "gem": 7712,
      "hbitmap": 7713,
      "pag": 7714,
      "qerror": 7715,
      "rr": 7716,
      "suffix": 7717,
      "tss": 7718,
      "z2": 7719,
      "##tim": 7720,
      "##_12": 7721,
      "##surf": 7722,
      "##a0": 7723,
      "##clock": 7724,
      "##bgr": 7725,
      "##oci": 7726,
      "##77": 7727,
      "##y_c": 7728,
      "##_pitch": 7729,
      "##asic": 7730,
      "##_glyph": 7731,
      "##iler": 7732,
      "##_idle": 7733,
      "ff_codec": 7734,
      "blockbackend": 7735,
      "gbp": 7736,
      "##_readv": 7737,
      "##_unless": 7738,
      "avio_flag": 7739,
      "checked": 7740,
      "##ffffffff": 7741,
      "config_softmmu": 7742,
      "##ftp": 7743,
      "ne2000": 7744,
      "associ": 7745,
      "skipping": 7746,
      "armcpu": 7747,
      "##_decode_block": 7748,
      "xmm_q": 7749,
      "##_prepend": 7750,
      "##_isa": 7751,
      "##_proc": 7752,
      "ot_quad": 7753,
      "##reslevel": 7754,
      "##resses": 7755,
      ")((": 7756,
      "tcg_temp_free_ptr": 7757,
      "##pecified": 7758,
      "dspfunc": 7759,
      "perform": 7760,
      "##_256": 7761,
      "smc": 7762,
      "sm_state": 7763,
      "vdp": 7764,
      "codec_type_audio": 7765,
      "##_request_sample": 7766,
      "couldn": 7767,
      "##_backup": 7768,
      "arm_feature_vfp": 7769,
      "vhost_dev": 7770,
      "sce0": 7771,
      "tcg_cond_ge": 7772,
      "##_priority": 7773,
      "##packed": 7774,
      "decoded_frame": 7775,
      "tci_read_ri64": 7776,
      "avpriv_request_sample": 7777,
      "according": 7778,
      "filter_mb_edgech": 7779,
      "wanted": 7780,
      "##_defaults": 7781,
      "##_multi": 7782,
      "av_strlcpy": 7783,
      "qstring_from": 7784,
      "##_refcounts": 7785,
      "rpkt": 7786,
      "cssid": 7787,
      "av_ch_layout": 7788,
      "scsidiskstate": 7789,
      "##demuxcontext": 7790,
      "##_minus1": 7791,
      "decode_cabac_mb": 7792,
      "##iopcidevice": 7793,
      "oe_rr": 7794,
      "sanity": 7795,
      "orientation": 7796,
      "qtype_q": 7797,
      "qerr_invalid_parameter": 7798,
      "##_throttle": 7799,
      "fctx": 7800,
      "faster": 7801,
      "pav": 7802,
      "rfds": 7803,
      "serrno": 7804,
      "ta": 7805,
      "##xp": 7806,
      "##lx": 7807,
      "##aped": 7808,
      "##dirty": 7809,
      "##new": 7810,
      "##r0": 7811,
      "##ws": 7812,
      "##=&": 7813,
      "##erms": 7814,
      "##_swap": 7815,
      "##itation": 7816,
      "steps": 7817,
      "##_bank": 7818,
      "##_madd": 7819,
      "##_dt": 7820,
      "cpu_index": 7821,
      "##_iothread": 7822,
      "##_v4": 7823,
      "uint8": 7824,
      "##_regions": 7825,
      "##putil": 7826,
      "##ation_state": 7827,
      "pci_bridge": 7828,
      "##plus": 7829,
      "##_element": 7830,
      "set_epc": 7831,
      "##_picture_number": 7832,
      "register_savevm": 7833,
      "##_irqchip": 7834,
      "blk_mv_type": 7835,
      "or_tmp0": 7836,
      "##telem": 7837,
      "mb_type_col": 7838,
      "ist_table": 7839,
      "float_flag": 7840,
      "##msav": 7841,
      "##_compli": 7842,
      "##_bitrate": 7843,
      "##box": 7844,
      "mxg": 7845,
      "debug_print": 7846,
      "got_picture": 7847,
      "macio": 7848,
      "tcg_gen_mov_i32": 7849,
      "##_3r": 7850,
      "ivshmem": 7851,
      "active_tc": 7852,
      "bits_per_pixel": 7853,
      "sa_mask": 7854,
      "sa_flags": 7855,
      "contains": 7856,
      "sfb": 7857,
      "##parameter": 7858,
      "vram_size": 7859,
      "fpscr": 7860,
      "##_any": 7861,
      "##_bugs": 7862,
      "listener": 7863,
      "spapr_dr_connector": 7864,
      "##_writel": 7865,
      "emu": 7866,
      "prepare": 7867,
      "versatile": 7868,
      "cpuarchstate": 7869,
      "+(": 7870,
      "81": 7871,
      "bg": 7872,
      "cris": 7873,
      "dd": 7874,
      "dxy": 7875,
      "gui": 7876,
      "hchr": 7877,
      "i_type": 7878,
      "yuyv": 7879,
      "##ised": 7880,
      "##ni": 7881,
      "##fm": 7882,
      "##_sasl": 7883,
      "##_dimm": 7884,
      "##acodec": 7885,
      "##_location": 7886,
      "##_iid": 7887,
      "tc0": 7888,
      "buf_len": 7889,
      "gen_code": 7890,
      "ff_pred": 7891,
      "ff_idct": 7892,
      "target_m": 7893,
      "target_value": 7894,
      "##prot": 7895,
      "arg_info": 7896,
      "frame_bits": 7897,
      "curidx": 7898,
      "sample_count": 7899,
      "resource": 7900,
      "##_uninit": 7901,
      "0x17": 7902,
      "default_ref_list": 7903,
      "sub_packet": 7904,
      "io_buffer": 7905,
      "##_i64_i32": 7906,
      "rc_buffer_size": 7907,
      "chrv": 7908,
      "stdio": 7909,
      "##_jpeg": 7910,
      "l1ref": 7911,
      "av_pix_fmt_descriptors": 7912,
      "vm_vm": 7913,
      "omap_mpu": 7914,
      "##_requests": 7915,
      "zeroes": 7916,
      "##_host_bridge": 7917,
      "##_descr": 7918,
      "##_4mv": 7919,
      "volume": 7920,
      "bad_reg": 7921,
      "writer": 7922,
      "bytestream_get_le16": 7923,
      "bytestream_get_be16": 7924,
      "strict": 7925,
      "payload_type": 7926,
      "termin": 7927,
      "lsps": 7928,
      "##hcistate": 7929,
      "svq1": 7930,
      "dict1": 7931,
      "ticks": 7932,
      "mantissa": 7933,
      "following": 7934,
      "av_sample_fmt_fltp": 7935,
      "##_hybrid": 7936,
      "ncq_tfs": 7937,
      "##_8x16": 7938,
      "hlum": 7939,
      "##_sprite": 7940,
      "zigzag_scan": 7941,
      "switched": 7942,
      "##putil_init": 7943,
      "vm_vmcb": 7944,
      "_mc": 7945,
      "ce": 7946,
      "cat": 7947,
      "hue": 7948,
      "idr": 7949,
      "i8x8": 7950,
      "m48": 7951,
      "nor": 7952,
      "pstate": 7953,
      "qid": 7954,
      "rk": 7955,
      "rval": 7956,
      "random": 7957,
      "sat": 7958,
      "xan": 7959,
      "##_slots": 7960,
      "##amped": 7961,
      "##_ff": 7962,
      "##urity": 7963,
      "reached": 7964,
      "##igest": 7965,
      "##_instr": 7966,
      "##uswb": 7967,
      "buf_pos": 7968,
      "##_wake": 7969,
      "ff_c": 7970,
      "expr": 7971,
      "unexpected": 7972,
      "regions": 7973,
      "frame_code": 7974,
      "endpoint": 7975,
      "dst1": 7976,
      "trigger": 7977,
      "##00000000": 7978,
      "fd_set": 7979,
      "whether": 7980,
      "##_cpu_state": 7981,
      "0x1d": 7982,
      "subpacket": 7983,
      "fail_unless": 7984,
      "spi": 7985,
      "header_len": 7986,
      "assigned": 7987,
      "level_code": 7988,
      "usb_token": 7989,
      "##_load_addr": 7990,
      "##ildiv": 7991,
      "mpeg_decode": 7992,
      "##_not_found": 7993,
      "##_configuration": 7994,
      "vdctx": 7995,
      "##_enabled_flag": 7996,
      "cp0_check": 7997,
      "mech": 7998,
      ")]);": 7999,
      "short_ref": 8000,
      "packuswb": 8001,
      "]++;": 8002,
      "dxva": 8003,
      "ttmb": 8004,
      "prefix_rep": 8005,
      "##_target_error": 8006,
      "##_windows": 8007,
      "precno": 8008,
      "codec_flag_gray": 8009,
      "incre": 8010,
      "address_space_memory": 8011,
      "gen_opc_buf": 8012,
      "vmsvga": 8013,
      "manag": 8014,
      "refcount_table_size": 8015,
      "##_snapshots": 8016,
      "bit_depth_luma": 8017,
      "floor_setup": 8018,
      "qdict_get_try": 8019,
      "##_ebml_master": 8020,
      "av_wl": 8021,
      "config_vnc_tls": 8022,
      "vnc_auth_vencrypt": 8023,
      "uvsrc_y": 8024,
      "##_breakpoint": 8025,
      "##otrack": 8026,
      "kvm_msr_entry": 8027,
      "##t59": 8028,
      "hw_frames_ctx": 8029,
      "qstring_from_str": 8030,
      "m48t59": 8031,
      "\"\");": 8032,
      "b5": 8033,
      "b_stride": 8034,
      "da": 8035,
      "dnxhd": 8036,
      "eac3": 8037,
      "fm": 8038,
      "fac": 8039,
      "h_edge_pos": 8040,
      "pam": 8041,
      "ranges": 8042,
      "vk": 8043,
      "x2": 8044,
      "xd": 8045,
      "##dither": 8046,
      "##meta": 8047,
      "##oring": 8048,
      "##_f_code": 8049,
      "##_mjpeg": 8050,
      "revents": 8051,
      "inde": 8052,
      "deshake": 8053,
      "##isr": 8054,
      "gen_window": 8055,
      "gen_eob": 8056,
      "target_fl": 8057,
      "qemu_rdma": 8058,
      "((\"": 8059,
      "block_mig": 8060,
      "##_aff": 8061,
      "##screds": 8062,
      "cur_bytes": 8063,
      "addrlen": 8064,
      "pixman": 8065,
      "##_data_len": 8066,
      "##_intel": 8067,
      "##_ecx": 8068,
      "ref2": 8069,
      "ref_index": 8070,
      "pcc": 8071,
      "avio_rb": 8072,
      "##raint": 8073,
      "register_mux": 8074,
      "orb": 8075,
      "##_movq": 8076,
      "table_size": 8077,
      "float128": 8078,
      "slice_table": 8079,
      "fpregs": 8080,
      "vpx": 8081,
      "##_iso": 8082,
      "##_load_seg": 8083,
      "color_primaries": 8084,
      "##_noise": 8085,
      "test_c": 8086,
      "update_cache": 8087,
      "got_output": 8088,
      "codec_type_video": 8089,
      "##_drain": 8090,
      "context_count": 8091,
      "qemu_get_byte": 8092,
      "av_get_channel_layout": 8093,
      "dv_vlc": 8094,
      "hevc_nal": 8095,
      "cpu_src1_64": 8096,
      "##_round_up": 8097,
      "ctts": 8098,
      "target_efl": 8099,
      "mv_dir_forward": 8100,
      "uvmx": 8101,
      "resync_mb_x": 8102,
      "mpc8": 8103,
      "##chronize": 8104,
      "dl_fn": 8105,
      "workaround_bugs": 8106,
      "##_atapi": 8107,
      "occur": 8108,
      "gen_window_check": 8109,
      "block_mig_state": 8110,
      "(~": 8111,
      "_sig": 8112,
      "aexp": 8113,
      "cq": 8114,
      "g_str": 8115,
      "iop": 8116,
      "lcd": 8117,
      "nw": 8118,
      "native": 8119,
      "nchannels": 8120,
      "##ev": 8121,
      "##2str": 8122,
      "##60": 8123,
      "##w86": 8124,
      "##38": 8125,
      "##reset": 8126,
      "##stal": 8127,
      "##_tid": 8128,
      "av_fast": 8129,
      "##_cfi": 8130,
      "##_pps": 8131,
      "##_psw": 8132,
      "##peq": 8133,
      "in_num": 8134,
      "incomp": 8135,
      "deleted": 8136,
      "##_guess": 8137,
      "##_i386": 8138,
      "is_direct": 8139,
      "##_decoding": 8140,
      "##_ws": 8141,
      "##chroma": 8142,
      "gen_f": 8143,
      "codec_priv": 8144,
      "##16le": 8145,
      "target_words_bigendian": 8146,
      "mb_index": 8147,
      "arg6": 8148,
      "frame_len": 8149,
      "devep": 8150,
      "##_reg_31": 8151,
      "strstart": 8152,
      "pci_cap": 8153,
      "bdrv_req": 8154,
      "##rystal": 8155,
      "mov_read": 8156,
      "##_cpu_field": 8157,
      "preset": 8158,
      "prealloc": 8159,
      "compr": 8160,
      "tb_jmp": 8161,
      "new_size": 8162,
      "opt_order": 8163,
      "##_sector_size": 8164,
      "bits_left": 8165,
      "##ibit": 8166,
      "spr_40x": 8167,
      "]==": 8168,
      "##_properties": 8169,
      "kvm_s390": 8170,
      "##_preset": 8171,
      "iovcnt": 8172,
      "kernel_base": 8173,
      "0xf8": 8174,
      "ipts": 8175,
      "omap_find": 8176,
      "##_condition": 8177,
      "top_type": 8178,
      "0x4000": 8179,
      "tcg_out_insn": 8180,
      "##deccontext": 8181,
      "##compressed": 8182,
      "iv_frame": 8183,
      "rtas_ld": 8184,
      "trying": 8185,
      "bytestream_get_le32": 8186,
      "##_top_bs": 8187,
      "##_srsconf": 8188,
      "gen_opc_instr": 8189,
      "accum": 8190,
      "wr_id": 8191,
      "##_chars": 8192,
      "keysym": 8193,
      "compatibility": 8194,
      "ctb_addr": 8195,
      "gen_op_iwmmxt_movq": 8196,
      "require_reg_31": 8197,
      "##samplesref": 8198,
      "ff_put_vp8_epel": 8199,
      "inserted": 8200,
      "yalpha1": 8201,
      "##88w86": 8202,
      "optimize": 8203,
      "visitor_input_test_init": 8204,
      "nb_codeblocks": 8205,
      "##rystalhd": 8206,
      "omap_findclk": 8207,
      "gen_opc_instr_start": 8208,
      "\"[": 8209,
      "aes": 8210,
      "amask": 8211,
      "d1": 8212,
      "green": 8213,
      "i64": 8214,
      "iotlb": 8215,
      "lb": 8216,
      "lif": 8217,
      "nomem": 8218,
      "pmsav": 8219,
      "q35": 8220,
      "spectr": 8221,
      "##ia": 8222,
      "##gx": 8223,
      "##gl": 8224,
      "##200": 8225,
      "##8_mc": 8226,
      "##a_handler": 8227,
      "##vq": 8228,
      "##oin": 8229,
      "##ogram": 8230,
      "##waves": 8231,
      "##53": 8232,
      "##};": 8233,
      "##rex": 8234,
      "ifm": 8235,
      "##lex": 8236,
      "##_sdr": 8237,
      "##arts": 8238,
      "##_mq": 8239,
      "##any": 8240,
      "##icc": 8241,
      "reuse": 8242,
      "redo": 8243,
      "reopen": 8244,
      "##utton": 8245,
      "in_flight": 8246,
      "##_rle": 8247,
      "is_dir": 8248,
      "##_ob": 8249,
      "ff_er": 8250,
      "get_arg": 8251,
      "##_get_buffer": 8252,
      "qemu_system": 8253,
      "units": 8254,
      "##mtc0": 8255,
      "thing": 8256,
      "nbits": 8257,
      "##_offset_mask": 8258,
      "once": 8259,
      "##_unmar": 8260,
      "avio_write": 8261,
      "read_only": 8262,
      "##_state_s": 8263,
      "##ldq": 8264,
      "##_be24": 8265,
      "packet_frag": 8266,
      "avcodec_find": 8267,
      "analyse": 8268,
      "kvm_state": 8269,
      "0x28": 8270,
      "ccw": 8271,
      "fp32": 8272,
      "##acter": 8273,
      "mpeg_f_code": 8274,
      "##achinestate": 8275,
      "field_select": 8276,
      "ssid": 8277,
      "##_inputs": 8278,
      "corresp": 8279,
      "##_translate": 8280,
      "##_line_size": 8281,
      "grouplist": 8282,
      "qlist_insert_head": 8283,
      "rwco": 8284,
      "punpckldq": 8285,
      "filter_mb_mbaff": 8286,
      "##visor": 8287,
      "av_frame_ref": 8288,
      "##_precision": 8289,
      "rv34": 8290,
      "__msa_copy": 8291,
      "throttling": 8292,
      "l2_table_cache": 8293,
      "enoent": 8294,
      "bank_mask": 8295,
      "release_buffer": 8296,
      "rex_r": 8297,
      "hypertas": 8298,
      "##_pwritev": 8299,
      "nb_output_streams": 8300,
      "ticks_per": 8301,
      "qemu_mutex_lock": 8302,
      "##_handshake": 8303,
      "arguments": 8304,
      "##_secondary": 8305,
      "_sa_handler": 8306,
      "]\"=&": 8307,
      "svga_reg": 8308,
      "bytestream2_put_byte": 8309,
      "##sistent": 8310,
      "temps": 8311,
      "offset_within_address_space": 8312,
      "##_udp": 8313,
      "htonl": 8314,
      "qemu_ram_alloc": 8315,
      "determine": 8316,
      "filter_mb_mbaff_edge": 8317,
      "82": 8318,
      "cuda": 8319,
      "fst": 8320,
      "fit": 8321,
      "gpu": 8322,
      "grow": 8323,
      "halt": 8324,
      "sic": 8325,
      "##_24": 8326,
      "##xstate": 8327,
      "##inx": 8328,
      "breakpoints": 8329,
      "##_rm": 8330,
      "size_in": 8331,
      "##_lcd": 8332,
      "##_linux": 8333,
      "gen_goto_tb": 8334,
      "##_get_str": 8335,
      "##over": 8336,
      "regno": 8337,
      "out_format": 8338,
      "frame_mbaff": 8339,
      "##codes": 8340,
      "thr": 8341,
      "##_qt": 8342,
      "##_read_only": 8343,
      "acct": 8344,
      "##_strategy": 8345,
      "referenc": 8346,
      "##_cpuid": 8347,
      "mv_p": 8348,
      "##_clamped": 8349,
      "bounce": 8350,
      "##ffffff": 8351,
      "count1": 8352,
      "sdhci": 8353,
      "input_picture": 8354,
      "another": 8355,
      "##_completion": 8356,
      ":%\"": 8357,
      "##101": 8358,
      "##_fdset": 8359,
      "##111": 8360,
      "##_slave": 8361,
      "override": 8362,
      "tcg_out_mov": 8363,
      "mips_debug": 8364,
      "conditional": 8365,
      "log2_min": 8366,
      "quantize": 8367,
      "skip_bits_long": 8368,
      "##_idct_dc_add": 8369,
      "tswap64": 8370,
      "##_lower": 8371,
      "bdrv_get_aio_context": 8372,
      "connected": 8373,
      "build_state": 8374,
      "pthread_cond": 8375,
      "qpci_io": 8376,
      "chrdsth": 8377,
      "trellis": 8378,
      "##_aa32": 8379,
      "operations": 8380,
      "broadcast": 8381,
      "vp56_frame_golden": 8382,
      "avdiscard_non": 8383,
      "aspect_ratio": 8384,
      "##_ceildiv": 8385,
      "register_ioport_write": 8386,
      "gop_size": 8387,
      "##_binary": 8388,
      "vbv_delay": 8389,
      "##_tex_bits": 8390,
      "kvm_msr_entry_add": 8391,
      "-%": 8392,
      "://": 8393,
      "[!": 8394,
      "crypto": 8395,
      "gra": 8396,
      "give": 8397,
      "ml": 8398,
      "nan": 8399,
      "r_ss": 8400,
      "r_frame_rate": 8401,
      "sad": 8402,
      "sect": 8403,
      "sol": 8404,
      "vas": 8405,
      "##1x": 8406,
      "##fix": 8407,
      "##field": 8408,
      "##_tcr": 8409,
      "##_pit": 8410,
      "##_passthrough": 8411,
      "##_fram": 8412,
      "stage": 8413,
      "##_ddd": 8414,
      "##acing": 8415,
      "ch_data": 8416,
      "##_deblock": 8417,
      "##_ol": 8418,
      "av_log2": 8419,
      "gen_inval": 8420,
      "ff_pred8x8": 8421,
      "##_horizontal": 8422,
      "dataplane": 8423,
      "((!": 8424,
      "unpack": 8425,
      "##_setmask": 8426,
      "<<(": 8427,
      "##_actl": 8428,
      "dstv": 8429,
      "##queued": 8430,
      "##_qcow": 8431,
      "bdrv_flags": 8432,
      "##snr": 8433,
      "##_i32_i64": 8434,
      "##simple": 8435,
      "##_union": 8436,
      "##_devfn": 8437,
      "##_started": 8438,
      "##_start_code": 8439,
      "rd0": 8440,
      "##_mbmode": 8441,
      "opc_cmp": 8442,
      "0x2c": 8443,
      "fp_status": 8444,
      "av_pix_fmt_none": 8445,
      "##_pcr": 8446,
      "synth": 8447,
      "##_encrypt": 8448,
      "##_input_picture": 8449,
      "nodename": 8450,
      "##posit": 8451,
      "mac_reg": 8452,
      "partitions": 8453,
      "reset_info": 8454,
      "backing_format": 8455,
      "mcg": 8456,
      "rows": 8457,
      "qobject_dec": 8458,
      "rrrn": 8459,
      "av_get_packet": 8460,
      "tswapal": 8461,
      "tcg_cond_lt": 8462,
      "profile_idc": 8463,
      "sin_port": 8464,
      "##_gpio_out": 8465,
      "schid": 8466,
      "validate": 8467,
      "glfs": 8468,
      "qemu_chr_fe": 8469,
      "sse_op": 8470,
      "cpu_v1": 8471,
      "hpte64": 8472,
      "ebml_read": 8473,
      "temporal": 8474,
      "##_unspecified": 8475,
      "inbuf_ptr": 8476,
      "blkdbg_event": 8477,
      "##_native_list": 8478,
      "##_cycle": 8479,
      "ntohl": 8480,
      "test_cases": 8481,
      "##88w8618": 8482,
      "correspon": 8483,
      "gen_inval_exception": 8484,
      "qobject_decref": 8485,
      "\"=": 8486,
      "ba": 8487,
      "bb": 8488,
      "bri": 8489,
      "cw": 8490,
      "iec": 8491,
      "i440fx": 8492,
      "lv": 8493,
      "laiocb": 8494,
      "lseek": 8495,
      "n_irq": 8496,
      "pwt": 8497,
      "sbd": 8498,
      "y_off": 8499,
      "}\\": 8500,
      "##mware": 8501,
      "##ful": 8502,
      "##fields": 8503,
      "##onym": 8504,
      "av_find": 8505,
      "##_cm": 8506,
      "##izz": 8507,
      "##heep": 8508,
      "returned": 8509,
      "##_red": 8510,
      "##_ins": 8511,
      "##_nics": 8512,
      "##ilk": 8513,
      "##_vpe": 8514,
      "codec_name": 8515,
      "blocked": 8516,
      "out1": 8517,
      "out0": 8518,
      "trunc": 8519,
      "seen": 8520,
      "accel": 8521,
      "putbitcontext": 8522,
      "##_nr_iid": 8523,
      "##_be_p": 8524,
      "rc_override": 8525,
      "spr_booke": 8526,
      "chrfilter": 8527,
      "reqs": 8528,
      "vnc_client": 8529,
      "matches": 8530,
      "vec_splat": 8531,
      "ipmi": 8532,
      "##_pixels_clamped": 8533,
      "color_trc": 8534,
      "field_scan": 8535,
      "chunks": 8536,
      "netclientstate": 8537,
      "sysbus_init": 8538,
      "condjmp": 8539,
      "##completion": 8540,
      "##_sock": 8541,
      "phys_page": 8542,
      "##ervice": 8543,
      "):\"": 8544,
      "gen_op_movl_t0": 8545,
      "##_vmstate": 8546,
      "loop_filter": 8547,
      "##_8s": 8548,
      "amr": 8549,
      "fn11": 8550,
      "aio_context_release": 8551,
      "decoding_needed": 8552,
      "ctl": 8553,
      "emulate": 8554,
      "sprite_ref": 8555,
      "stream_ptr_after": 8556,
      "vlumbufsize": 8557,
      "variant": 8558,
      "##_dc_scale_table": 8559,
      "qemu_put_be32s": 8560,
      "is_less_than_beta": 8561,
      "ps_max_nr_iid": 8562,
      "##ynqmp": 8563,
      "rounder": 8564,
      "ff_jpeg2000_ceildiv": 8565,
      "avprobe_score": 8566,
      "##onymous": 8567,
      "stream_ptr_after_chunk": 8568,
      "ps_max_nr_iidicc": 8569,
      "\"{": 8570,
      "%.": 8571,
      "88": 8572,
      "aflag": 8573,
      "ga": 8574,
      "hc": 8575,
      "js": 8576,
      "lld": 8577,
      "rpl": 8578,
      "tms": 8579,
      "##hift": 8580,
      "##4xx": 8581,
      "##m2": 8582,
      "##lode": 8583,
      "##idr": 8584,
      "remap": 8585,
      "##_reorder": 8586,
      "0x16": 8587,
      "##ilinx": 8588,
      "##_vdi": 8589,
      "##_vlan": 8590,
      "##_oflag": 8591,
      "ff_mpeg": 8592,
      "ff_hevc": 8593,
      "get_le32": 8594,
      "voffs": 8595,
      "##16be": 8596,
      "qemu_uuid": 8597,
      "outptr": 8598,
      "mem_reg": 8599,
      "dst3": 8600,
      "##_frame_end": 8601,
      "altivec": 8602,
      "##assigned": 8603,
      "##_qsv": 8604,
      "num_blocks": 8605,
      "file_size": 8606,
      "beh": 8607,
      "index_a": 8608,
      "set_cc": 8609,
      "complet": 8610,
      "##ract": 8611,
      "readonly": 8612,
      "current_buffer": 8613,
      "##info_t": 8614,
      "##_move": 8615,
      "gen_helper_vfp": 8616,
      "##_asub": 8617,
      "decode_frame": 8618,
      "samplesa": 8619,
      "kvm_check": 8620,
      "##_prep": 8621,
      "fp64": 8622,
      "0x3c": 8623,
      "##active": 8624,
      "path_max": 8625,
      "##_interface": 8626,
      "syntax": 8627,
      "##serial": 8628,
      "nbd_negotiate": 8629,
      "':')": 8630,
      "bytestream2_get_le32": 8631,
      "dpds": 8632,
      "mcast": 8633,
      "quantization": 8634,
      "prot_read": 8635,
      "prot_write": 8636,
      "idct_add": 8637,
      "self": 8638,
      "##_explode": 8639,
      "##ificate": 8640,
      "tty": 8641,
      "dstwidth": 8642,
      "maybe": 8643,
      "##_last_index": 8644,
      "##_s16le": 8645,
      "##visit": 8646,
      "showwaves": 8647,
      "cblkno": 8648,
      "rle_code": 8649,
      "##_failure": 8650,
      "view": 8651,
      "stuffing": 8652,
      "fw_cfg_add_i32": 8653,
      "##_fidp": 8654,
      "be64_to_cpus": 8655,
      "phase_count": 8656,
      "0x101e": 8657,
      "##advise": 8658,
      "cp_rx_status": 8659,
      "pci_base_address_space": 8660,
      "passed": 8661,
      "__msa_ilvr": 8662,
      "rxdw0": 8663,
      "target_rlim": 8664,
      "qemu_allocate_irqs": 8665,
      "bpc": 8666,
      "b_idx": 8667,
      "cac": 8668,
      "dtb": 8669,
      "ear": 8670,
      "emb": 8671,
      "font": 8672,
      "less": 8673,
      "mn": 8674,
      "m68k": 8675,
      "n1": 8676,
      "patch": 8677,
      "qi": 8678,
      "qsimple": 8679,
      "u1": 8680,
      "vv": 8681,
      "zexp": 8682,
      "##go": 8683,
      "##_um": 8684,
      "##2k": 8685,
      "##2me": 8686,
      "##cmd": 8687,
      "##ough": 8688,
      "##f000": 8689,
      "##inst": 8690,
      "##_cipher": 8691,
      "##_fetch": 8692,
      "intc": 8693,
      "reverse": 8694,
      "##_in_use": 8695,
      "##_incoming": 8696,
      "##_dmtc0": 8697,
      "##_ro": 8698,
      "(&(": 8699,
      "##_i32_tl": 8700,
      "opkt": 8701,
      "##_lba": 8702,
      "##istics": 8703,
      "(!*": 8704,
      "##chown": 8705,
      "ff_set": 8706,
      "##16_mc": 8707,
      "##_halt": 8708,
      "out2": 8709,
      "##_set_func": 8710,
      "mem_buf": 8711,
      "dstu": 8712,
      "dst0": 8713,
      "##scs": 8714,
      "scr": 8715,
      "##_errors": 8716,
      "addr1": 8717,
      "num_coeffs": 8718,
      "filesize": 8719,
      "le64_to_cpu": 8720,
      "movaps": 8721,
      "##_units": 8722,
      "failure": 8723,
      "##reginfo": 8724,
      "checks": 8725,
      "plug": 8726,
      "register_demuxer": 8727,
      "band_type": 8728,
      "enter": 8729,
      "video_codec": 8730,
      "format_name": 8731,
      "kvm_arch": 8732,
      "vnc_display": 8733,
      "quiet": 8734,
      "oldpath": 8735,
      "##_disposition": 8736,
      "##_zeros": 8737,
      "memory_region_set": 8738,
      "##_notifiers": 8739,
      "##_pic_struct": 8740,
      "color_type": 8741,
      "sym": 8742,
      "nbd_cmd": 8743,
      "rx_fifo": 8744,
      "##_edge_mc": 8745,
      "##_desc_get": 8746,
      "##_address_mask": 8747,
      "pteg": 8748,
      "verbose": 8749,
      "memoryregionsection": 8750,
      "v9fs_co": 8751,
      "cc_op_dynamic": 8752,
      "av_gettime": 8753,
      "av_get_bits_per": 8754,
      "ign": 8755,
      "libav": 8756,
      "strings": 8757,
      "colum": 8758,
      "neon_store": 8759,
      "s390cpu": 8760,
      "0x60": 8761,
      "##_8x8dct": 8762,
      "##mitted": 8763,
      "scsw_actl": 8764,
      "qdict_get_str": 8765,
      "qcrypto_block": 8766,
      "##eee": 8767,
      "##_source_error": 8768,
      "macroblocks": 8769,
      "qemu_iovec_init": 8770,
      "jmp_insn": 8771,
      "interleave": 8772,
      "cid_table": 8773,
      "adpcm_ima_expand_nibble": 8774,
      "##_normal": 8775,
      "virtio_queue_get": 8776,
      "swb_sizes": 8777,
      "av_ef_explode": 8778,
      "advance": 8779,
      "ffmpeg_exit": 8780,
      "ppc_hash64": 8781,
      "qdm2": 8782,
      "##_timespec": 8783,
      "gen_ldst_modrm": 8784,
      "##_remaining": 8785,
      "embed": 8786,
      "qsimpleq": 8787,
      "-((": 8788,
      "custom": 8789,
      "dm": 8790,
      "hcall": 8791,
      "micro": 8792,
      "qadd": 8793,
      "rmd": 8794,
      "r_cs": 8795,
      "rusage": 8796,
      "sq": 8797,
      "sid": 8798,
      "##eg": 8799,
      "##_ign": 8800,
      "##8uv": 8801,
      "##ua": 8802,
      "##uy2": 8803,
      "##ruct": 8804,
      "##54": 8805,
      "##',": 8806,
      "##etty": 8807,
      "##_fw": 8808,
      "##_ft0": 8809,
      "##_mer": 8810,
      "##_inf": 8811,
      "##exit": 8812,
      "##_db": 8813,
      "##_dxva2": 8814,
      "##_rn": 8815,
      "opname": 8816,
      "##_vsid": 8817,
      "##_vring": 8818,
      "##_lr": 8819,
      "buf_start": 8820,
      "##_cost": 8821,
      "##_wav": 8822,
      "##imate": 8823,
      "gen_fop": 8824,
      "ff_mov": 8825,
      "adb": 8826,
      "src_end": 8827,
      "##ssh": 8828,
      "out_nof": 8829,
      "##psy": 8830,
      "##ays": 8831,
      "error_prepend": 8832,
      "##_sei": 8833,
      "sche": 8834,
      "pix_abs": 8835,
      "##plan": 8836,
      "share": 8837,
      "max_size": 8838,
      "mv88w8618": 8839,
      "completed": 8840,
      "put_h264_qpel": 8841,
      "(%[": 8842,
      "diag": 8843,
      "time_increment": 8844,
      "assum": 8845,
      "ts_st": 8846,
      "video_conf": 8847,
      "##_ldq": 8848,
      "##aving": 8849,
      "##_page_mask": 8850,
      "##_phys_addr": 8851,
      "color_range": 8852,
      "lowcomp": 8853,
      "syscall": 8854,
      "##_tbflag": 8855,
      "all_fragments": 8856,
      "omap_l4": 8857,
      "qcow_oflag": 8858,
      "bytestream2_get_be16": 8859,
      "trace_usb": 8860,
      "idebus": 8861,
      "ide_atapi": 8862,
      "##_apic": 8863,
      "urlcontext": 8864,
      "...)": 8865,
      "g_assert_cmpstr": 8866,
      "##_scale_factor": 8867,
      "high_freq": 8868,
      "ptem": 8869,
      "##206": 8870,
      "##_tmp1": 8871,
      "flush_put_bits": 8872,
      "show_ub": 8873,
      "black": 8874,
      "smbus": 8875,
      "mmx2": 8876,
      "dump_format": 8877,
[...]
