{
  "version": "1.0",
  "truncation": null,
  "padding": null,
  "added_tokens": [
    {
      "id": 0,
      "content": "<s>",
      "single_word": false,
      "lstrip": false,
      "rstrip": false,
      "normalized": false,
      "special": true
    },
    {
      "id": 1,
      "content": "<pad>",
      "single_word": false,
      "lstrip": false,
      "rstrip": false,
      "normalized": false,
      "special": true
    },
    {
      "id": 2,
      "content": "</s>",
      "single_word": false,
      "lstrip": false,
      "rstrip": false,
      "normalized": false,
      "special": true
    },
    {
      "id": 3,
      "content": "<unk>",
      "single_word": false,
      "lstrip": false,
      "rstrip": false,
      "normalized": false,
      "special": true
    }
  ],
  "normalizer": {
    "type": "Sequence",
    "normalizers": [
      {
        "type": "Lowercase"
      },
      {
        "type": "NFKD"
      },
      {
        "type": "Strip",
        "strip_left": true,
        "strip_right": true
      },
      {
        "type": "StripAccents"
      }
    ]
  },
  "pre_tokenizer": {
    "type": "Whitespace"
  },
  "post_processor": null,
  "decoder": {
    "type": "WordPiece",
    "prefix": "##",
    "cleanup": true
  },
  "model": {
    "type": "WordPiece",
    "unk_token": "[UNK]",
    "continuing_subword_prefix": "##",
    "max_input_chars_per_word": 100,
    "vocab": {
      "<s>": 0,
      "<pad>": 1,
      "</s>": 2,
      "<unk>": 3,
      "!": 4,
      "\"": 5,
      "#": 6,
      "$": 7,
      "%": 8,
      "&": 9,
      "'": 10,
      "(": 11,
      ")": 12,
      "*": 13,
      "+": 14,
      ",": 15,
      "-": 16,
      ".": 17,
      "/": 18,
      "0": 19,
      "1": 20,
      "2": 21,
      "3": 22,
      "4": 23,
      "5": 24,
      "6": 25,
      "7": 26,
      "8": 27,
      "9": 28,
      ":": 29,
      ";": 30,
      "<": 31,
      "=": 32,
      ">": 33,
      "?": 34,
      "@": 35,
      "[": 36,
      "\\": 37,
      "]": 38,
      "^": 39,
      "_": 40,
      "`": 41,
      "a": 42,
      "b": 43,
      "c": 44,
      "d": 45,
      "e": 46,
      "f": 47,
      "g": 48,
      "h": 49,
      "i": 50,
      "j": 51,
      "k": 52,
      "l": 53,
      "m": 54,
      "n": 55,
      "o": 56,
      "p": 57,
      "q": 58,
      "r": 59,
      "s": 60,
      "t": 61,
      "u": 62,
      "v": 63,
      "w": 64,
      "x": 65,
      "y": 66,
      "z": 67,
      "{": 68,
      "|": 69,
      "}": 70,
      "~": 71,
      "##u": 72,
      "##m": 73,
      "##f": 74,
      "##i": 75,
      "##l": 76,
      "##t": 77,
      "##e": 78,
      "##r": 79,
      "##_": 80,
      "##c": 81,
      "##v": 82,
      "##d": 83,
      "##h": 84,
      "##o": 85,
      "##a": 86,
      "##b": 87,
      "##p": 88,
      "##w": 89,
      "##n": 90,
      "##s": 91,
      "##y": 92,
      "##z": 93,
      "##k": 94,
      "##g": 95,
      "##x": 96,
      "##2": 97,
      "##q": 98,
      "##8": 99,
      "##1": 100,
      "##6": 101,
      "##4": 102,
      "##:": 103,
      "##%": 104,
      "##3": 105,
      "##^": 106,
      "##\\": 107,
      "##\"": 108,
      "##]": 109,
      "##,": 110,
      "##j": 111,
      "##5": 112,
      "##0": 113,
      "##9": 114,
      "##7": 115,
      "##;": 116,
      "##}": 117,
      "##+": 118,
      "##.": 119,
      "##-": 120,
      "##'": 121,
      "##)": 122,
      "##&": 123,
      "##(": 124,
      "##[": 125,
      "##|": 126,
      "##@": 127,
      "##=": 128,
      "##/": 129,
      "##<": 130,
      "##?": 131,
      "##>": 132,
      "##*": 133,
      "##{": 134,
      "###": 135,
      "##$": 136,
      "##~": 137,
      "##!": 138,
      "->": 139,
      "##nt": 140,
      "##er": 141,
      "##re": 142,
      "##at": 143,
      "##et": 144,
      ");": 145,
      "##st": 146,
      "##de": 147,
      "##or": 148,
      "##in": 149,
      "##on": 150,
      "##e_": 151,
      "if": 152,
      "##se": 153,
      "##am": 154,
      "##_t": 155,
      "##_c": 156,
      "##al": 157,
      "co": 158,
      "##it": 159,
      "##en": 160,
      "##ct": 161,
      "av": 162,
      "st": 163,
      "##ex": 164,
      "##_s": 165,
      "##lo": 166,
      "##_p": 167,
      "##ar": 168,
      "##iz": 169,
      "##ext": 170,
      "##_f": 171,
      "##le": 172,
      "##ck": 173,
      "##ize": 174,
      "##ff": 175,
      "##ad": 176,
      "##ntext": 177,
      "##id": 178,
      "int": 179,
      "##ut": 180,
      "##ur": 181,
      "##_b": 182,
      "##ic": 183,
      "ret": 184,
      "re": 185,
      "##an": 186,
      "##ion": 187,
      "##_m": 188,
      "##ate": 189,
      "in": 190,
      "##em": 191,
      "##co": 192,
      "##int": 193,
      "##ul": 194,
      "##el": 195,
      "##);": 196,
      "##ase": 197,
      "/*": 198,
      "*/": 199,
      "de": 200,
      "##ig": 201,
      "##ag": 202,
      "##ot": 203,
      "##ata": 204,
      "##ed": 205,
      "context": 206,
      "##urn": 207,
      "return": 208,
      "##as": 209,
      "##es": 210,
      "##00": 211,
      "##io": 212,
      "##il": 213,
      "##_st": 214,
      "##ro": 215,
      "##_co": 216,
      "##he": 217,
      "##_re": 218,
      "case": 219,
      "##pu": 220,
      "en": 221,
      "##mp": 222,
      "##_n": 223,
      "##_in": 224,
      "##ram": 225,
      "0x": 226,
      "##_o": 227,
      "##ue": 228,
      "##pt": 229,
      "##get": 230,
      "##_d": 231,
      "##um": 232,
      "##lock": 233,
      "##ror": 234,
      "##pe": 235,
      "==": 236,
      "##ak": 237,
      "##ab": 238,
      "##ri": 239,
      "bu": 240,
      "##dec": 241,
      "##ac": 242,
      "##ing": 243,
      "ch": 244,
      "##32": 245,
      "##reak": 246,
      "break": 247,
      "for": 248,
      "el": 249,
      "##_l": 250,
      "cpu": 251,
      "##dr": 252,
      "##_size": 253,
      "(&": 254,
      "##set": 255,
      "##ent": 256,
      "else": 257,
      "##ap": 258,
      "##_lo": 259,
      "##ream": 260,
      "##_v": 261,
      "##dex": 262,
      "\",": 263,
      "##ack": 264,
      "size": 265,
      "##us": 266,
      "##64": 267,
      "con": 268,
      "er": 269,
      "##ir": 270,
      "##is": 271,
      "##im": 272,
      "##th": 273,
      "##un": 274,
      "))": 275,
      "##ffer": 276,
      "++": 277,
      "##ist": 278,
      "uint": 279,
      "##put": 280,
      "##ix": 281,
      "##if": 282,
      "##tx": 283,
      "codec": 284,
      "data": 285,
      "##g_": 286,
      "##ull": 287,
      "##ch": 288,
      "tc": 289,
      "##ult": 290,
      "##lag": 291,
      "##ss": 292,
      "stat": 293,
      "##tr": 294,
      "ar": 295,
      "##ffset": 296,
      "##ype": 297,
      "];": 298,
      "is": 299,
      "##rc": 300,
      "##its": 301,
      "state": 302,
      "##and": 303,
      "(!": 304,
      "av_lo": 305,
      "##_de": 306,
      "##ect": 307,
      "null": 308,
      "##_r": 309,
      "##ation": 310,
      "&&": 311,
      "##ctx": 312,
      "##ile": 313,
      "the": 314,
      "##vic": 315,
      "##_w": 316,
      "##arget": 317,
      "##_h": 318,
      "##error": 319,
      "##ict": 320,
      "block": 321,
      "get": 322,
      "vo": 323,
      "out": 324,
      "##ure": 325,
      "##pl": 326,
      "gen": 327,
      "op": 328,
      "##able": 329,
      "res": 330,
      "##unt": 331,
      "][": 332,
      "##ame": 333,
      "ad": 334,
      "##rame": 335,
      "ex": 336,
      "target": 337,
      "lo": 338,
      "##emu": 339,
      "##of": 340,
      "##context": 341,
      "##16": 342,
      "##art": 343,
      "mm": 344,
      "static": 345,
      "ff": 346,
      "##_id": 347,
      "%%": 348,
      "##ci": 349,
      "void": 350,
      "##ax": 351,
      "avctx": 352,
      "],": 353,
      "##ce": 354,
      "##oto": 355,
      "ctx": 356,
      "to": 357,
      "error": 358,
      "##_get": 359,
      "val": 360,
      "((": 361,
      "arg": 362,
      "qemu": 363,
      "##ov": 364,
      "));": 365,
      "##_ad": 366,
      "##ort": 367,
      "##igh": 368,
      "++)": 369,
      "##pr": 370,
      "const": 371,
      "##acket": 372,
      "un": 373,
      "##fo": 374,
      "mb": 375,
      "##ign": 376,
      "),": 377,
      "!=": 378,
      "##ter": 379,
      "##ay": 380,
      "buf": 381,
      "\");": 382,
      "goto": 383,
      "##ps": 384,
      "mem": 385,
      "##yt": 386,
      "##ru": 387,
      "env": 388,
      "index": 389,
      "reg": 390,
      "##vice": 391,
      "end": 392,
      "##state": 393,
      "##up": 394,
      "##nel": 395,
      "##ress": 396,
      "##ub": 397,
      "num": 398,
      "##sc": 399,
      "##ight": 400,
      "##_bits": 401,
      "##mat": 402,
      "##lags": 403,
      "##ode": 404,
      "##_en": 405,
      "##ow": 406,
      "##val": 407,
      "he": 408,
      "##code": 409,
      "##_set": 410,
      ">>": 411,
      "buffer": 412,
      "stream": 413,
      "+=": 414,
      "##ver": 415,
      "##idth": 416,
      "##_bu": 417,
      "sizeof": 418,
      "##rit": 419,
      "##os": 420,
      "##ask": 421,
      "##mm": 422,
      "##_i": 423,
      "||": 424,
      "<<": 425,
      "tr": 426,
      "##que": 427,
      "##ate_": 428,
      "th": 429,
      "].": 430,
      "cur": 431,
      "##size": 432,
      "##_type": 433,
      "##mt": 434,
      "##_reg": 435,
      "##bu": 436,
      "##_context": 437,
      "##der": 438,
      "src": 439,
      "##ew": 440,
      "tcg": 441,
      "##pc": 442,
      "##ory": 443,
      "fil": 444,
      "len": 445,
      "##_data": 446,
      "##emp": 447,
      "av_log": 448,
      "##dress": 449,
      "//": 450,
      "##ert": 451,
      "gb": 452,
      "##yp": 453,
      "##ader": 454,
      "##loc": 455,
      "char": 456,
      "##amp": 457,
      "pb": 458,
      "##_g": 459,
      "(\"": 460,
      "##_se": 461,
      "##annel": 462,
      "result": 463,
      "##ister": 464,
      "so": 465,
      "##8_t": 466,
      "al": 467,
      "offset": 468,
      "##ruct": 469,
      "##gth": 470,
      "##ass": 471,
      "##av": 472,
      "##est": 473,
      "##rame_": 474,
      "##ide": 475,
      "##_index": 476,
      "def": 477,
      "##ma": 478,
      "##_op": 479,
      "tmp": 480,
      "uint8_t": 481,
      "output": 482,
      "err": 483,
      "##ast": 484,
      "##ail": 485,
      "##icture": 486,
      "pre": 487,
      "##_x": 488,
      "se": 489,
      "pci": 490,
      "##ip": 491,
      "##ol": 492,
      "##ud": 493,
      "##_fre": 494,
      "##ption": 495,
      "##intf": 496,
      "16": 497,
      "nb": 498,
      "sc": 499,
      "##op": 500,
      "##rent": 501,
      "##_ch": 502,
      "##ample": 503,
      "##32_t": 504,
      "##sp": 505,
      "pix": 506,
      "##ment": 507,
      "##64_t": 508,
      "##ype_": 509,
      "bs": 510,
      "##_init": 511,
      "byt": 512,
      "##0000": 513,
      "input": 514,
      "av_log_": 515,
      "##ine": 516,
      "##ault": 517,
      "##ess": 518,
      "##le_": 519,
      "sw": 520,
      "##ys": 521,
      "max": 522,
      "##udio": 523,
      "##_offset": 524,
      "value": 525,
      "##ry": 526,
      "##irt": 527,
      "pro": 528,
      "##iv": 529,
      "##ector": 530,
      "packet": 531,
      "##_buffer": 532,
      "##_ptr": 533,
      "##_con": 534,
      "##_int": 535,
      "##_fmt": 536,
      "dst": 537,
      "##_count": 538,
      "sh": 539,
      "]);": 540,
      "##dev": 541,
      "device": 542,
      "##fig": 543,
      "##alloc": 544,
      "##py": 545,
      "##nc": 546,
      "##_a": 547,
      "##kt": 548,
      "not": 549,
      "##_y": 550,
      "##bj": 551,
      "id": 552,
      "##_val": 553,
      "do": 554,
      "flags": 555,
      "##for": 556,
      "();": 557,
      "##gen": 558,
      "##ust": 559,
      "dc": 560,
      "cl": 561,
      "bit": 562,
      "endif": 563,
      "##ers": 564,
      "##ideo": 565,
      "fd": 566,
      "##igned": 567,
      "##_read": 568,
      "##_len": 569,
      "##ec": 570,
      "##ts": 571,
      "ref": 572,
      "##_state": 573,
      "an": 574,
      "ac": 575,
      "##aram": 576,
      "tim": 577,
      "##drv": 578,
      "le": 579,
      "##riv": 580,
      "start": 581,
      "temp": 582,
      "current": 583,
      "bdrv": 584,
      "lin": 585,
      "##ost": 586,
      "##_q": 587,
      "width": 588,
      "##heck": 589,
      "##ride": 590,
      "##_type_": 591,
      "init": 592,
      "##port": 593,
      "tcg_": 594,
      "##_block": 595,
      "##ition": 596,
      "##ong": 597,
      "##000": 598,
      "sl": 599,
      "##ilter": 600,
      "##_e": 601,
      "us": 602,
      "##end": 603,
      "##printf": 604,
      "##_frame": 605,
      "averror": 606,
      "frame": 607,
      "##vel": 608,
      "##_free": 609,
      "wh": 610,
      "memory": 611,
      "*)": 612,
      "##itch": 613,
      "channel": 614,
      "##reg": 615,
      "##age": 616,
      "mov": 617,
      "##_he": 618,
      "##age_": 619,
      "uint32_t": 620,
      "##_addr": 621,
      "##om": 622,
      "##rite": 623,
      "tcg_gen": 624,
      "uns": 625,
      "address": 626,
      "##esize": 627,
      "##valid": 628,
      "##ach": 629,
      "##_ctx": 630,
      "we": 631,
      "])": 632,
      "dis": 633,
      "##ctor": 634,
      "##ial": 635,
      "##_table": 636,
      "##_num": 637,
      "##no": 638,
      ">=": 639,
      "av_log_error": 640,
      "##_stream": 641,
      "register": 642,
      "##cess": 643,
      "dev": 644,
      "set": 645,
      "##oint": 646,
      "dest": 647,
      "as": 648,
      "##_cpu": 649,
      "code": 650,
      "addr": 651,
      "be": 652,
      "comp": 653,
      "##ampl": 654,
      "##_to": 655,
      "pc": 656,
      "struct": 657,
      "##md": 658,
      "pr": 659,
      "io": 660,
      "##ift": 661,
      "##ind": 662,
      "##err": 663,
      "##_str": 664,
      "audio": 665,
      "##ra": 666,
      "##si": 667,
      "##_pix": 668,
      "type": 669,
      "##_pro": 670,
      "##bject": 671,
      "##read": 672,
      "next": 673,
      "height": 674,
      "##ly": 675,
      "##ang": 676,
      "avio": 677,
      "of": 678,
      "##ant": 679,
      "switch": 680,
      "##data": 681,
      "##def": 682,
      "##_tim": 683,
      "frame_": 684,
      "unsigned": 685,
      "sub": 686,
      "##ber": 687,
      "##e_t": 688,
      "##lk": 689,
      "##_le": 690,
      "mv": 691,
      "on": 692,
      "##ey": 693,
      "##_us": 694,
      "##addr": 695,
      "str": 696,
      "##amples": 697,
      "##quest": 698,
      "##map": 699,
      "##cal": 700,
      "rt": 701,
      "last": 702,
      "header": 703,
      "new": 704,
      "read": 705,
      "virt": 706,
      "##red": 707,
      "##out": 708,
      "##_out": 709,
      "##pts": 710,
      "file": 711,
      "length": 712,
      "##_un": 713,
      "##ample_": 714,
      "##ans": 715,
      "default": 716,
      "##sn": 717,
      "0x0": 718,
      "0x1": 719,
      "##kip": 720,
      "get_bits": 721,
      "##_cl": 722,
      "##_ex": 723,
      "fail": 724,
      "##eld": 725,
      "##_picture": 726,
      "format": 727,
      "cont": 728,
      "put": 729,
      "inter": 730,
      "##ield": 731,
      "##_code": 732,
      "config": 733,
      "##ename": 734,
      "##_flag": 735,
      "bo": 736,
      "##_io": 737,
      "|=": 738,
      "##sh": 739,
      "##_user": 740,
      "##_mask": 741,
      "##_add": 742,
      "video": 743,
      "){": 744,
      "##qu": 745,
      "##_new": 746,
      "##ath": 747,
      "check": 748,
      "(*": 749,
      "im": 750,
      "##_mem": 751,
      "##_i32": 752,
      "##vm": 753,
      "12": 754,
      "##_nr": 755,
      "++;": 756,
      "##ore": 757,
      "##coder": 758,
      "##_u": 759,
      "##block": 760,
      "##ith": 761,
      "##rom": 762,
      "##loat": 763,
      "##_start": 764,
      "##ard": 765,
      "##lc": 766,
      "0xff": 767,
      "and": 768,
      "##stream": 769,
      "sp": 770,
      "##_sh": 771,
      "##_max": 772,
      "##irq": 773,
      "##per": 774,
      "##info": 775,
      "##_byt": 776,
      "pl": 777,
      "##_info": 778,
      "##_err": 779,
      "info": 780,
      "##peg": 781,
      "at": 782,
      "##format": 783,
      "uint64_t": 784,
      "pkt": 785,
      "##sr": 786,
      "##hys": 787,
      "##len": 788,
      "##_packet": 789,
      "pos": 790,
      "##_sector": 791,
      "##ction": 792,
      "sour": 793,
      "##eat": 794,
      "filter": 795,
      "##adata": 796,
      "##ld": 797,
      "name": 798,
      "##rite_": 799,
      "##uster": 800,
      "##able_": 801,
      "target_nr": 802,
      "mode": 803,
      "while": 804,
      "pixel": 805,
      "##ord": 806,
      "slic": 807,
      "##ary": 808,
      "10": 809,
      "##roma": 810,
      "##_mode": 811,
      "object": 812,
      "(%": 813,
      "##count": 814,
      "##ft": 815,
      "##16_t": 816,
      "option": 817,
      "##codec": 818,
      "##_value": 819,
      "count": 820,
      "##bug": 821,
      "##_per": 822,
      "tb": 823,
      "##_end": 824,
      "ptr": 825,
      "##ity": 826,
      "fl": 827,
      "##uv": 828,
      "##_ar": 829,
      "##und": 830,
      "list": 831,
      "32": 832,
      "##_name": 833,
      "##con": 834,
      "##_base": 835,
      "##eature": 836,
      "##cl": 837,
      "##vent": 838,
      "has": 839,
      "##sed": 840,
      "##estream": 841,
      "tcg_t": 842,
      "linesize": 843,
      "extr": 844,
      "##_al": 845,
      "##filter": 846,
      "rd": 847,
      "codec_id": 848,
      "bits": 849,
      "bytestream": 850,
      "##fd": 851,
      "##ync": 852,
      "ifdef": 853,
      "ent": 854,
      "it": 855,
      "##gb": 856,
      "##_malloc": 857,
      "int64_t": 858,
      "##ination": 859,
      "##mb": 860,
      "##ace": 861,
      "log": 862,
      "##_tl": 863,
      "di": 864,
      "\")": 865,
      "pix_fmt": 866,
      "picture": 867,
      "##ient": 868,
      "##_be": 869,
      "##cp": 870,
      "##ref": 871,
      "##ize_": 872,
      "##unc": 873,
      "pic": 874,
      "##elper": 875,
      "##_frame_": 876,
      "##dict": 877,
      "##irst": 878,
      "priv": 879,
      "status": 880,
      "##river": 881,
      "ne": 882,
      "decode": 883,
      "##_env": 884,
      "##12": 885,
      "##ache": 886,
      "vs": 887,
      "##rol": 888,
      "##_write": 889,
      "##264": 890,
      "sample_": 891,
      "##_mb": 892,
      "##_irq": 893,
      "<=": 894,
      "blk": 895,
      "ass": 896,
      "##vice_": 897,
      "##_stat": 898,
      "level": 899,
      "##_error": 900,
      "##lin": 901,
      "##cket": 902,
      "##od": 903,
      "##ce_": 904,
      "##ok": 905,
      "##ain": 906,
      "errp": 907,
      "##frame": 908,
      "avp": 909,
      "##edi": 910,
      "or": 911,
      "##buf": 912,
      "destination": 913,
      "##scal": 914,
      "##ep": 915,
      "##play": 916,
      "##e_b": 917,
      "##aque": 918,
      "##_list": 919,
      "virtio": 920,
      "band": 921,
      "##fs": 922,
      "spr": 923,
      "skip": 924,
      "##_flags": 925,
      "this": 926,
      "##ptr": 927,
      "##_for": 928,
      "\"\\": 929,
      "##ding": 930,
      "##rames": 931,
      "##eff": 932,
      "cb": 933,
      "##ual": 934,
      "arm": 935,
      "no": 936,
      "##_tr": 937,
      "##_width": 938,
      "##_put": 939,
      "##ars": 940,
      "##ace_": 941,
      "##_buf": 942,
      "sd": 943,
      "##_codec": 944,
      "ab": 945,
      "float": 946,
      "bus": 947,
      "min": 948,
      "##->": 949,
      "trans": 950,
      "##ler": 951,
      "opaque": 952,
      "##_fil": 953,
      "##lor": 954,
      "tcg_temp": 955,
      "##_invalid": 956,
      "sector": 957,
      "up": 958,
      "25": 959,
      "##24": 960,
      "##_k": 961,
      "##_region": 962,
      "##ave": 963,
      "##_inter": 964,
      "##rupt": 965,
      "##_mov": 966,
      "fdt": 967,
      "##lb": 968,
      "##index": 969,
      "comm": 970,
      "##buffer": 971,
      "##_length": 972,
      "##ointer": 973,
      "usb": 974,
      "**": 975,
      "host": 976,
      "request": 977,
      "insn": 978,
      "##rate": 979,
      "##_channel": 980,
      "hw": 981,
      "##scri": 982,
      "()": 983,
      "##one": 984,
      "load": 985,
      "##ero": 986,
      "rc": 987,
      "vm": 988,
      "##_prop": 989,
      "##own": 990,
      "##_sub": 991,
      "local": 992,
      "ts": 993,
      "##unk": 994,
      "cluster": 995,
      "##otion": 996,
      "##_ext": 997,
      "##_im": 998,
      "##name": 999,
      "##_helper": 1000,
      "##_register": 1001,
      "]=": 1002,
      "##lement": 1003,
      "cs": 1004,
      "##upport": 1005,
      "##form": 1006,
      "##ower": 1007,
      "invalid": 1008,
      "fprintf": 1009,
      "##ib": 1010,
      "##ernel": 1011,
      "##_pixel": 1012,
      "##xx": 1013,
      "##_address": 1014,
      "first": 1015,
      "##ical": 1016,
      "##_param": 1017,
      "avcodec": 1018,
      "##are": 1019,
      "##ifi": 1020,
      "##86": 1021,
      "##list": 1022,
      "##otal": 1023,
      "##ence": 1024,
      "##rect": 1025,
      "source": 1026,
      "##uration": 1027,
      "##_feature": 1028,
      "##ere": 1029,
      "param": 1030,
      "sn": 1031,
      "back": 1032,
      "##_memory": 1033,
      "##ph": 1034,
      "##_header": 1035,
      "##_pos": 1036,
      "arg1": 1037,
      "##entry": 1038,
      "defin": 1039,
      "opc": 1040,
      "##ffff": 1041,
      "##str": 1042,
      "##low": 1043,
      "##_sectors": 1044,
      "##bus": 1045,
      "vc": 1046,
      "##act": 1047,
      "##ge": 1048,
      "##_i64": 1049,
      "##e_p": 1050,
      "gen_helper": 1051,
      "key": 1052,
      "qdev": 1053,
      "##uld": 1054,
      "-=": 1055,
      "##ls": 1056,
      "cpu_env": 1057,
      "channels": 1058,
      "options": 1059,
      "chroma": 1060,
      "##_height": 1061
    }
  }
}