{
  "version": "1.0",
  "truncation": null,
  "padding": null,
  "added_tokens": [
    {
      "id": 0,
      "content": "<s>",
      "single_word": false,
      "lstrip": false,
      "rstrip": false,
      "normalized": false,
      "special": true
    },
    {
      "id": 1,
      "content": "<pad>",
      "single_word": false,
      "lstrip": false,
      "rstrip": false,
      "normalized": false,
      "special": true
    },
    {
      "id": 2,
      "content": "</s>",
      "single_word": false,
      "lstrip": false,
      "rstrip": false,
      "normalized": false,
      "special": true
    },
    {
      "id": 3,
      "content": "<unk>",
      "single_word": false,
      "lstrip": false,
      "rstrip": false,
      "normalized": false,
      "special": true
    }
  ],
  "normalizer": {
    "type": "Sequence",
    "normalizers": [
      {
        "type": "Lowercase"
      },
      {
        "type": "NFKD"
      },
      {
        "type": "Strip",
        "strip_left": true,
        "strip_right": true
      },
      {
        "type": "StripAccents"
      }
    ]
  },
  "pre_tokenizer": {
    "type": "Whitespace"
  },
  "post_processor": null,
  "decoder": {
    "type": "WordPiece",
    "prefix": "##",
    "cleanup": true
  },
  "model": {
    "type": "WordPiece",
    "unk_token": "[UNK]",
    "continuing_subword_prefix": "##",
    "max_input_chars_per_word": 100,
    "vocab": {
      "<s>": 0,
      "<pad>": 1,
      "</s>": 2,
      "<unk>": 3,
      "!": 4,
      "\"": 5,
      "#": 6,
      "$": 7,
      "%": 8,
      "&": 9,
      "'": 10,
      "(": 11,
      ")": 12,
      "*": 13,
      "+": 14,
      ",": 15,
      "-": 16,
      ".": 17,
      "/": 18,
      "0": 19,
      "1": 20,
      "2": 21,
      "3": 22,
      "4": 23,
      "5": 24,
      "6": 25,
      "7": 26,
      "8": 27,
      "9": 28,
      ":": 29,
      ";": 30,
      "<": 31,
      "=": 32,
      ">": 33,
      "?": 34,
      "@": 35,
      "[": 36,
      "\\": 37,
      "]": 38,
      "^": 39,
      "_": 40,
      "`": 41,
      "a": 42,
      "b": 43,
      "c": 44,
      "d": 45,
      "e": 46,
      "f": 47,
      "g": 48,
      "h": 49,
      "i": 50,
      "j": 51,
      "k": 52,
      "l": 53,
      "m": 54,
      "n": 55,
      "o": 56,
      "p": 57,
      "q": 58,
      "r": 59,
      "s": 60,
      "t": 61,
      "u": 62,
      "v": 63,
      "w": 64,
      "x": 65,
      "y": 66,
      "z": 67,
      "{": 68,
      "|": 69,
      "}": 70,
      "~": 71,
      "##p": 72,
      "##a": 73,
      "##r": 74,
      "##e": 75,
      "##n": 76,
      "##t": 77,
      "##l": 78,
      "##y": 79,
      "##u": 80,
      "##_": 81,
      "##s": 82,
      "##w": 83,
      "##f": 84,
      "##d": 85,
      "##g": 86,
      "##x": 87,
      "##i": 88,
      "##m": 89,
      "##c": 90,
      "##4": 91,
      "##o": 92,
      "##1": 93,
      "##2": 94,
      "##9": 95,
      "##v": 96,
      "##h": 97,
      "##b": 98,
      "##6": 99,
      "##3": 100,
      "##5": 101,
      "##z": 102,
      "##k": 103,
      "##0": 104,
      "##8": 105,
      "##7": 106,
      "##q": 107,
      "##[": 108,
      "##j": 109,
      "##}": 110,
      "##,": 111,
      "##+": 112,
      "##'": 113,
      "##=": 114,
      "##)": 115,
      "##;": 116,
      "##\"": 117,
      "##/": 118,
      "##{": 119,
      "##*": 120,
      "##%": 121,
      "##\\": 122,
      "##-": 123,
      "##>": 124,
      "##|": 125,
      "###": 126,
      "##^": 127,
      "##]": 128,
      "##:": 129,
      "##<": 130,
      "##?": 131,
      "##(": 132,
      "##.": 133,
      "##!": 134,
      "##@": 135,
      "##$": 136,
      "##~": 137,
      "##&": 138,
      "->": 139,
      "##et": 140,
      "##re": 141,
      "##nt": 142,
      ");": 143,
      "##er": 144,
      "##st": 145,
      "##at": 146,
      "##de": 147,
      "##or": 148,
      "##in": 149,
      "if": 150,
      "##se": 151,
      "##_t": 152,
      "##le": 153,
      "##on": 154,
      "av": 155,
      "##_c": 156,
      "##_s": 157,
      "##am": 158,
      "##ct": 159,
      "##it": 160,
      "##_p": 161,
      "##al": 162,
      "##_f": 163,
      "##lo": 164,
      "##ar": 165,
      "##en": 166,
      "##iz": 167,
      "##ize": 168,
      "st": 169,
      "##_b": 170,
      "ret": 171,
      "##ad": 172,
      "##id": 173,
      "int": 174,
      "##_m": 175,
      "##ck": 176,
      "##ff": 177,
      "##ur": 178,
      "##ode": 179,
      "##an": 180,
      "/*": 181,
      "##ic": 182,
      "*/": 183,
      "re": 184,
      "##ut": 185,
      "##ase": 186,
      "##he": 187,
      "##);": 188,
      "##em": 189,
      "##int": 190,
      "##pe": 191,
      "##ame": 192,
      "##ot": 193,
      "in": 194,
      "##ate": 195,
      "##ul": 196,
      "de": 197,
      "##ig": 198,
      "##op": 199,
      "##ag": 200,
      "##00": 201,
      "case": 202,
      "##ion": 203,
      "##urn": 204,
      "##mp": 205,
      "return": 206,
      "##el": 207,
      "##_re": 208,
      "en": 209,
      "##dr": 210,
      "##pu": 211,
      "##_in": 212,
      "##as": 213,
      "0x": 214,
      "##_n": 215,
      "##ex": 216,
      "##ed": 217,
      "##io": 218,
      "##_g": 219,
      "##_st": 220,
      "##_size": 221,
      "##ak": 222,
      "==": 223,
      "##ata": 224,
      "##ue": 225,
      "##_d": 226,
      "bu": 227,
      "##reak": 228,
      "##32": 229,
      "break": 230,
      "##es": 231,
      "##ab": 232,
      "##_r": 233,
      "##ac": 234,
      "cpu": 235,
      "##ror": 236,
      "##il": 237,
      "el": 238,
      "##ing": 239,
      "ch": 240,
      "size": 241,
      "##lock": 242,
      "##ype": 243,
      "##co": 244,
      "(&": 245,
      "for": 246,
      "##ap": 247,
      "##rame": 248,
      "else": 249,
      "##set": 250,
      "##_lo": 251,
      "##ext": 252,
      "co": 253,
      "##_i": 254,
      "op": 255,
      "\",": 256,
      "##64": 257,
      "##ro": 258,
      "##_v": 259,
      "##um": 260,
      "##ile": 261,
      "##ctx": 262,
      "##rc": 263,
      "##ix": 264,
      "er": 265,
      "))": 266,
      "++": 267,
      "##un": 268,
      "##us": 269,
      "##odec": 270,
      "con": 271,
      "the": 272,
      "tc": 273,
      "avctx": 274,
      "uint": 275,
      "##tr": 276,
      "##_l": 277,
      "##ri": 278,
      "is": 279,
      "##_log": 280,
      "buf": 281,
      "##_de": 282,
      "##ull": 283,
      "##_co": 284,
      "##_o": 285,
      "##arg": 286,
      "##_w": 287,
      "##ack": 288,
      "##if": 289,
      "##lag": 290,
      "##tx": 291,
      "##im": 292,
      "];": 293,
      "##ist": 294,
      "##ent": 295,
      "##is": 296,
      "##ffset": 297,
      "tcg": 298,
      "##th": 299,
      "##ir": 300,
      "ar": 301,
      "stat": 302,
      "##able": 303,
      "av_log": 304,
      "##_type": 305,
      "##its": 306,
      "(!": 307,
      "##ream": 308,
      "&&": 309,
      "null": 310,
      "##ch": 311,
      "gen": 312,
      "##_op": 313,
      "##_id": 314,
      "##dex": 315,
      "##arget": 316,
      "ff": 317,
      "get": 318,
      "##emu": 319,
      "][": 320,
      "codec": 321,
      "##ts": 322,
      "env": 323,
      "##ict": 324,
      "vo": 325,
      "ad": 326,
      "mm": 327,
      "ex": 328,
      "lo": 329,
      "##_get": 330,
      "##16": 331,
      "##error": 332,
      "##_h": 333,
      "%%": 334,
      "data": 335,
      "##up": 336,
      "ctx": 337,
      "##of": 338,
      "],": 339,
      "##_ad": 340,
      "##and": 341,
      "target": 342,
      "##ect": 343,
      "##pr": 344,
      "##ci": 345,
      "##oto": 346,
      "src": 347,
      "##ure": 348,
      "##ax": 349,
      "##amp": 350,
      "static": 351,
      "##ov": 352,
      "mb": 353,
      "qemu": 354,
      "to": 355,
      "((": 356,
      "void": 357,
      "##ntext": 358,
      "##unt": 359,
      "));": 360,
      "arg": 361,
      "##ice": 362,
      "++)": 363,
      "##art": 364,
      "##_en": 365,
      "block": 366,
      "##ss": 367,
      "),": 368,
      "val": 369,
      "un": 370,
      "const": 371,
      "goto": 372,
      "!=": 373,
      "reg": 374,
      "##ort": 375,
      "\");": 376,
      "out": 377,
      "##ample": 378,
      "##ce": 379,
      "tmp": 380,
      "##ign": 381,
      "##fo": 382,
      "##_bits": 383,
      "##ter": 384,
      "##_le": 385,
      "##igh": 386,
      "frame": 387,
      "##_set": 388,
      "##yt": 389,
      "dev": 390,
      "##lags": 391,
      "##ffer": 392,
      "mem": 393,
      "pb": 394,
      ">>": 395,
      "##ub": 396,
      "##ps": 397,
      "##ay": 398,
      "end": 399,
      "he": 400,
      "##ow": 401,
      "##ve": 402,
      "bs": 403,
      "+=": 404,
      "gb": 405,
      "err": 406,
      "<<": 407,
      "##code": 408,
      "error": 409,
      "##_reg": 410,
      "//": 411,
      "##rit": 412,
      "sizeof": 413,
      "##mt": 414,
      "||": 415,
      "##_a": 416,
      "##_bu": 417,
      "].": 418,
      "##context": 419,
      "##val": 420,
      "##state": 421,
      "th": 422,
      "##ask": 423,
      "##nel": 424,
      "dst": 425,
      "##sc": 426,
      "##err": 427,
      "##ult": 428,
      "##ight": 429,
      "##ree": 430,
      "nb": 431,
      "##put": 432,
      "##kt": 433,
      "##_se": 434,
      "##que": 435,
      "##_frame": 436,
      "##ine": 437,
      "##dev": 438,
      "##_he": 439,
      "##mm": 440,
      "tr": 441,
      "##ert": 442,
      "offset": 443,
      "len": 444,
      "##rite": 445,
      "##idth": 446,
      "##_index": 447,
      "al": 448,
      "##mat": 449,
      "##bu": 450,
      "str": 451,
      "cur": 452,
      "(\"": 453,
      "##pc": 454,
      "##loc": 455,
      "##ew": 456,
      "##ilter": 457,
      "sc": 458,
      "##8_t": 459,
      "##_x": 460,
      "def": 461,
      "##ast": 462,
      "##os": 463,
      "##_init": 464,
      "char": 465,
      "##ma": 466,
      "##age": 467,
      "##ip": 468,
      "##acket": 469,
      "##est": 470,
      "16": 471,
      "##_fmt": 472,
      "uint8_t": 473,
      "##ver": 474,
      "##ation": 475,
      "##ader": 476,
      "##_error": 477,
      "##intf": 478,
      "##ail": 479,
      "addr": 480,
      "##_free": 481,
      "##red": 482,
      "##_ch": 483,
      "##_ptr": 484,
      "##ass": 485,
      "dc": 486,
      "##_offset": 487,
      "pix": 488,
      "##_q": 489,
      "pci": 490,
      "##32_t": 491,
      "se": 492,
      "##sp": 493,
      "##_data": 494,
      "##0000": 495,
      "num": 496,
      "##ol": 497,
      "##icture": 498,
      "##_table": 499,
      "##annel": 500,
      "##64_t": 501,
      "fd": 502,
      "##_gen": 503,
      "sw": 504,
      "##_int": 505,
      "##ime": 506,
      "##pl": 507,
      "##_count": 508,
      "do": 509,
      "##nd": 510,
      "##ys": 511,
      "##uct": 512,
      "not": 513,
      "##ory": 514,
      "##ault": 515,
      "##_read": 516,
      "##pt": 517,
      "##_y": 518,
      "##_addr": 519,
      "##_con": 520,
      "id": 521,
      "sh": 522,
      "byt": 523,
      "##name": 524,
      "]);": 525,
      "max": 526,
      "##nc": 527,
      "file": 528,
      "pr": 529,
      "();": 530,
      "##drv": 531,
      "flags": 532,
      "ac": 533,
      "##alloc": 534,
      "##ust": 535,
      "##om": 536,
      "##ge": 537,
      "##emp": 538,
      "##irt": 539,
      "endif": 540,
      "sample": 541,
      "##_len": 542,
      "bdrv": 543,
      "##_str": 544,
      "we": 545,
      "##_e": 546,
      "##md": 547,
      "##ers": 548,
      "##ry": 549,
      "type": 550,
      "stream": 551,
      "be": 552,
      "ref": 553,
      "##ride": 554,
      "##bj": 555,
      "##ide": 556,
      "res": 557,
      "cl": 558,
      "##igned": 559,
      "##sn": 560,
      "##heck": 561,
      "##_base": 562,
      "of": 563,
      "tcg_gen": 564,
      "##000": 565,
      "le": 566,
      "##ines": 567,
      "##_add": 568,
      "##ly": 569,
      "##ost": 570,
      "sl": 571,
      "##rent": 572,
      "##ong": 573,
      "pkt": 574,
      "wh": 575,
      "##ace": 576,
      "##_write": 577,
      "##fig": 578,
      "##ud": 579,
      "##ress": 580,
      "##ector": 581,
      "##printf": 582,
      "index": 583,
      "##der": 584,
      "##ormat": 585,
      "##no": 586,
      "##ister": 587,
      "mov": 588,
      "pc": 589,
      "*)": 590,
      "##rq": 591,
      "averror": 592,
      "##_i32": 593,
      "width": 594,
      "##cp": 595,
      "value": 596,
      "])": 597,
      "as": 598,
      "##_buffer": 599,
      "##itch": 600,
      "uint32_t": 601,
      "##inesize": 602,
      "##_cpu": 603,
      "##_num": 604,
      "on": 605,
      "##vel": 606,
      "pre": 607,
      "##_ex": 608,
      "uns": 609,
      "##lk": 610,
      "av_log_error": 611,
      "##port": 612,
      ">=": 613,
      "##_block": 614,
      "##valid": 615,
      "bit": 616,
      "##ale": 617,
      "##_to": 618,
      "mv": 619,
      "##ctor": 620,
      "so": 621,
      "set": 622,
      "##_mask": 623,
      "##_pr": 624,
      "##ift": 625,
      "##ment": 626,
      "##_pix": 627,
      "start": 628,
      "##peg": 629,
      "next": 630,
      "##si": 631,
      "##_un": 632,
      "##_out": 633,
      "comp": 634,
      "##size": 635,
      "##aram": 636,
      "##ind": 637,
      "##udio": 638,
      "avio": 639,
      "##ache": 640,
      "code": 641,
      "struct": 642,
      "switch": 643,
      "##addr": 644,
      "##def": 645,
      "##ore": 646,
      "##end": 647,
      "##_us": 648,
      "unsigned": 649,
      "init": 650,
      "##ave": 651,
      "##map": 652,
      "last": 653,
      "##ra": 654,
      "name": 655,
      "us": 656,
      "0x0": 657,
      "0x1": 658,
      "add": 659,
      "##_cl": 660,
      "##ess": 661,
      "##ideo": 662,
      "##_file": 663,
      "##_err": 664,
      "and": 665,
      "default": 666,
      "##ant": 667,
      "pro": 668,
      "##out": 669,
      "##read": 670,
      "height": 671,
      "##ey": 672,
      "sub": 673,
      "rt": 674,
      "##_flag": 675,
      "memory": 676,
      "##_dev": 677,
      "channel": 678,
      "##_start": 679,
      "##_picture": 680,
      "##_code": 681,
      "fail": 682,
      "##eld": 683,
      "obj": 684,
      "##kip": 685,
      "##reg": 686,
      "##ield": 687,
      "buffer": 688,
      "##riv": 689,
      "get_bits": 690,
      "sp": 691,
      "){": 692,
      "##aque": 693,
      "errp": 694,
      "##ith": 695,
      "put": 696,
      "vs": 697,
      "##ec": 698,
      "avf": 699,
      "##_user": 700,
      "|=": 701,
      "read": 702,
      "##_sh": 703,
      "##_max": 704,
      "check": 705,
      "header": 706,
      "##per": 707,
      "virt": 708,
      "tb": 709,
      "##_val": 710,
      "##vm": 711,
      "new": 712,
      "(*": 713,
      "opt": 714,
      "dis": 715,
      "##_u": 716,
      "opaque": 717,
      "##_mem": 718,
      "12": 719,
      "##_new": 720,
      "insn": 721,
      "pl": 722,
      "##sr": 723,
      "##_end": 724,
      "++;": 725,
      "info": 726,
      "##_al": 727,
      "##gth": 728,
      "bo": 729,
      "##_io": 730,
      "rd": 731,
      "##_sample": 732,
      "##ive": 733,
      "current": 734,
      "##ffff": 735,
      "##bug": 736,
      "tcg_t": 737,
      "cont": 738,
      "register": 739,
      "##_nr": 740,
      "##ions": 741,
      "config": 742,
      "##_state": 743,
      "io": 744,
      "##_mode": 745,
      "it": 746,
      "##_packet": 747,
      "##loat": 748,
      "##_buf": 749,
      "##lc": 750,
      "at": 751,
      "pic": 752,
      "##_sector": 753,
      "##_mb": 754,
      "##_byt": 755,
      "##ath": 756,
      "##len": 757,
      "##eat": 758,
      "avp": 759,
      "uint64_t": 760,
      "##ld": 761,
      "linesize": 762,
      "##buf": 763,
      "##hys": 764,
      "##_irq": 765,
      "##ach": 766,
      "10": 767,
      "mode": 768,
      "##adata": 769,
      "while": 770,
      "##uster": 771,
      "(%": 772,
      "##cal": 773,
      "##cess": 774,
      "device": 775,
      "##qu": 776,
      "32": 777,
      "di": 778,
      "target_nr": 779,
      "output": 780,
      "##_info": 781,
      "##rom": 782,
      "##ink": 783,
      "log": 784,
      "##16_t": 785,
      "codec_id": 786,
      "##fd": 787,
      "list": 788,
      "this": 789,
      "##uv": 790,
      "##roma": 791,
      "ost": 792,
      "time": 793,
      "##ft": 794,
      "##_be": 795,
      "##eature": 796,
      "##sh": 797,
      "##unc": 798,
      "##codec": 799,
      "blk": 800,
      "##_stream": 801,
      "##_rate": 802,
      "##one": 803,
      "##estream": 804,
      "##sed": 805,
      "packet": 806,
      "ne": 807,
      "extr": 808,
      "has": 809,
      "##ord": 810,
      "cb": 811,
      "bytestream": 812,
      "pixel": 813,
      "##ial": 814,
      "##ard": 815,
      "##_tl": 816,
      "##_env": 817,
      "pix_fmt": 818,
      "##_i64": 819,
      "##_ctx": 820,
      "##und": 821,
      "##gb": 822,
      "ifdef": 823,
      "bits": 824,
      "##_per": 825,
      "\")": 826,
      "##info": 827,
      "or": 828,
      "##irst": 829,
      "##ync": 830,
      "##_opt": 831,
      "##_malloc": 832,
      "im": 833,
      "int64_t": 834,
      "##ans": 835,
      "rc": 836,
      "tcg_temp": 837,
      "##opy": 838,
      "gen_op": 839,
      "##fs": 840,
      "##_idx": 841,
      "##te": 842,
      "##stream": 843,
      "##date": 844,
      "opc": 845,
      "##_sc": 846,
      "filter": 847,
      "##12": 848,
      "\"\\": 849,
      "fl": 850,
      "cmd": 851,
      "no": 852,
      "count": 853,
      "ass": 854,
      "##quest": 855,
      "##ib": 856,
      "##vent": 857,
      "t0": 858,
      "##_put": 859,
      "##_hel": 860,
      "##_width": 861,
      "##_name": 862,
      "##_flags": 863,
      "<=": 864,
      "priv": 865,
      "audio": 866,
      "##ain": 867,
      "##imer": 868,
      "##_k": 869,
      "##ram": 870,
      "##_helper": 871,
      "##od": 872,
      "buf_size": 873,
      "spr": 874,
      "##reate": 875,
      "mb_type": 876,
      "##_mov": 877,
      "skip": 878,
      "##_stat": 879,
      "##coder": 880,
      "##_cache": 881,
      "##con": 882,
      "object": 883,
      "pos": 884,
      "hw": 885,
      "##data": 886,
      "]=": 887,
      "ts": 888,
      "dest": 889,
      "##ange": 890,
      "status": 891,
      "virtio": 892,
      "##_mm": 893,
      "##_header": 894,
      "cs": 895,
      "ab": 896,
      "band": 897,
      "##ity": 898,
      "##lt": 899,
      "gen_helper": 900,
      "load": 901,
      "##_list": 902,
      "arm": 903,
      "##_tr": 904,
      "##_ext": 905,
      "##_as": 906,
      "temp": 907,
      "##_sub": 908,
      "##->": 909,
      "##ref": 910,
      "##264": 911,
      "level": 912,
      "chr": 913,
      "##ph": 914,
      "##mb": 915,
      "decode": 916,
      "##cept": 917,
      "table": 918,
      "req": 919,
      "##add": 920,
      "ist": 921,
      "vc": 922,
      "25": 923,
      "write": 924,
      "##24": 925,
      "##xx": 926,
      "##ep": 927,
      "sd": 928,
      "##ero": 929,
      "##_invalid": 930,
      "##_prop": 931,
      "ptr": 932,
      "()": 933,
      "float": 934,
      "ent": 935,
      "##eff": 936,
      "sector": 937,
      "bus": 938,
      "fdt": 939,
      "samples": 940,
      "##_codec": 941,
      "##scale": 942,
      "avcodec": 943,
      "input": 944,
      "state": 945,
      "##ill": 946,
      "first": 947,
      "##_feature": 948,
      "##ms": 949,
      "ra": 950,
      "##_sectors": 951,
      "##str": 952,
      "min": 953,
      "##block": 954,
      "fprintf": 955,
      "##ound": 956,
      "##own": 957,
      "##ernel": 958,
      "##uld": 959,
      "par": 960,
      "**": 961,
      "video": 962,
      "ram": 963,
      "##rect": 964,
      "format": 965,
      "pts": 966,
      "ps": 967,
      "cluster": 968,
      "inter": 969,
      "args": 970,
      "##_ld": 971,
      "##unk": 972,
      "##ber": 973,
      "##86": 974,
      "local": 975,
      "slice": 976,
      "an": 977,
      "##all": 978,
      "can": 979,
      "std": 980,
      "##ane": 981,
      "host": 982,
      "picture": 983,
      "##ok": 984,
      "invalid": 985,
      "##_time": 986,
      "0xff": 987,
      "key": 988,
      "back": 989,
      "kvm": 990,
      "##ient": 991,
      "##av": 992,
      "##upport": 993,
      "##low": 994,
      "filename": 995,
      "cp": 996,
      "##hci": 997,
      "pred": 998,
      "##_debug": 999,
      "up": 1000,
      "with": 1001,
      "##lor": 1002,
      "##_vlc": 1003,
      "##mple": 1004,
      "qdev": 1005,
      "##_pixel": 1006,
      "##edi": 1007,
      "##_height": 1008,
      "address": 1009,
      "##_up": 1010,
      "0x2": 1011,
      "cpu_env": 1012,
      "##_decode": 1013,
      "##_ent": 1014,
      "use": 1015,
      "usb": 1016,
      "##ips": 1017,
      "mb_x": 1018,
      "desc": 1019,
      "##fg": 1020,
      "cc": 1021,
      "##oint": 1022,
      "arg1": 1023,
      "xmm": 1024,
      "##80": 1025,
      "##_region": 1026,
      "##_channel": 1027,
      "##andle": 1028,
      "-=": 1029,
      "##_or": 1030,
      "base": 1031,
      "##_shift": 1032,
      "sys": 1033,
      "##ined": 1034,
      "tag": 1035,
      "##\",": 1036,
      "sps": 1037,
      "##count": 1038,
      "##_comp": 1039,
      "\";": 1040,
      "##bus": 1041,
      "##_pre": 1042,
      "vnc": 1043,
      "##_pix_fmt": 1044,
      "mask": 1045,
      "##_page": 1046,
      "##line": 1047,
      "##_ass": 1048,
      "iov": 1049,
      "##ush": 1050,
      "##list": 1051,
      "fp": 1052,
      "##_j": 1053,
      "##_phys": 1054,
      "vp": 1055,
      "rn": 1056,
      "channels": 1057,
      "opts": 1058,
      "qu": 1059,
      "t1": 1060,
      "##ition": 1061,
      "##_ref": 1062,
      "have": 1063,
      "av_free": 1064,
      "mat": 1065,
      "##_filter": 1066,
      "stride": 1067,
      "l1": 1068,
      "rs": 1069,
      "##_ms": 1070,
      "0x3": 1071,
      "assert": 1072,
      "##uest": 1073,
      "bytes": 1074,
      "##_param": 1075,
      "chroma": 1076,
      "##ersion": 1077,
      "kernel": 1078,
      "##_alloc": 1079,
      "##cl": 1080,
      "##frame": 1081,
      "are": 1082,
      "##ded": 1083,
      "stderr": 1084,
      "##_sp": 1085,
      "##_map": 1086,
      "shift": 1087,
      "##ls": 1088,
      "##_field": 1089,
      "##mv": 1090,
      "run": 1091,
      "##cket": 1092,
      "##cpy": 1093,
      "##iv": 1094,
      "##_assert": 1095,
      "sn": 1096,
      "bytestream2": 1097,
      "##act": 1098,
      "that": 1099,
      "##_pos": 1100,
      "path": 1101,
      "map": 1102,
      "##lay": 1103,
      "##file": 1104,
      "enc": 1105,
      "##ek": 1106,
      "##iver": 1107,
      "##_pred": 1108,
      "##otion": 1109,
      "',": 1110,
      "##apr": 1111,
      "##_is": 1112,
      "ap": 1113,
      "##_load": 1114,
      "##_value": 1115,
      "##_ne": 1116,
      "(!(": 1117,
      "##pha": 1118,
      "##otal": 1119,
      "##lb": 1120,
      "fa": 1121,
      "fix": 1122,
      "##_th": 1123,
      "##_memory": 1124,
      ")))": 1125,
      "##ception": 1126,
      "##8x": 1127,
      "pict": 1128,
      "dir": 1129,
      ":%": 1130,
      "##_device": 1131,
      "ms": 1132,
      "length": 1133,
      "##filter": 1134,
      "ext": 1135,
      "arg2": 1136,
      "old": 1137,
      "##dict": 1138,
      "defined": 1139,
      "##ower": 1140,
      "av_pix_fmt": 1141,
      "##_bit": 1142,
      "]->": 1143,
      "##omem": 1144,
      "##_byte": 1145,
      "##10": 1146,
      "##driver": 1147,
      "##_context": 1148,
      "extradata": 1149,
      "##_bus": 1150,
      "##let": 1151,
      "mm0": 1152,
      "page": 1153,
      "memcpy": 1154,
      "64": 1155,
      "cpu_t": 1156,
      "##_errno": 1157,
      "##_status": 1158,
      "##_dis": 1159,
      "true": 1160,
      "=%": 1161,
      "##ob": 1162,
      "##_z": 1163,
      "vm": 1164,
      "##abled": 1165,
      "from": 1166,
      "##_pc": 1167,
      "vdev": 1168,
      "##_cb": 1169,
      "##rol": 1170,
      "##_invaliddata": 1171,
      "averror_invaliddata": 1172,
      "prev": 1173,
      "##_pro": 1174,
      "##_ul": 1175,
      "##ding": 1176,
      "ot": 1177,
      "##upt": 1178,
      "ffm": 1179,
      "##ug": 1180,
      "##orm": 1181,
      "15": 1182,
      "##uration": 1183,
      "##queue": 1184,
      "pps": 1185,
      "##enc": 1186,
      "priv_data": 1187,
      "##_ar": 1188,
      "tmp2": 1189,
      "##res": 1190,
      "##ler": 1191,
      "##be": 1192,
      "ser": 1193,
      "idx": 1194,
      "alloc": 1195,
      "##ary": 1196,
      "long": 1197,
      "##so": 1198,
      "param": 1199,
      "##_mv": 1200,
      "##ild": 1201,
      "0xf": 1202,
      "##stride": 1203,
      "l2": 1204,
      "##iled": 1205,
      "##ray": 1206,
      "regs": 1207,
      "uint16_t": 1208,
      "##_ulong": 1209,
      "--": 1210,
      "##play": 1211,
      "##rd": 1212,
      "##_create": 1213,
      "##pel": 1214,
      "##pect": 1215,
      "##me": 1216,
      "##_tag": 1217,
      "##_tab": 1218,
      "mpeg": 1219,
      "##bo": 1220,
      "##ere": 1221,
      "##ash": 1222,
      "port": 1223,
      "##_src": 1224,
      "##ical": 1225,
      "&=": 1226,
      "\"%": 1227,
      "irq": 1228,
      "total": 1229,
      "##ang": 1230,
      "exit": 1231,
      "##are": 1232,
      "power": 1233,
      "##pth": 1234,
      "##fl": 1235,
      "act": 1236,
      "##pp": 1237,
      "##format": 1238,
      "##ios": 1239,
      "##ated": 1240,
      "uv": 1241,
      "mon": 1242,
      "vec": 1243,
      "##**": 1244,
      "error_set": 1245,
      "##alse": 1246,
      "spapr": 1247,
      "##ux": 1248,
      ")(": 1249,
      "ip": 1250,
      "ein": 1251,
      "##fault": 1252,
      "##_inter": 1253,
      "};": 1254,
      "contin": 1255,
      "memory_region": 1256,
      "##rl": 1257,
      "comm": 1258,
      "false": 1259,
      "movq": 1260,
      "##cr": 1261,
      "##_filename": 1262,
      "entry": 1263,
      "##_ab": 1264,
      "##_fl": 1265,
      "tcg_temp_free": 1266,
      "##_format": 1267,
      "##ifi": 1268,
      "##_check": 1269,
      "memset": 1270,
      "##cb": 1271,
      "##_not": 1272,
      "guest": 1273,
      "mx": 1274,
      "mb_y": 1275,
      "##errupt": 1276,
      "av_malloc": 1277,
      "cr": 1278,
      "aio": 1279,
      "##ctl": 1280,
      "##cow": 1281,
      "##_fd": 1282,
      "##lose": 1283,
      "##achine": 1284,
      "##du": 1285,
      "##c0": 1286,
      "##pec": 1287,
      "##ptr": 1288,
      "##_pixels": 1289,
      "tcgv": 1290,
      "einval": 1291,
      "##_stride": 1292,
      "##ify": 1293,
      "continue": 1294,
      "##ens": 1295,
      "mm1": 1296,
      "trans": 1297,
      "##_string": 1298,
      "##br": 1299,
      "##_pic": 1300,
      "##use": 1301,
      "##_streams": 1302,
      "line": 1303,
      "##_cmd": 1304,
      "color": 1305,
      "##_func": 1306,
      "##_ac": 1307,
      "##_insn": 1308,
      "##_report": 1309,
      "open": 1310,
      "]]": 1311,
      "plane": 1312,
      "##upported": 1313,
      "scan": 1314,
      "failed": 1315,
      "##ga": 1316,
      "##gr": 1317,
      "##ell": 1318,
      "g_assert": 1319,
      "dr": 1320,
      "strc": 1321,
      "track": 1322,
      "##11": 1323,
      "vector": 1324,
      "lock": 1325,
      "qdict": 1326,
      "##cs": 1327,
      "##44": 1328,
      "##ual": 1329,
      "only": 1330,
      "##_par": 1331,
      "##_sig": 1332,
      "error_setg": 1333,
      "low": 1334,
      "copy": 1335,
      "##_cmp": 1336,
      "by": 1337,
      "field": 1338,
      "sy": 1339,
      "##_register": 1340,
      "##_update": 1341,
      "av_codec": 1342,
      "rm": 1343,
      "##ml": 1344,
      "##_bytes": 1345,
      "local_err": 1346,
      "##region": 1347,
      "##_sl": 1348,
      "##ped": 1349,
      "20": 1350,
      "##iff": 1351,
      "##mov": 1352,
      "##_intra": 1353,
      "off": 1354,
      "pal": 1355,
      "index_op": 1356,
      "##erty": 1357,
      "##_rl": 1358,
      "##ser": 1359,
      "##_tb": 1360,
      "##atch": 1361,
      "##device": 1362,
      "##_samples": 1363,
      "##lta": 1364,
      "##_enc": 1365,
      "256": 1366,
      "##_dc": 1367,
      "##_im": 1368,
      "dsp": 1369,
      "avcodeccontext": 1370,
      "ss": 1371,
      "%%\"": 1372,
      "enomem": 1373,
      "bool": 1374,
      "motion": 1375,
      "##_entry": 1376,
      "sig": 1377,
      "g_free": 1378,
      "##itor": 1379,
      "mm2": 1380,
      "v9": 1381,
      "get_errno": 1382,
      "##rix": 1383,
      "##42": 1384,
      "##_reset": 1385,
      "11": 1386,
      "##ning": 1387,
      "##uid": 1388,
      "powerpc": 1389,
      "all": 1390,
      "per": 1391,
      "##bit": 1392,
      "##_input": 1393,
      "##iov": 1394,
      "##_audio": 1395,
      "##_config": 1396,
      "##ake": 1397,
      "get_bits1": 1398,
      "##ump": 1399,
      "##driverstate": 1400,
      "request": 1401,
      "lum": 1402,
      "##_no": 1403,
      "avformat": 1404,
      "vf": 1405,
      "need": 1406,
      "image": 1407,
      "qp": 1408,
      "##_ram": 1409,
      "nbd": 1410,
      "##_gpr": 1411,
      "test": 1412,
      "avpkt": 1413,
      "*(": 1414,
      "##_key": 1415,
      "##_arg": 1416,
      "int16_t": 1417,
      "##_min": 1418,
      "av_codec_id": 1419,
      "omap": 1420,
      "##mplement": 1421,
      "##_2": 1422,
      "##_length": 1423,
      "##edia": 1424,
      "##nect": 1425,
      "##_av": 1426,
      "version": 1427,
      "##_cond": 1428,
      "mo": 1429,
      "time_base": 1430,
      "vis": 1431,
      "##level": 1432,
      "node": 1433,
      "rx": 1434,
      "##wap": 1435,
      "current_picture": 1436,
      "##_decoder": 1437,
      "##_cfg": 1438,
      "##ance": 1439,
      "##_video": 1440,
      "##_be32": 1441,
      "pa": 1442,
      "##irty": 1443,
      "0x00": 1444,
      "##_left": 1445,
      "update": 1446,
      "po": 1447,
      "##rap": 1448,
      "sm": 1449,
      "mm4": 1450,
      "0xffff": 1451,
      "vd": 1452,
      "sign": 1453,
      "qcow": 1454,
      "##_long": 1455,
      "options": 1456,
      "over": 1457,
      "##39": 1458,
      "##cond": 1459,
      "##_ed": 1460,
      "##ould": 1461,
      "seg": 1462,
      "top": 1463,
      "##abel": 1464,
      "##pos": 1465,
      "streams": 1466,
      "##ping": 1467,
      "##_zero": 1468,
      "##link": 1469,
      "##_opts": 1470,
      "##xl": 1471,
      "##eth": 1472,
      "##_struct": 1473,
      "##ise": 1474,
      "##ute": 1475,
      "24": 1476,
      "##flag": 1477,
      "##_on": 1478,
      "fs": 1479,
      "nv": 1480,
      "##_cc": 1481,
      "##ries": 1482,
      "##flags": 1483,
      "##ction": 1484,
      "##cc": 1485,
      "chunk": 1486,
      "##_pl": 1487,
      "access": 1488,
      "mp": 1489,
      "##_pci": 1490,
      "##8x8": 1491,
      "##imit": 1492,
      "##nal": 1493,
      "debug": 1494,
      "##_sy": 1495,
      "##mask": 1496,
      "##etadata": 1497,
      "##lem": 1498,
      "##andler": 1499,
      "':": 1500,
      "##do": 1501,
      "bytestream2_get": 1502,
      "##_frames": 1503,
      "got": 1504,
      "##to": 1505,
      "trace": 1506,
      "ide": 1507,
      "##roup": 1508,
      "target_ulong": 1509,
      "##rypt": 1510,
      "\"(": 1511,
      "##rag": 1512,
      "##_timer": 1513,
      "##coding": 1514,
      "codec_type": 1515,
      "##pi": 1516,
      "mm3": 1517,
      "isa": 1518,
      "bios": 1519,
      "cor": 1520,
      "store": 1521,
      "##_open": 1522,
      "##ices": 1523,
      "h264": 1524,
      "fixme": 1525,
      "av_d": 1526,
      "scsi": 1527,
      "initrd": 1528,
      "13": 1529,
      "##_queue": 1530,
      "left": 1531,
      "..": 1532,
      "rgb": 1533,
      "##ript": 1534,
      "##__": 1535,
      "##_find": 1536,
      "ppc": 1537,
      "0x4": 1538,
      "sample_rate": 1539,
      "##indow": 1540,
      "##_class": 1541,
      "##_cap": 1542,
      "##ayout": 1543,
      "excp": 1544,
      "arg3": 1545,
      "##uble": 1546,
      "##urce": 1547,
      "tb_ptr": 1548,
      "##opts": 1549,
      "##_enabled": 1550,
      "##_yuv": 1551,
      "client": 1552,
      ".\\": 1553,
      "dprintf": 1554,
      "tci": 1555,
      "\"))": 1556,
      "opcode": 1557,
      "coeff": 1558,
      "##_number": 1559,
      "qxl": 1560,
      "##--": 1561,
      "##sent": 1562,
      "##face": 1563,
      "cp0": 1564,
      "##_rb": 1565,
      "refcount": 1566,
      "ed": 1567,
      "strcmp": 1568,
      "##type": 1569,
      "##bject": 1570,
      "scale": 1571,
      "##26": 1572,
      "tcg_out": 1573,
      "##req": 1574,
      "nb_sectors": 1575,
      "%\"": 1576,
      "##stat": 1577,
      "blockdriverstate": 1578,
      "tcg_temp_new": 1579,
      "##fn": 1580,
      "va": 1581,
      "},": 1582,
      "dec": 1583,
      "pass": 1584,
      "##_request": 1585,
      "##_property": 1586,
      "px": 1587,
      "si": 1588,
      "##a2": 1589,
      "##_and": 1590,
      "++){": 1591,
      "##_mmx": 1592,
      "xxx": 1593,
      "##fer": 1594,
      "##ette": 1595,
      "##_64": 1596,
      "##_skip": 1597,
      "offsetof": 1598,
      "net": 1599,
      "##cel": 1600,
      "byte": 1601,
      "##_output": 1602,
      "dct": 1603,
      "machine": 1604,
      "##form": 1605,
      "##50": 1606,
      "##drm": 1607,
      "sysbus": 1608,
      "av_freep": 1609,
      "dp": 1610,
      "##_const": 1611,
      "handle": 1612,
      "qscale": 1613,
      "##_order": 1614,
      "0x8": 1615,
      "fw": 1616,
      "real": 1617,
      "##rr": 1618,
      "pm": 1619,
      "but": 1620,
      "thread": 1621,
      "error_report": 1622,
      "rb": 1623,
      "##_off": 1624,
      "put_bits": 1625,
      "##lete": 1626,
      "##ait": 1627,
      "##_addr_t": 1628,
      "event": 1629,
      "timer": 1630,
      "encode": 1631,
      "##_vp": 1632,
      "##trl": 1633,
      "##_qu": 1634,
      "int32_t": 1635,
      "var": 1636,
      "##ies": 1637,
      "mips": 1638,
      ")));": 1639,
      "##_edge": 1640,
      "dri": 1641,
      "avm": 1642,
      "##_next": 1643,
      "nal": 1644,
      "##_16": 1645,
      "asf": 1646,
      "##edia_type": 1647,
      "##oot": 1648,
      "##point": 1649,
      "printf": 1650,
      "##_thread": 1651,
      "mac": 1652,
      "vh": 1653,
      "##par": 1654,
      "one": 1655,
      "xen": 1656,
      "cond": 1657,
      "##sk": 1658,
      "##_h264": 1659,
      "tlb": 1660,
      "##ration": 1661,
      "##yn": 1662,
      "pref": 1663,
      "##": 1664,
      "##ken": 1665,
      "t2": 1666,
      "##_pkt": 1667,
      "av_log_debug": 1668,
      "zero": 1669,
      "##nown": 1670,
      "##dec": 1671,
      "##comp": 1672,
      "##_comm": 1673,
      "exp": 1674,
      "##_host": 1675,
      "1024": 1676,
      "##_so": 1677,
      "mm7": 1678,
      "errno": 1679,
      "##_dst": 1680,
      "##_desc": 1681,
      "##_aio": 1682,
      "##_mat": 1683,
      "acb": 1684,
      "log2": 1685,
      "##linesize": 1686,
      "##_4": 1687,
      "##_copy": 1688,
      "##gram": 1689,
      "avfilter": 1690,
      "avmedia_type": 1691,
      "##ork": 1692,
      "##_res": 1693,
      "##uff": 1694,
      "##_1": 1695,
      "0x7": 1696,
      "ds": 1697,
      "duration": 1698,
      "##_dr": 1699,
      "##stem": 1700,
      "fmt": 1701,
      "'\\": 1702,
      "\\\"": 1703,
      "##rosk": 1704,
      "part": 1705,
      "##arning": 1706,
      "##ott": 1707,
      "reset": 1708,
      "##uth": 1709,
      "##utex": 1710,
      "##_store": 1711,
      "tile": 1712,
      "##attr": 1713,
      "pict_type": 1714,
      "phys": 1715,
      "##lob": 1716,
      "##_excp": 1717,
      "matrosk": 1718,
      "ld": 1719,
      "##_pts": 1720,
      "seek": 1721,
      "sector_num": 1722,
      "msr": 1723,
      "xb": 1724,
      "number": 1725,
      "##_event": 1726,
      "##onent": 1727,
      "##ifo": 1728,
      "++]": 1729,
      "backing": 1730,
      "fc": 1731,
      "free": 1732,
      "##nce": 1733,
      "##buffer": 1734,
      "unlock": 1735,
      "parse": 1736,
      "##_model": 1737,
      "##_align": 1738,
      "oc": 1739,
      "cpu_to": 1740,
      "should": 1741,
      "could": 1742,
      "double": 1743,
      "128": 1744,
      "intra": 1745,
      "img": 1746,
      "avframe": 1747,
      "*/\\": 1748,
      "##_rgb": 1749,
      "##mplemented": 1750,
      "##_address": 1751,
      "##_abort": 1752,
      "avformatcontext": 1753,
      "mc": 1754,
      "pte": 1755,
      "##leg": 1756,
      "scan8": 1757,
      "##itle": 1758,
      "##_bs": 1759,
      "##_channels": 1760,
      "exception": 1761,
      "size_t": 1762,
      "##_chroma": 1763,
      "')": 1764,
      "quant": 1765,
      "uvlinesize": 1766,
      "tim": 1767,
      "##_ap": 1768,
      "control": 1769,
      "non": 1770,
      "##ply": 1771,
      "my": 1772,
      "##db": 1773,
      "row": 1774,
      "matroska": 1775,
      "dts": 1776,
      "ep": 1777,
      "##56": 1778,
      "predict": 1779,
      ")*": 1780,
      "me": 1781,
      "##pcm": 1782,
      "tcg_gen_mov": 1783,
      "user": 1784,
      "##_run": 1785,
      "##_vf": 1786,
      "coded": 1787,
      "##_pixels_tab": 1788,
      "##_slice": 1789,
      "register_decoder": 1790,
      "##c1": 1791,
      "##eta": 1792,
      "##>>": 1793,
      "##_layout": 1794,
      "mod": 1795,
      "##ence": 1796,
      "blocks": 1797,
      "'%": 1798,
      "##_matrix": 1799,
      "frames": 1800,
      "##_0": 1801,
      "##ugh": 1802,
      "qt": 1803,
      "##_parse": 1804,
      ")]": 1805,
      "31": 1806,
      "##oll": 1807,
      "##lot": 1808,
      "ver": 1809,
      "##_loop": 1810,
      "target_page": 1811,
      "disas": 1812,
      "unlock_user": 1813,
      "##_space": 1814,
      "(((": 1815,
      "g_malloc": 1816,
      "il": 1817,
      "ph": 1818,
      "##_br": 1819,
      "qemu_opt": 1820,
      "den": 1821,
      "##known": 1822,
      "cpu_tmp": 1823,
      "##_back": 1824,
      "define": 1825,
      "find": 1826,
      "##_clock": 1827,
      "##_word": 1828,
      "##shot": 1829,
      "##apshot": 1830,
      "sws": 1831,
      "##object": 1832,
      "##_cp": 1833,
      "interrupt": 1834,
      "cbp": 1835,
      "##_dir": 1836,
      "##pend": 1837,
      "##bd": 1838,
      "stream_index": 1839,
      "pri": 1840,
      "prop": 1841,
      "##_qp": 1842,
      "##_flush": 1843,
      ")\\": 1844,
      "##ause": 1845,
      "##tb": 1846,
      "##_chunk": 1847,
      "drv": 1848,
      "cpu_src": 1849,
      "##_exception": 1850,
      "##_3": 1851,
      "dma": 1852,
      "##legal": 1853,
      "##regs": 1854,
      "##quant": 1855,
      "lock_user": 1856,
      "pfl": 1857,
      "tx": 1858,
      "##dst": 1859,
      "##log": 1860,
      "[(": 1861,
      "mm5": 1862,
      "spec": 1863,
      "url": 1864,
      "##card": 1865,
      "##atio": 1866,
      "##load": 1867,
      "prot": 1868,
      "result": 1869,
      "initial": 1870,
      "##fi": 1871,
      "link": 1872,
      "vb": 1873,
      "##eric": 1874,
      "depth": 1875,
      "fill": 1876,
      "##_trans": 1877,
      "...": 1878,
      "##vc": 1879,
      "##_mpeg": 1880,
      "##_coeff": 1881,
      "ht": 1882,
      "vq": 1883,
      "##_level": 1884,
      "fw_cfg": 1885,
      "range": 1886,
      "##_go": 1887,
      "##ection": 1888,
      "##000000": 1889,
      "##mmu": 1890,
      "socket": 1891,
      "diff": 1892,
      "os": 1893,
      "done": 1894,
      "boot": 1895,
      "qcow2": 1896,
      "illegal": 1897,
      "must": 1898,
      "padd": 1899,
      "14": 1900,
      "nr": 1901,
      "##src": 1902,
      "display": 1903,
      "##o_cpu": 1904,
      "##ark": 1905,
      "##_line": 1906,
      "memoryregion": 1907,
      "##usters": 1908,
      "g_assert_cmp": 1909,
      "v9fs": 1910,
      "##pic": 1911,
      "##aw": 1912,
      "##erv": 1913,
      "frame_size": 1914,
      "##xy": 1915,
      "##lomb": 1916,
      "##_scale": 1917,
      "##2000": 1918,
      "##_ret": 1919,
      "create": 1920,
      "region": 1921,
      "cle": 1922,
      "##ick": 1923,
      "##_band": 1924,
      "##_handle": 1925,
      "nb_streams": 1926,
      "##mmx": 1927,
      "step": 1928,
      "mis": 1929,
      "##arch": 1930,
      "##rate": 1931,
      "##sum": 1932,
      "##_printf": 1933,
      "pci_dev": 1934,
      "##_lock": 1935,
      "##eded": 1936,
      "##_t0": 1937,
      "##_files": 1938,
      "##ifier": 1939,
      "call": 1940,
      "now": 1941,
      "##fe": 1942,
      "##_cr": 1943,
      "mult": 1944,
      "##pio": 1945,
      "found": 1946,
      "##ose": 1947,
      "supported": 1948,
      "context": 1949,
      "too": 1950,
      "modrm": 1951,
      "delta": 1952,
      "mig": 1953,
      "##ailable": 1954,
      "##class": 1955,
      "##move": 1956,
      "##tp": 1957,
      "##_di": 1958,
      "short": 1959,
      "used": 1960,
      "##_none": 1961,
      "##_regs": 1962,
      "will": 1963,
      "alpha": 1964,
      "##estamp": 1965,
      "cap": 1966,
      "##cmp": 1967,
      "vga": 1968,
      "##net": 1969,
      "##li": 1970,
      "qemu_get": 1971,
      "##mul": 1972,
      "##_cluster": 1973,
      "##book": 1974,
      "##_golomb": 1975,
      "##_cur": 1976,
      "##_req": 1977,
      "vol": 1978,
      "todo": 1979,
      "pack": 1980,
      "##_from": 1981,
      "##core": 1982,
      "==,": 1983,
      ")[": 1984,
      "metadata": 1985,
      "sum": 1986,
      "##erate": 1987,
      "av_n": 1988,
      "##0000000": 1989,
      "##erence": 1990,
      "##riptor": 1991,
      "iv": 1992,
      "##mode": 1993,
      "##ingle": 1994,
      "##263": 1995,
      "##2c": 1996,
      "##lobal": 1997,
      "mr": 1998,
      "##ll": 1999,
      "##way": 2000,
      "arm_feature": 2001,
      "##lac": 2002,
      "##dup": 2003,
      "##15": 2004,
      "##atile": 2005,
      "inline": 2006,
      "512": 2007,
      "sr": 2008,
      "_fd": 2009,
      "##opts_value": 2010,
      "av_nopts_value": 2011,
      "##_rd": 2012,
      "tci_read": 2013,
      "##num": 2014,
      "##fx": 2015,
      "##cpu": 2016,
      "data_size": 2017,
      "any": 2018,
      "##_bo": 2019,
      "ram_size": 2020,
      "_fdt": 2021,
      "##vert": 2022,
      "##_sign": 2023,
      "##_delay": 2024,
      "##main": 2025,
      "##lease": 2026,
      "sock": 2027,
      "cache": 2028,
      "##vt": 2029,
      "mmu": 2030,
      "##qui": 2031,
      "server": 2032,
      "##_blocks": 2033,
      "qemu_opt_get": 2034,
      "##_ratio": 2035,
      "snprintf": 2036,
      "##back": 2037,
      "unknown": 2038,
      "##_exit": 2039,
      "avpacket": 2040,
      "qobject": 2041,
      "##urface": 2042,
      "idct": 2043,
      "##_pcm": 2044,
      "command": 2045,
      "##not": 2046,
      "##sw": 2047,
      "##ither": 2048,
      "s1": 2049,
      "##title": 2050,
      "send": 2051,
      "av_picture": 2052,
      "gen_load": 2053,
      "raw": 2054,
      "##bits": 2055,
      "##_mutex": 2056,
      "palette": 2057,
      "delay": 2058,
      "##390": 2059,
      "##tsp": 2060,
      "##_hw": 2061,
      "pxa2": 2062,
      "vlc": 2063,
      "##_dirty": 2064,
      "--;": 2065,
      "there": 2066,
      "edge": 2067,
      "vhost": 2068,
      "sel": 2069,
      "##_32": 2070,
      "##_mc": 2071,
      "option": 2072,
      "close": 2073,
      "##erm": 2074,
      "rrr": 2075,
      "##outine": 2076,
      "qiov": 2077,
      "cc_op": 2078,
      "##ian": 2079,
      "does": 2080,
      "##_rl32": 2081,
      "##_vfp": 2082,
      "##start": 2083,
      "##_warning": 2084,
      "strlen": 2085,
      "vc1": 2086,
      "##_path": 2087,
      "##ich": 2088,
      "##agic": 2089,
      "##_uint": 2090,
      "##****": 2091,
      "som": 2092,
      "sync": 2093,
      "av_picture_type": 2094,
      "reg_a": 2095,
      "skip_bits": 2096,
      "hwaddr": 2097,
      "(;": 2098,
      "##_qemu": 2099,
      "nc": 2100,
      "##ef": 2101,
      "##\");": 2102,
      "avg": 2103,
      "##_seg": 2104,
      "##_cont": 2105,
      "##_features": 2106,
      "high": 2107,
      "psr": 2108,
      "##uc": 2109,
      "##wd": 2110,
      "##_mt": 2111,
      "##_aspect": 2112,
      "serial": 2113,
      "powerpc_excp": 2114,
      "##ethod": 2115,
      "active": 2116,
      "hdr": 2117,
      "##oc": 2118,
      "##resh": 2119,
      "av_get": 2120,
      "ffmin": 2121,
      "!(": 2122,
      "(\"%": 2123,
      "bad": 2124,
      "func": 2125,
      "##_idct": 2126,
      "##_send": 2127,
      "##_xy": 2128,
      "sdl": 2129,
      "##ling": 2130,
      "##_exp": 2131,
      "):": 2132,
      "section": 2133,
      "hel": 2134,
      "##_array": 2135,
      "params": 2136,
      "##_vp8": 2137,
      "af": 2138,
      "##_act": 2139,
      "##_strdup": 2140,
      "##mem": 2141,
      "bitstream": 2142,
      "##ther": 2143,
      "##ds": 2144,
      "##col": 2145,
      "pt": 2146,
      "##_handler": 2147,
      "##_clusters": 2148,
      "elem": 2149,
      "ren": 2150,
      "##led": 2151,
      "##ite": 2152,
      "##ific": 2153,
      "direct": 2154,
      "pdu": 2155,
      "yuv": 2156,
      "##gress": 2157,
      "##band": 2158,
      "##_image": 2159
    }
  }
}